#version: 0.2
Ġ t
h e
Ġ a
o n
i n
Ġ o
Ġt he
r e
i t
Ġo f
i s
e n
a t
e r
Ġ w
Ġ c
i on
Ġ s
Ġ p
a l
i c
Ġ in
n d
e s
Ġ b
Ġt h
o r
Ġt o
Ġ m
c e
c t
in g
Ġ f
a n
e d
Ġ n
Ġ e
s e
o u
Ġ is
l y
Ġ Ġ
l e
Ġ re
Ġ it
Ġa nd
Ġc on
Ġ d
Ġb e
s t
o m
en t
Ġw h
o t
a r
a s
u t
ic h
e ct
Ġ h
Ġp r
Ġa s
l l
Ġ u
Ġwh ich
Ġth at
t he
i v
i m
it ion
at ion
o s
it y
Ġa n
Ġe x
Ġ on
Ġ l
ic al
Ġn ot
ĠĠ ĠĠ
p t
j ect
Ġth is
es s
o w
Ġw e
it h
Ġf or
i d
b ject
i b
Ġs u
en ce
ce pt
t er
u re
l d
i r
Ġ g
Ġw ith
t h
u r
c i
v er
Ġ I
q u
o g
iv e
re s
is t
Ġo r
cept ion
as on
a y
e re
g h
a in
Ġc an
e c
i f
Ġb y
a nd
p er
se l
â Ģ
s ib
Ä ł
u l
Ġa ll
e m
r om
p p
Ġpr o
Ġre ason
Ġ T
Ġo bject
Ġa re
c on
v e
at e
c h
Ġf rom
en d
i l
Ġd e
u st
Ġa l
o re
Ġin t
p le
a ct
the r
Ġb ut
u s
he n
Ġit s
os sib
Ġh a
Ġcon ception
i ll
Ġa t
Ġon ly
a w
a m
a b
p l
Ġu n
ou ld
d ition
nd er
d e
ou gh
âĢ Ķ
sel f
u m
o l
i g
in ci
ĠĠĠĠ ĠĠĠĠ
Ġc a
Ġ (
an s
t ain
Ġo ur
Ġthe re
m in
i es
Ġl aw
ter min
t r
Ġm ust
Ġs p
Ġc om
n ot
c c
o f
al ity
Ġ r
es t
Ġp ossib
Ġpr inci
ec ess
ou s
res ent
Ġe m
Ġw or
Ġs o
id e
Ġp ure
Ġex ist
Ġo ther
he r
Ġm e
Ġu nder
i ence
Ġha ve
per ience
Ġde termin
Ġ v
st and
ct ion
Ġt r
Ġd o
Ġs en
og n
Ġm ere
Ġw ill
f ore
o d
im e
ĠT he
p r
Ġ B
u se
ar y
Ġcon dition
ver y
g e
Ġan y
a k
Ġn ecess
Ġ im
om en
Ġ he
Ġa b
Ġit self
ou nd
a d
Ġm ay
Ġp er
hen omen
or i
Ġfor m
al l
Ġthe m
Ġn at
Ġn o
ar d
Ġthe y
stand ing
s u
Ġth ing
am e
p ir
p os
Ġs y
u ition
ab le
Ġ k
in d
e ver
Ġt ime
Ġre g
Ġu s
Ġex perience
il ity
o se
i ori
pir ical
an t
Ġ if
e x
f f
p h
Ġs h
Ġ F
Ġbe ing
ar t
end ent
Ġs e
Ġcan not
a ce
ation s
act ical
ou t
Ġc ogn
om e
Ġon e
Ġs t
Ġh as
u d
Ġ qu
Ġ ide
Ġthe se
Ġp henomen
Ġre l
v es
Ġe v
ĠB ut
gh t
Ġpossib le
or d
p resent
w h
i re
Ġm or
an ce
Ġpr iori
n ow
Ġcon s
Ġ A
Ġg iv
ou r
Ġint uition
a c
Ġ j
at ive
Ġnat ure
Ġa cc
Ġm an
Ġem pirical
ul t
th ing
on e
u n
ans c
Ġw ould
pl es
Ã ł
Ġthere fore
Ġsu ch
em ent
Ġa pp
Ġunder standing
Ġthe ir
c a
Ġexist ence
it e
ansc endent
Ġconception s
se qu
f or
Ġa d
Ġpr actical
er s
Ġcogn ition
Ġprinci ple
p on
al ly
ut e
Ġsu bject
n the
ĠF or
Ġreg ard
Ġ P
Ġ y
t o
Ġd is
Ġ Ãł
sel ves
pos ition
Ġgiv en
) ,
ent ly
Ġobject s
s o
e t
ion s
Ġwor ld
Ġmere ly
Ġk now
i ght
ic t
anscendent al
wh ich
st r
on g
m ent
Ġp re
he re
f ere
Ġ le
c l
t e
ĠT h
Ġwith out
fere n
Ġc h
en er
Ġp art
Ġa r
t ical
Ġphenomen a
Ġre present
Ġs ame
s p
er tain
Ġs ome
Ġmor al
Ġthing s
c es
Ġe very
Ġme ans
Ġprinci ples
ĠĠĠĠĠĠĠĠ ĠĠĠĠĠĠĠĠ
ter n
ough t
g ement
ak e
i e
Ġsy nthe
is e
Ġ S
s is
sequ ently
Ġwh at
Ġh ow
at ter
Ġun ity
h ing
at ed
Ġp h
e l
s ol
Ġnecess ary
ord ing
res s
en s
p re
Ġev en
Ġm y
l ed
ay s
Ġwh o
Ġh is
o p
a g
f in
o y
pp os
Ġ N
Ġca se
n ess
ph y
th at
ca use
ud gement
Ġ O
tern al
in t
Ġsu b
th ough
Ġth an
m at
Ġlaw s
ener al
p ossib
Ġs er
im it
Ġm ore
Ġide a
Ġf re
Ġrel ation
sol ute
ce d
Ġa ction
Ġn e
Ġm a
con dition
Ġcon tain
ec ul
d u
i z
n ect
Ġbe cause
Ġal so
b e
Ġf ar
Ġd if
Ġdo es
il os
b er
ĠI n
led ge
w ays
Ġp resent
Ġu pon
Ġc ertain
Ġp l
Ġtr anscendental
Ġca us
Ġ end
Ġcom ple
Ġcondition s
or t
Ġbe l
Ġnot hing
Ġcon t
ĠI t
og ical
Ġ G
re at
Ġpossib ility
o ll
Ġ W
on d
he ther
Ġint o
ation al
Ġj udgement
oll ow
ci ous
ult y
o st
u e
Ġu se
Ġthe n
Ġw hen
Ġacc ording
ff ect
Ġca use
Ġn ever
Ġsen se
Ġpro position
pl oy
ig n
Ġg r
g or
m e
ir st
Ġg eneral
Ġg o
Ġcon tr
ate gor
r it
T he
c om
u ch
Ġcon sequently
i al
Ġal one
Ġ C
Ġo w
st em
Ġab solute
a st
iv ers
Ġpro per
Ġth ought
s er
Ġh im
Ġsp ace
for m
at es
is m
Ġl imit
Ġal ways
Ġp os
Ġre qu
Ġcon nect
Ġo b
a re
con ception
pr o
Ġd es
it her
Ġf ound
o ld
Ġthem selves
Ġcom m
Ġd ist
Ġow n
Ġc ould
Ġknow ledge
Ġf ac
Ġsh ould
possib le
f ect
ar i
Ġph ilos
Ġf ollow
Ġem ploy
Ġs ay
Ġal though
Ġser ies
ic i
r o
Ġw as
Ġobject ive
Ġc all
sp ect
Ġf irst
Ġqu est
is h
ed om
Ġr ational
Ġdif feren
Ġre spect
Ġbe en
w ith
Ġp ur
Ġre m
Ġdis c
ot her
Ġcons id
i ed
Ġcomple te
in k
a ch
ĠN ow
in e
Ġin de
ere d
Ġsy stem
Ġ H
Ġex am
d er
Ġa ct
w e
Ġha pp
Ġw hether
Ġth us
âĢ ľ
âĢ Ŀ
ĠTh is
Ġf e
Ġex t
ut h
Ġbel ong
in ation
Ġ en
Ġfac ulty
x im
Ġre ality
Ġform er
re e
in ess
Ġc ategor
Ġa g
s ess
ecul ative
o ver
Ġ very
Ġsynthe sis
d ic
Ġor der
Ġv al
Ġsome thing
p ar
Ġm ake
u nder
Ġl atter
Ġhow ever
m it
su ous
Ġwe re
Ġgr ound
um an
l ess
m ed
cious ness
Ġpl ace
Ġs ci
Ġun ivers
Ġ âĢľ
st it
Ġnecess ity
o de
p ose
Ġy ou
Ġfre edom
Ġgo od
Ġf ind
Ġ R
Ġcaus ality
Ġ E
Ġth ose
b y
Ġe ffect
Ġwho le
h a
ic s
ad ict
e ll
Ġt er
o bject
Ġp res
al y
Ġth ink
s y
Ġo ut
i le
pre me
k e
Ġd ut
t y
Ġex p
w o
Ġquest ion
Ġma xim
Ġsen sib
o phy
re ason
Ġh uman
Ġpos sess
ex ist
e ar
u al
ig in
Ġas s
Ġa m
Ġre al
o ve
r ough
Ġj ust
Ġpro du
Ġapp l
Ġp ow
Ġm ind
a v
Ġper fect
ut en
Ġ ent
ĠI f
ber g
ari ly
Ġy et
uten berg
ou n
Ġn ame
Ġm at
o int
m an
s en
Ġc rit
th is
phy s
Ġs im
Ġsp eculative
Ġat t
Ġdetermin ed
ic ation
ed u
ib le
Ġsub st
Ġdifferen t
og it
le ct
k s
ere st
ie w
ce ed
he d
in ce
l f
Ġ D
iv ed
Ġrepresent ation
Ġsp here
Ġsynthe tical
ur al
ol ogical
as s
Ġg reat
id ent
b le
Ġt wo
Ġb as
) .
i ke
con s
he mat
Ġman if
or y
Ġf act
Ġdut y
Ġs ec
ff ici
an g
Ġval id
Ġide as
ro ject
u le
Ġsen suous
de termin
Ġin cl
c ogn
Ġin ternal
r ib
Ġim p
Ġse lf
Ġth rough
Ġdetermin ation
Ġsh all
Ġcall ed
Ġwor d
Ġsci ence
pr inci
Ġper ception
ut ion
o o
ar act
condition ed
Ġv iew
Ġor igin
y p
under standing
ul ar
Ġsubject ive
Ġfe el
ic e
aract er
ĠW e
T h
y ond
Ġcon stit
Ġc or
f ul
the re
fin ite
Ġphilos ophy
og y
Ġin v
Ġh ig
v ed
Ġp oint
Ġpur pose
e ci
Ġr ule
Ġhe re
Ġabsolute ly
Ġ est
us ion
n ecess
Ġexam ple
t ed
Ġnat ural
ent s
Ġcons ciousness
an ge
Ġm ode
ot h
Ġsh ow
Ġ _
Ġwh ile
Ġunivers al
d is
Ġin f
Ġst ill
Ġe ach
Ġim possible
Ġhim self
er n
i ate
Ġbe t
Ġc ogit
ire ct
Ġnecess arily
Ġphenomen on
ĠP roject
c an
s ion
Ġex ternal
Ġex pl
Ġdetermin e
Ġpow er
Ġad mit
i res
act ion
Ġint erest
at ing
Ġconnect ion
n er
Ġan other
Ġsen s
Ġle ast
a phys
w ise
Ġg ive
Ġaction s
Ġw ay
ell ig
Ġbe yond
Ġint ellig
Ġqu ite
Ġrequ ire
Ġqu ant
ĠG utenberg
at is
Ġl ike
Ġwe ll
ex perience
Ġhapp iness
ĠR e
Ġname ly
Ġ M
y s
Ġk ind
Ġdetermin ing
a pp
Ġmanif old
Ġn or
u ght
Ġe ither
Ġour selves
an ces
Ġa p
Ġh and
Ġs tr
Ġcontain s
ab l
Ġcategor ies
a ge
it s
Ġw here
cc ess
Ġinde ed
t ic
Ġconsid er
Ġch aracter
Ġlimit s
Ġcon c
Ġd em
r a
atis f
Ġapp ear
p henomen
ot he
Ġpro ceed
Ġre st
. ,
Ġan aly
Ġst ate
em pt
ing u
g in
oo k
Ġmor ality
iz e
g um
ffici ent
Ġre f
re g
Ġter m
Ġd iv
Ġsu m
ppos ition
Ġcomm on
Ġcontr ary
yp othe
e v
ar k
ol ogy
r ing
i ous
Ġnot ion
Ġpro of
m uch
Ġcom p
is hed
Ġad v
Ġse e
u nd
Ġm atter
Ġd edu
ĠTh us
Ġcontr adict
con tr
ak es
Ġ L
Ġfre e
Ġfollow s
Ġass um
Ġfeel ing
feren ce
B ut
Ġsu preme
E R
exist ence
Ġcon ce
Ġcon cl
Ġrepresent ations
conception s
ab ly
en ces
Ġre s
Ġab le
l u
Ġsec ond
Ġo ught
sib le
Ġtr ue
Ġb oth
Ġtr uth
Ġrem ain
Ġ 1
p endent
Ġm ost
Ġha d
str u
ic ism
med iate
f rom
Ġs ince
Ġd ec
Ġt ake
Ġdist in
ĠRe ason
f ter
iv es
t en
Ġme t
Ġpart s
Ġsensib ility
Ġpres u
Ġ U
ic ular
Ġsubst ance
f ic
Ġ ill
we en
ir m
Ġm uch
le ar
Ġm ight
Ġbe gin
Ġbeing s
Ġman ner
Ġregard s
a cc
Ġat tain
Ġsu pp
as much
Ġl ogical
Ġpre dic
Ġexp ress
Ġcons ist
Ġwor k
Ġph ys
Ġcont ent
Ġn ow
int uition
on str
Ġregard ed
Ġma de
I n
it ed
Ġto t
Ġd irect
Ġbe fore
Ġfound ation
m a
a id
b ut
Ġa im
re present
he st
Ġcon f
Ġmat hemat
p end
os m
ppos ed
Ġdisc over
v ing
Ġ er
Ġm ot
Ġa ff
Ġun conditioned
est ig
Ġar gum
Ġc l
pon d
su b
Ġcon cept
t m
Ġ i
Äł Äł
o id
Ġh ypothe
Ġexist s
Ġconsid ered
is ion
Ġ [
Ġcondition ed
at ic
res pond
Ġjudgement s
Ġbet ween
Ġquant ity
ou b
s on
re l
Ġother s
Ġab ove
ĠA nd
en e
le ment
em pirical
Ġpro ble
ĠO n
ĠC on
at h
k now
w or
as ure
og ic
w ard
re d
Ġs atisf
Ġth ough
c ise
Ġde g
Ġproposition s
princi ple
n at
p able
Ġin d
Ġp le
Ġcon form
ĠO f
iz ed
O O
Ġsu ccess
Ġde fin
Ġse t
Ġwor th
ut es
ial ect
Ġst and
on ly
ul es
i qu
E N
om y
ra ph
ser t
Ġc lear
Ġsim ple
Ġbas ed
ore tical
T I
pr actical
Ġar r
Ġs our
ag raph
re ad
Ġu p
ak en
Ġdes ire
Ġag ain
un ction
O N
Ġa c
be ing
Ġan s
ĠP ure
Ġhig hest
Ġr ight
th od
c rib
if e
Ġim per
Ġreg ress
Ġemploy ed
Ġest abl
od u
the m
l aw
Ġe l
mat ical
Ġo cc
n ing
con t
Ġman y
Ġcognition s
Ġcaus es
Ġext end
Ġd er
per ception
e p
Ġob ser
Ġconc ern
, âĢĿ
m on
ĠG od
ent al
Ġle g
op her
the less
cogn ition
Ġcomplete ly
av our
Ġans w
Ġin asmuch
Ġany thing
Ġim ag
Ġch ange
iqu e
tr ib
c ertain
Ġa fter
ign if
oun t
Ġr ules
Ġpresent ed
Ġdist ingu
Ġso le
Ġin finite
Ġcon sequ
Ġex er
Ġper son
Ġbelong s
Ġmaxim s
Ġmet aphys
t le
m um
I t
u de
Ġemploy ment
m ust
Ġse em
Ġpart icular
Ġne ed
Ġrequ ires
phenomen a
Ġconnect ed
ent ion
Ġn um
ir t
at her
Ġm od
Ġf ur
Ġl ife
Ġim mediate
Ġmy self
there fore
necess ary
Ġres ult
m is
Ġg u
Ġ ed
ect ion
Ġend s
on um
Ġw ant
ord ance
Ġcont ing
Ġground s
Ġent ire
he s
hen ce
lu ence
Ġf in
OO K
Ġin dic
Ġevery thing
ĠĠĠĠĠĠĠĠĠĠĠĠĠĠĠĠ ĠĠĠĠĠĠĠĠ
Ġvalid ity
Ġan t
Ġappl ication
c y
Ġsystem atic
Ġ es
Ġatt empt
Ġre ally
id es
Ġs c
m ere
Ġc op
B OOK
our se
Ġintuition s
Ġne g
p art
su bject
p ect
Ġ "
ou l
ar r
H A
possib ility
Th is
Ġinv estig
Ġtot ality
a im
h ow
Ġne w
oub t
contr adict
Ġm ain
c ome
' s
Ġe lement
Ġcor respond
Ġintellig ible
l ig
Ġre ad
du ct
a se
Ġs ide
Ġb od
d o
it self
Ġb onum
Ġas sert
Ġl ogic
Ġme thod
condition s
Ġcontain ed
Ġcomm and
Ġdeg ree
r aw
is l
p s
Ġe as
Ġphys ical
) ;
Ġr ather
Ġme an
Ġv irt
ens ion
o v
A L
o b
ct r
Ġl ess
Ġthere by
Ġphilos opher
with out
man ent
Ġsens es
ĠT H
Ġbel ie
Ġimp ort
I f
g o
Ġword s
read y
Ġo ver
Ġm en
og ress
un ity
Ġ hence
b ec
er ial
tr anscendental
W e
ak ing
i ly
an e
Ġd og
id ed
Ġother wise
T ER
Ġ ut
it ies
Ġs ol
sy nthe
Ġer r
Ġn on
Ġsp eci
m or
Ġl ong
par agraph
Ġdem onstr
Ġh old
Ġat trib
Ġab str
Ġrel ations
Ġremain s
Ġansw er
an ation
Ġe qu
nat ure
b it
Ġ ^
Ġ {
is es
Ġin g
Ġs ignif
Ġs oul
ate ver
Ġide al
Ġinde pendent
Ġbas is
Ġsum mum
Ġc o
Ġperfect ly
d om
Ġthe oretical
Ġp ost
Ġex cept
ĠThe re
Ġform al
Ġacc ordance
ĠTh at
Ġproble m
Ġentire ly
C HA
P TER
g r
Ġm em
ĠP r
ĠS u
Ġne ither
uth or
Ġcont in
Ġsensib le
com ple
Ġproper ly
Ġinf luence
e ing
Ġto o
u ally
al though
Ġb ound
Ġcon duct
Ġgiv es
ĠH ence
Ġthink ing
Ġnum ber
en cy
Ġe ver
i ar
Ġin qu
a use
Ġ her
re ct
ce ive
Ġbe come
Ġal ready
Ġexpl ain
m en
Ġsu fficient
as es
osm ological
Ġs aid
pr iori
Ġpre v
Ġdif fic
CHA PTER
a il
m all
Ġ ess
ce ived
r anscendental
w ill
Ġacc ount
ĠO F
Ġexer cise
Ġvirt ue
an y
Â §
Ġ ident
hen sion
Ġple asure
d ist
Ġform s
in ations
Ġd oubt
Ġdetermin es
Ġdistin ction
Ġ 2
ĠI I
p ure
Ġpro v
Ġin st
Ġexp ect
Ġt aken
Ġd ialect
Ġh ar
Ġh op
ced ure
Ġprodu ce
Ġcogit ated
ecul iar
Ġm is
lect ual
ir c
Ġo p
Ġp ass
Ġpro ve
Ġpre ced
Ġdedu ction
Ġargum ent
Ġel se
Ġd en
Ġapp re
Ġmat erial
Ġab out
ex t
Ġcon stru
ound ation
ĠA s
Ġapp ly
sen sible
Ġerr or
u p
it ive
Ġre nder
Ġc ourse
N ow
t ime
Ġa ffect
Ġm akes
Ġpr ogress
Ġg ener
ult ies
ĠĠĠĠĠĠĠĠĠĠĠĠĠĠĠĠ ĠĠĠĠĠĠĠĠĠĠĠĠĠĠĠĠĠĠĠĠĠĠĠĠ
Ġob lig
Ġrem ark
Ġbegin ning
o c
t ies
Ġl ies
Ġall ow
Ġlimit ed
ĠĠ Ġ
Ġpr om
Ġde pend
Ġv ari
object s
cons ciousness
reg ard
Ġpredic ate
bec ause
ab ility
ant age
Ġf all
Ġsu per
Ġcons cious
Ġappl ied
ut ed
con sequently
ĠB eing
can not
Ġassum e
Ġconsist s
Ġimper ative
Ġcop y
Ġc e
sy ch
Ġch ang
Ġcogn ize
s im
Ġa w
Ġa id
the se
pp ose
Ġexist ing
ppos ite
Ġnever theless
Ġquest ions
ha ve
n e
* *
Ġl ook
de qu
d if
Ġca pable
b l
ie ld
ĠTH E
n t
Ġp eculiar
the y
Ġshow n
Ġexpl anation
Ġleg isl
Ġmain tain
Ġp ath
on ic
in ed
Ġd raw
he ma
ical ly
im ate
Ġdiv ision
. âĢĿ
Ġf al
Ġwh ose
Ġincl inations
princi ples
Ġhig her
Ġaff irm
Ġimag ination
Ġsole ly
mere ly
ctr ine
in te
F or
con nect
ov ered
Ġunder stand
dis c
Ġre ference
Ġwh atever
Ġpure ly
Ġad dition
Ġfollow ing
Ġdifferen ce
Ġcontradict ion
ab solute
og ism
w ould
Ġpro cedure
ĠSu preme
ul ative
str ict
a ve
c or
object ive
ten ess
on t
the ir
Ġad d
Ġag re
R E
Ġwith in
Ġter med
ward s
Ġhar mon
pos es
i o
s ome
i a
u ll
h ib
Ġa v
Ġwor ks
_ ,
Ġw ish
Ġc irc
Ġsp e
Ġev ident
Ġy our
Ġhapp ens
Ġill usion
Ġhypothe sis
Ġsour ce
ou men
e avour
Ġu nd
dequ ate
d es
n i
Ġ Y
e very
g iv
on omy
Ġe B
Ġd one
Ġint el
Ġcertain ly
Ġeffect s
Ġincl ination
Ġanaly tical
Ġdefin ition
Ġconting ent
Ġfal se
Ġb r
or ough
Ġ ly
wh at
ha pp
lect r
pos ed
Ġcogit ate
r ight
w hether
Ġs mall
Ġagain st
Ġhop e
c ing
l ar
ha ps
Ġrel ate
acc ording
t ing
Ġcon j
Ġd id
Ġper manent
Ġrepresent ed
Ġcategor y
Ġfur ther
mor al
ph ilos
ent ial
am ental
Ġcertain ty
s h
l es
ow n
ur n
Ġempirical ly
Ġext ension
determin ation
Ġdem and
und amental
Ġimmediate ly
Ġsc hema
Ġneg ative
Ġs ing
Ġv ol
i x
im es
c ategor
et aphys
pro position
s ist
pt ion
0 0
o ph
Ġ ign
Ġo pposite
ĠT o
us ions
ĠThe y
Ġjust if
Ġsubst ances
Ġsens ation
Ġmathemat ics
rel ation
Ġintel lectual
cons id
Ġj ud
Ġt e
Ġf ut
iv id
id ence
Äł in
p ly
Ġt reat
Ġb ring
ĠT ranscendental
rit ique
Ġperfect ion
Ġconcl usion
Ġdistin ct
Ġconsequ ence
Ġinqu ir
er se
Ġcl aim
b r
c k
comple te
Ġo per
Ġsp ring
Ġadv antage
y n
Ġint r
ĠA n
ppos es
Ġend eavour
Ġproper ties
Ġperception s
know ledge
Ġconform ity
f er
s es
om ent
Ġcon v
Ġser ve
j udgement
is ed
ev en
Ġcor rect
e ad
p res
it tle
Ġth ree
Ġth orough
su ch
ĠA ll
Ġaccording ly
are d
Ġbelong ing
represent ations
Ġseem s
l imit
Ġf ul
ll ig
c all
t og
in de
im al
Ġpre t
R A
Ġrel ates
Ġdist rib
Ġval ue
Ġrest s
tog e
is hes
Ġf unction
Ġan al
Ġl ie
ir d
og ene
Ġdetermin ations
Ġab s
thing s
Ġdis position
Ġch o
Ġproper ty
Ġpossess es
Ġam ong
them selves
Ġeas ily
lectr onic
toge ther
sen suous
Ġp ar
as ion
Ġbod y
Ġappre hension
Ġe t
ode ict
ÄłÄł ÄłÄł
Ġagre ement
h at
Ġob tain
Ġdisc overed
ĠH e
Ġext ent
Ġcrit er
Ġconce ive
ĠĠĠĠĠĠĠĠĠĠĠĠĠĠĠĠĠĠĠĠĠĠĠĠĠĠĠĠĠĠĠĠĠĠĠĠĠĠĠĠ Ġ
E C
g an
A ll
i or
le ction
Ġknow n
ex am
Ġpow ers
Ġinv ol
a p
w here
Ġc ases
al ways
Ġthere of
ĠF oundation
ud ed
Ġev ent
ac k
Ġcrit icism
Ġinf er
Ġap perception
ĠCon sequently
Ġchang es
Ġfut ure
n o
h il
re qu
le g
Ġpro ved
o od
Ġ Â§
ec h
Ġdetermin ate
Ġcrit ical
Ġign or
Ġa uthor
Ġm ed
il ar
Ġint u
Ġact ual
Ġterm s
bit r
re m
yn am
sub st
wor ld
p ens
p eci
Ġle ad
com m
Ġstr ict
pro c
Ġcontin u
. [
p ur
Ġn oumen
Ġl ittle
Ġdo ctrine
Ġexpress ion
Ġmathemat ical
Ġder ived
Ġinvestig ation
giv en
iv erse
ow er
ivid ual
Ġconce ived
Ġcom par
inte llig
A R
Ġan te
f e
m ay
es ides
Ġm oment
Ġn ay
Ġd ynam
Ġsu pposed
Ġha ving
Ġreg ulative
ens ive
Ġconstit utes
ĠU n
Ġelement s
do es
Ġmem ber
I S
r ational
im p
feren t
b el
Ġas k
j ust
he nd
Äł s
TI ON
at ement
ll ogism
Ġsupp ort
re edom
Ġin fin
end ed
ĠThe se
su fficient
ac es
Ġanaly sis
Ġsuccess ion
Ġestabl ished
Ġdiffic ulty
d em
n it
Ġsol ution
Ġcomple teness
Ġs ch
Ġf ield
Ġex hib
Ġtr ans
ord in
Ġar ises
ĠE x
Ġrequire d
Ġsee k
Ġaim s
Ġmot ive
Ġargum ents
Ġestabl ish
Ġdistingu ish
Ġmetaphys ics
how ever
Ġcorrespond ing
at t
Äł c
ca us
Ġin s
et y
o le
Ġre cogn
Ġpro f
Ġp ain
Ġex cl
Ġsp ont
Ġcom b
Ġv ain
Ġrequ is
Ġdisc us
Ġap art
Ġdirect ly
Ġsour ces
Ġdog matical
Ġprev ious
Ġsing le
Ġspont ane
Ġ 3
iv ing
qu est
r u
n ever
Ġregard ing
Ġcogn ized
in omy
Ġon ce
Ġsu pposition
Ġhe l
Ġper haps
ĠĠĠĠĠĠĠĠĠĠĠĠĠĠĠĠ ĠĠĠĠ
ĠC ritique
Ġdes ign
Ġen ough
Ġunivers ality
Ġgreat est
Th us
Ġintellig ence
Ġobser v
Ġante ced
r ow
ist ic
Ġto ge
ar n
synthe tical
Ġtoge ther
m ost
Ġt akes
ing dom
Ġbe com
Ġev il
Ġsatisf action
oph ical
in ion
Ġc osmological
ĠI de
Ġtr anscendent
ĠS uch
ecul ation
Ġpresent s
Ġfac ulties
Ġcategor ical
Ġlike wise
represent ation
Ġsuccess ive
Ġabstr act
Ġsuper sensible
Ġdynam ical
as k
Äł re
Ġcom e
com p
app l
is ing
res pect
Ġcom pre
I N
n ame
Ġ 5
f ollow
g eneral
not hing
Ġk e
ell ed
S ection
i gh
in cl
Ġb l
Ġth ird
Ġd on
Ġsu r
ve l
Ġal together
ĠA r
pro per
Ġpur su
Ġprodu ced
Ġconstit ution
Ġbet ter
Ġsupp ose
Ġocc up
Ġmean ing
Ġdialect ical
Ġpreced ing
iv ity
en se
ic able
Ġf ore
se par
ori z
app ear
ni hil
f t
ab our
Ġe y
Ġre strict
if ic
ative ly
sy stem
Ġof ten
Ġp sych
Ġe lectronic
Äł f
Ġde l
Ġr a
ca pable
Ġdes tr
Ġhuman ity
sen se
Ġcrit ique
Ġap odeict
Ġpredic ates
Ġconstru ct
Ġharmon y
Ġintr odu
call ed
pr odu
ens ions
I I
it um
Ġapp ro
ogene ous
in es
cons ist
Ġappear ance
i um
Ġ *
Ġo pposition
Ġf ull
ut ing
Ġex act
Ġun less
Ġk ingdom
Ġst ates
ud ing
Ġpre cept
Ġar ise
Ġmanif est
Ġref er
Ġadv ance
Ġimport ance
Ġaffect ed
Ġrequis ite
Ġ V
ct ive
ici p
Ġu l
con f
s um
Ġc he
ome tr
ment s
E S
th ought
Ġess ential
h as
u bl
Ġs ort
Ġl ast
Ġv oid
sp ace
ĠS p
Ġobjective ly
Ġsim ply
Ġdec l
contradict ion
Ġread er
Ġattrib ute
Ġbound s
some thing
Ġcirc um
Ġcriter ion
peci ally
Ġhel p
is on
em ploy
c re
in v
Ġe ar
un ivers
ict ion
consid er
id ance
qu ant
cc ording
Ġle t
Ġag ree
Ġfin ite
b ers
Ġa dequate
Ġor gan
Ġappear s
Ġbelie f
al one
ut onomy
Ġr o
Ġso on
Ġle ave
Ġar bitr
Ġmore over
me ans
form ation
Ġact ually
determin ed
Ġconstit ute
Ġadmit ted
Ġconcept s
Ġind ividual
law s
Ġabstr action
Ġsignif ic
Ġpost ul
ĠPr inci
Ġaw ay
name ly
per fect
pl ace
p e
y ing
Ġ J
Ġ ens
EN T
dist ingu
T H
the n
Ġl ine
crib e
Ġav oid
l atter
at um
Ġg e
R O
d iv
s c
con stit
oo ks
ech an
l ove
re ality
Ġin ev
Ġf undamental
ur d
ci proc
ception s
con tain
Ġun iverse
ĠB y
ĠS ection
mat hemat
Ġpos itive
Ġplace d
Ġgreat er
Ġorigin al
necess ity
Ġpresu ppose
know n
Ġfur n
Ġconj unction
Ġvol ition
Ġinev it
Ġ K
m etaphys
Ġ 4
ĠR E
it er
Ġse par
ag es
RA N
a e
o ol
Ġt est
ut ive
sp eculative
wor th
Ġc reat
ot e
pt y
ol ly
Ġca re
Ġdes er
aly tic
Ġconc re
phenomen on
Ġphilosopher s
Ġident ical
Ġvari ous
ph ist
i p
re n
T here
a pt
sib ility
ff ort
C E
Ġof f
Ġpos ition
Ġimport ant
Ġut ter
gr ound
Ġet c
f reedom
in s
it le
Ġw it
ci ence
Äł d
pos sess
Ġev ents
Ġdis p
Ġuse ful
Ġfound ed
Ġexam ination
mit ted
Ġdedu ced
Ġmot ives
Ġclear ly
Ġdistingu ished
Ġindic ates
synthe sis
Ġbr ought
happ iness
categor ies
m y
ib er
he tic
Ġc arr
Ġs cept
Ġf a
ar ch
ure s
Ġclaim s
c ogit
u pon
Ġt ask
Ġw is
Ġun able
Ġsp eculation
Ġper ceive
Ġst atement
our selves
Ġle arn
Ġle ft
Ġact ing
Ġsci ences
Ġpossess ion
Ġatt ention
Ġconsider ation
Ġhypothe tical
Ġac cept
Ġac qu
Ġresult s
Ġcopy right
Ġspe ak
ĠeB ook
Ġey es
E very
g g
Ġp ut
ur s
sp eci
e termin
o pt
v al
Ġc re
v en
f ac
h im
ubl ic
Ġsu ffici
Ġg en
Ġdetermin able
t un
Ġ Ã
Ġthe ology
Ġwh om
Ġwh olly
end s
ous ly
Ġad opt
Ġmoral s
Ġinterest s
Ġpresu pposes
Ġdirect ed
Ġstand s
Ġconsequ ences
Ġant inomy
connect ion
Ġbecom es
g u
l ict
t ot
th ink
Äł m
Äł un
pres u
ch ange
Ġst ep
ar ks
Ġg ain
Ġsim ilar
Ġdraw n
p ic
Ġo pp
Ġm ental
Ġf avour
Ġl ight
Ġfor ce
end ing
h is
x i
is hing
Ġc osm
Äł p
Ġem pty
un conditioned
ĠS t
ort ion
Ġlimit ation
Ġdes ires
Ġexam ples
Ġen able
Ġmot ion
Ġproble matical
mis sion
Ġgu idance
Ġindic ate
Ġes pecially
Ġattempt s
Ġbod ies
Ġlegisl ation
absolute ly
quest ion
Ġapodeict ic
Ġcircum st
Ġsignific ance
Ġconcre to
iz ing
Ġf ig
ive ly
nder standing
pos ite
crib ed
m ore
at ives
st ood
Ġpro p
um e
Ġacc om
? âĢĿ
Ġo pposed
Ġsu re
Ġde finite
ser ies
Ġpur poses
pend ence
Ġocc asion
Ġconcern s
Ġcommand s
Ġdog mat
Ġinst ead
Ġoblig ed
Ġdepend s
ĠY ou
philos ophy
Ġjustif ied
Ġjud ge
Ġsch ool
Ġins ight
Ġarbitr ary
I T
r op
s atisf
in ction
an aly
ure d
ain t
int erest
Ġo ld
or igin
o ly
are nt
av oid
EN D
I C
con form
us ed
Ġphilos ophical
W hen
in to
Ġre ach
Ġd at
Ġwh y
Ġh igh
Ġfor th
Ġsy llogism
Ġphenomen al
ac hed
pre dic
ĠW hen
Ġcomm unity
Ġhapp en
man ence
Ġsubjective ly
Ġmod es
contradict ory
Ġassert ions
Ġeas y
Ġbelie ve
Ġcho ice
bel ong
Ġdestr oy
Ġge ometr
iter ary
Ġwis dom
k ind
Ġt a
ic ense
dem onstr
Ġt imes
Ġin ter
pl ine
sh ould
t imate
im ent
ib ility
ate ly
ud es
f ree
m s
Ġw ise
Ġs ought
an gement
Ġcon ver
Ġsub tle
go od
G utenberg
T o
e ither
g ed
s ame
Ġf r
Ġe ffort
Ġpr ior
im possible
ci pline
ch ive
ppos ing
Ġrespect ing
Ġunivers ally
Ġfind s
edu ction
Ġwhere by
Ġref lection
Ġextend ed
Ġder ive
Ġident ity
Ġop inion
Ġconstru ction
Ġgener ally
dif ferent
caus ality
Ġke ep
Ġinevit ably
fac ulty
id ing
su ccess
j ud
s ens
Ġd om
as ing
th an
c ess
im in
em ark
Ġat ion
pro v
Ġful ly
Ġc oun
ch aracter
pur pose
Ġp e
Ġm ag
ad v
Ġar t
ENT AL
c ould
Ġa utonomy
re al
Ġc ol
al so
Ġin capable
Ġb esides
Ġm aking
Ġm echan
ce de
Ġpr imal
Ġan nihil
Ġl ay
ĠĠĠĠ ĠĠĠ
th ose
Ġexist ed
Ġreg ion
wh ole
ca se
Ġpractical ly
Ġevery one
Ġsub ordin
Ġprodu ces
Ġcomp elled
Ġassum ed
Ġconcl usions
Ġmetaphys ic
Ġconting ency
Ġfin ally
Ġindependent ly
Ġinquir y
ĠAn alytic
Ġcompar ison
intellig ible
Ġutter ly
etermin ed
p ath
ĠA N
cont ent
Ġ ir
l ike
it able
con ce
ex pl
R e
m ort
ar ge
ant e
ie f
stru ction
ene tr
U T
g reg
Ġt able
Ġh on
hen sible
Ġattain ed
P roject
o cc
in ternal
Ġthe ory
Ġre du
Ġd own
Ġex per
Ġl abour
Ġnot ions
us ory
Ġun condition
ide a
Ġtr ansc
Ġim pl
Ġhe ter
ant ed
str atum
feren ces
Ġdut ies
sen sibility
ful ly
Ġpoint s
Ġcontradict ory
contr ary
Ġconf lict
Ġarr ive
Ġmem bers
Ġfunction s
subst ance
Ġinfin ity
Ġdon ations
Ġcosm ical
n on
ab str
S C
Ġ 9
ist s
if ication
com pre
ck on
re t
er it
ac y
g reat
i ang
Ġse qu
oun ce
Ġsec ure
ang er
disc over
c rit
f ar
l ight
m atter
w w
ing s
ar s
ire ction
Ġgiv ing
Ġacc ess
form er
a ight
o in
s cience
er iori
Ġs ake
Ġin dis
Ġto wards
Ġf ill
Ġd irection
om ogeneous
Ġcan on
Ġde f
Ġde pendent
act ions
Ġthere in
Ġme et
pir icism
Ġmor ally
Ġad m
be en
ĠW ith
ĠW hat
ither to
ĠH ow
necess arily
Ġkind s
ĠL iterary
Ġpresu pposed
Ġarr angement
ob ser
Ġspeci al
ĠPr actical
ĠII I
Ġdialect ic
cor respond
Ġoper ations
Ġsuffici ently
O R
so ci
h ig
v ol
as h
i an
w hen
or row
H ow
p ress
al ent
le v
Ġpr ud
im mediate
el f
univers al
f irst
is ible
Ġpro b
Ġper ceived
N D
S u
e ffect
t imes
Ġf an
Ġn one
Ġre ciproc
Ġpr iv
Ġex position
Ġl os
ur ally
ore tic
us iness
Ġcom posite
Ġr ise
ex ternal
Ġev idence
Ġacc ident
Ġma j
Ġpl ain
Ġpur ity
Ġfe ar
Ġprodu ct
determin ing
Ġstr aight
Ġwhere as
Ġtot al
Ġcl ass
Ġequ al
ĠThere fore
Ġden y
Ġoblig ation
ĠeB ooks
limit ed
Ġpret ensions
Ġanal ogy
Ġignor ance
Ġspontane ity
Ġcompre hend
ĠAr chive
Ġpsych ology
ĠPrinci ples
Ġcarr y
xi om
sub sist
inv estig
cont in
ix ed
e em
or g
pens able
d en
p oint
s ince
Ġo m
en ess
Ġs ever
Äł l
Ġun ited
stru ct
P r
W hat
s ide
v ious
Ġf ail
Ġre ceived
Ġd ivers
as ant
Ġas soci
Ġl ove
if ice
Ġreason ing
Ġde fect
Ġso phist
ĠA ccording
sp here
Ġsub stratum
Ġcontain ing
exist ent
Th at
Ġfeeling s
ĠCon ceptions
Ġimper atives
Ġobser ve
Ġattrib utes
Ġsignif ication
Ġprev ent
Ġprov ided
Ġop en
Ġanal og
Ġnoumen on
Ġul timate
ren g
mort ality
iang le
A S
c ceed
h and
ib nit
uth oriz
ibnit z
l at
it ude
ire d
e ibnitz
it es
at or
at tain
Ġu r
ul a
cl aim
vel op
pt er
ĠO R
mis sible
Ġspeci es
p ower
Ġs k
Ġp ublic
am ed
Ġus ed
iz ation
Ġpres ence
W h
a ir
i ld
i ally
Ġt itle
Ġs he
Ġb ack
Ġf our
st hetic
ut y
ĠI m
Ġde t
ĠF rom
ĠP ro
Ġpl an
Ġcont em
ĠG eneral
with standing
Ġass ign
man if
ĠU nderstanding
Ġstand ard
certain ty
Ġassert ion
Ġlong er
Ġdemonstr ate
Ġce ase
Ġlegisl ative
Ġund etermined
proposition s
Ġthorough ly
Ġabs urd
Ġpar agraph
Ġnoumen a
Ġprevious ly
ĠSp ace
Ġopp on
Ġcircumst ances
Ġschool s
avoid able
Ġsever al
Äł de
ang u
O U
Äł b
op ular
part icular
val id
u ous
th rop
Ġworth y
a ff
j oy
Ġpr act
Ġan g
th rough
iz es
iber ty
Ġs ight
Ġre c
Ġh um
ust r
tr uth
Ġjust ice
) âĢĶ
t urn
it ing
Ġw rit
Ġp ast
Ġin du
Ġin formation
Ġm ention
Ġre ce
Ġcon fin
Ġh itherto
Ġas c
ir med
Ġpro cess
Ġun known
Ġv ent
ound ed
ad emark
Ġnat urally
Ġqu ality
Ġrel atively
ĠA t
Ġch ain
Ġpart ly
ign ity
pro ceed
Ġen lar
ha pter
Ġmind s
Ġproceed s
Ġdec ide
Ġdefin ed
Ġmetaphys ical
Ġprov ide
Ġdemand s
Ġintu ited
ĠUn ited
Ġdiscus s
Ġobserv ation
Ġfurn ish
m ot
nat ural
** *
at er
E D
a dequate
Ġ =
Ġt urn
re st
is sim
Ġs a
the oretical
Ġat e
we ll
p ost
t ion
in f
Ġhe ld
Ġsatisf ied
crib es
Ġconcern ed
t s
Ġs ent
al s
Ġin separ
Ġb ene
Ġb orrow
Ġb usiness
Ġf irm
Ġe lev
Ġwe ight
Ġsu cceed
Ġcom position
Ġper manence
Ġst ud
ac hes
ĠS o
ĠS y
ĠO ur
Ġcontr ib
Ġob st
Ġob sc
Ġdisc ern
âĢĿ ;
Ġadmit ting
Ġquant ities
Ġaff ord
rel ate
Ġwant s
Ġdemonstr ation
Ġhold s
Ġproblem s
Ġden ied
Ġvari ety
every thing
Ġspring s
exam ple
Ġignor ant
Ġauthor ity
Ġdiscus sion
Ġanteced ent
Ġfore ign
Ġexact ly
quant ity
Ġscept icism
Ġdom ain
Ġmaj or
u g
Äł h
pl ay
ma xim
TI C
l ook
n ex
Ġm ist
sel ess
Äł t
su per
ialect ic
ne g
v ere
er t
be fore
cont ing
ÄłÄłÄłÄł ÄłÄłÄłÄł
distingu ish
END ENTAL
SC ENDENTAL
s ay
Ġp un
ur ing
if ied
Äł con
Ġunder stood
ind ic
Ġprodu ction
Ġexpect ed
Ġadd ed
B y
o ple
Ġa xiom
re es
it led
le ast
Ġd est
Ġd anger
ent ific
Ġl ost
Ġl ower
cept ivity
Äł ex
ol iness
ĠĠĠĠĠĠĠĠ Ġ
Ġpossib ly
Ġim mortality
Ġper form
Ġapp arent
ĠP h
ag ed
Ġsci entific
Ġpres er
Ġappl ies
ĠD e
Ġimp ul
Ġconstit utive
Ġadmit s
Ġpresu pposition
Ġill usory
Ġind if
Ġafter wards
Ġant it
Ġ2 00
Ġinst ance
connect ed
Ġspe aking
Ġinquir ies
Ġabs ence
att empt
Ġear th
RAN SCENDENTAL
Ġdat a
Ġeffort s
issim um
C on
O n
d raw
g l
ic o
ci es
g ress
p sych
st ant
min d
oub ted
Ġg l
ig ion
Ġca p
Ġse en
Ġen g
gg est
a fter
Ġtr y
phys ical
app re
ur ity
Ġint ention
act ory
Ġim age
Ġqu al
are r
Ġappl icable
A s
Ġp ay
Ġin ference
Ġm ark
ed ience
Ġe th
Ġre ckon
Ġd ignity
ut ation
Ġpro ves
Ġtr iangle
Ġnecess it
Ġst reng
one y
ĠN ay
Ġsub sum
ĠC osmological
Ġrem o
Ġexam ine
Ġorigin ate
Ġdiv ided
Ġdedu ce
Ġconcl ude
Ġsecond ly
Ġind irect
being s
Ġdemonstr ated
Ġequ ally
Ġrender s
Ġsmall est
complete ly
Ġendeavour s
Ġconv iction
Ġexhib it
Ġra ised
mathemat ics
worth y
Ġlearn ed
Ġdivers ity
S T
Ġf it
Äł P
con sequ
um er
J EC
ex pect
ex press
ici ans
c ul
o per
Ġ 7
Ġa uthoriz
Ġc r
Ġan ci
ir it
pr i
ag ain
leg isl
Ġfig ure
. )
_ .
l ies
Ġest im
subject ive
inde pendent
Ġprop ortion
manif old
, "
T ranscendental
g es
g utenberg
o very
t ake
Ġ ic
in asmuch
Ġb est
Ġm erit
Ġm oney
an other
Ġre ceive
Ġfor ces
th us
Ġde velop
Ġsp irit
Ġem piricism
ori ous
ĠP U
ĠP RO
Ġrepresent s
ĠĠĠĠĠĠĠĠĠĠĠĠĠĠĠĠ ĠĠ
ĠN o
Ġsub l
imit ive
Ġdifferen ces
ĠH ere
Ġag greg
Ġproceed ing
Ġanaly tic
Ġref lect
reg ress
Ġbegin s
Ġexpress ions
Ġhypothe ses
cise ly
Ġdeg rees
Ġes ca
Ġinvestig ations
go ing
Ġpost eriori
Ġerror s
Ġinvol ves
Ġinfer red
fe el
nit ude
Ġprof ess
Ġpostul ate
him self
ĠSt ates
IT Y
Ġpriv ate
Ġlos s
subsist ent
angu age
c ern
im ag
ain s
y ou
if y
ER G
j un
o ined
p or
v ice
st ep
Ġform ed
pro of
B ERG
l ogical
Ġ 6
Ġu su
Äł A
con d
wh ile
Ġconsist ent
Ġgu ard
Ġcontin ue
Ġallow ed
a res
Ġp opular
Ġre p
ar gum
as ed
as sert
Ġon t
Ġon es
Äł dis
Ġha bit
not ion
Ġobser ved
Ġinvol ved
Ġlead s
Ġaccom p
H ence
i k
t wo
Ġthe oretic
Ġw ishes
Ġs ign
Ġin cre
ou ble
Ġre n
Ġre turn
ent ially
Ġh oliness
Ġas cribe
Ġan imal
Ġex c
Ġnot withstanding
ĠT ime
Ġobject ions
Ġcom es
ide as
Ġany one
Ġform ing
Ġsh ort
Ġsubject s
Ġdis appear
tern ally
Ġser ves
Ġpl aces
Ġfollow ed
Ġrem arks
ĠH ume
Ġact ivity
Ġfe w
Ġext ensive
Ġthink s
Ġreal issimum
Ġent er
determin e
Ġincl uded
Ġshow s
Ġrequire ment
Ġappear ances
Ġproof s
fic ial
Ġexpress es
Ġsatisf y
Ġneg ation
Ġco existence
Ġinqu ire
Ġpreced es
Ġprom ise
ĠY OU
ĠIde as
Ġche ck
employ ment
cogit ate
ĠÃ ¦
Ġpe ople
Re ason
Ġindis pensable
t t
Ġ ver
re f
Äł pr
su pp
for tun
ob lig
b id
ain ed
and on
em ber
Ġse arch
pre t
e qu
h ypothe
Ġw ays
ult iv
ici an
cons cious
h uman
it imate
Ġex ception
pl ic
. "
S E
it ect
Ġm o
se ly
F rom
t il
Ġc al
Ġs ays
Ġb ad
Ġb old
Ġm ult
le ase
Ġbe h
Ġh omogeneous
Ġpr os
Ġex ec
Ġex tr
Ġl iberty
ist ance
âĢ Ļ
Ġde v
ol ution
Ġv iz
Ġim manent
Ġper su
Ġper mission
ever theless
Ġdis cipline
Ġdis play
Ġpre cede
fin itum
Ġcaus al
Ġend less
ĠG UT
ĠC h
Ġob edience
ish ment
Ġrespect s
Ġdisc overy
Ġfe e
Ġen joy
ĠE m
Ġent itled
Ġatt end
ĠD o
ĠD iv
determin es
Ġstr ong
Ġconsider ations
Ġref und
Ġcommon ly
Ġcomp ly
ĠL eibnitz
Ġassum ption
EN BERG
Ġocc ur
Ġperson s
Ġgu ide
Ġsc hemat
Ġcop ies
mor ality
Ġco existent
Ġprom ot
regard s
dif fic
Ġav ail
Ġful f
Ġcho ose
Ġcontinu ous
Ġinfin itum
incl ination
Ġbl ind
Ġconstruct ed
Ġintrodu ce
consist ent
Ġprecept s
Ġsepar ate
Ġcreat ure
Ġstatement s
Ġgen u
Ġgeometr y
conce it
Ġuncondition al
Ġassoci ated
Ġsophist ical
Ġoppon ent
JEC T
ĠGUT ENBERG
c he
in ct
Äł v
P L
d og
un te
Ġmed iate
i ent
i ol
Ġm in
an k
con ci
con cern
ust om
de fin
ex er
pro ble
Ġstr u
f ound
l ine
de pend
Ġpl ay
Ġang les
Ġ 0
in finite
at io
Ġh oly
Ġpr im
Äł w
ple asure
ord er
Ġacc ur
Ġle a
ang ed
obser v
Ġsa fe
inf luence
conting ent
f oundation
p ass
w ere
Ġt w
he sis
in qu
in ary
Ġw ond
Ġc ost
Ġp aid
Ġin ferences
Ġb u
or s
le ological
Ġre ceptivity
Ġit y
Ġcon stant
Ġh ist
im er
ow ed
Ġsu ggest
Äł a
Ġreason s
Ġun avoidable
tr ans
Ġim possibility
Ġhe av
Ġrel igion
Ġacc ord
nthe tical
Ġknow s
str aint
Ġpart y
ĠS olution
sol ution
Ġgo es
ach ing
ĠE pic
exist s
Ġconstit uted
ĠM or
Ġcommon est
ĠL icense
Ġassum ing
acc ordance
Ġattain ment
Ġdefin e
Ġder iv
cognition s
Ġimag ine
Ġcorrespond s
Ġut ility
Ġspeci f
Ġideal ism
Ġremark able
regard ed
Ġfall s
judgement s
Ġmed ium
AR T
never theless
appl ication
follow s
Ġadvance d
metaphys ics
urs ive
tot ality
Ġta x
Ġmag nitude
Ġmechan ism
Ġhon est
Ġexper iment
Ġimpl ies
correspond ing
investig ation
Ġstud y
Ġantit hesis
plic ity
v iew
in ter
app ro
inte l
ru it
E M
O G
ou red
Äł S
ad dition
Ġus ing
I R
s cept
s ignif
al ogism
se cond
Ġor d
de g
est abl
intel lectual
I L
P R
f ind
nd ered
Ġu m
Ġfor ward
con cept
ol og
ĠN O
Ġact s
Ġaw are
br ated
n or
p ot
Ġt al
in st
con v
il i
tr odu
Ġapp e
Ġch arge
pre ced
Ġgr ad
Ġhapp y
abl es
Ġphys ics
Ġconv in
in ions
le brated
Ġas ide
Ġl ist
Ġl anguage
Ġwe ak
Ġpro posed
Ġreason able
ĠT O
Ġun til
ĠĠĠĠĠĠĠĠ ĠĠĠĠ
Ġtr ademark
Ġdo ctr
Ġhe ad
Ġper mit
Ġform ula
present ed
Ġad apt
et ent
Ġar ising
Ġsome times
ĠN at
ĠN ot
Ġsub sist
Ġfre qu
be yond
The se
Ġlimit ations
Ġsay ing
ĠE very
ĠE ven
Ġatt ached
ĠD eduction
Ġsec ret
Ġest eem
Ġconcl uded
Ġill ustr
Ġconf ess
Ġaff irmed
Ġdesire d
Ġfin al
Ġdiffic ult
Ġess entially
Ġmaterial s
Ġprom ote
Ġcirc le
consid ered
Ġdistrib ution
requ ire
subst ances
Ġtrans gress
Ġcomb ination
Ġoccup ied
system atic
div ision
satisf action
Ġsyllogism s
Ġsubordin ate
hig hest
immediate ly
Ġrec ourse
Ġvent ure
Ġinsepar ably
Ġaxiom s
Ġeng aged
jun ctive
Ġont ological
ĠÃ¦ sthetic
Ġlea ves
E x
Ġ ion
Ġfor tun
Äł C
Ġim it
oy al
Ġl ed
Äł r
d edu
f act
s how
t al
Ġ id
com mon
I M
re am
en ed
at trib
ce asing
iv alent
il st
Ġab ility
pos itive
ment ion
Ġ1 5
dist inction
philos opher
oriz on
unte ers
l ing
Ġpr ot
im per
Ġl ines
ĠI V
ul ate
ve y
Ġv an
Ġpre p
ĠD I
Ġ2 0
ru pt
Ġprud ence
Ġsk ill
O f
d uty
f all
f undamental
g ive
r ong
r ule
y et
in ity
Ġo be
it as
Ġw ide
Ġs ac
Ġin sufficient
ing ly
Ġh ind
Ġpr imitive
Ġas cribed
Ġsu itable
Ġg et
ur ious
Ġun limited
Ġcom pl
Ġme asure
Ġim poses
Ġhe art
Ġper i
ac ity
Ġad du
Ġch apt
ĠS EC
ress ions
ĠIn t
Ġcomple x
ĠIt s
ĠW h
ĠW hether
Ġgo al
Ġgo ver
ser ted
Ġemploy ing
ĠH is
Ġpres cribes
Ġsubst ant
ĠD is
determin ations
Ġincl uding
Ġcharacter istic
Ġdec lar
Ġconf irm
Ġdiscover ing
OO F
Ġmod er
Ġwant ing
Ġant icip
part s
Ġinvestig ate
Ġexplain ed
Ġgener a
Ġfall a
Ġpath ological
Ġaffirm ative
Ġaddition al
Ġdefinition s
Ġjustif y
inde ed
Ġobtain ed
exam ination
requ ires
Ġsch ol
Ġprof ound
Ġanteced es
appl ied
proper ly
Ġpsych ological
Ġrefer red
Ġdecl ared
Ġorgan ized
Ġro ot
ĠK ant
Ġcare fully
Ġcre ation
tot al
compre hensible
Ġreciproc al
Ġdefect ive
AS ON
lat o
Ġcontem pl
Ġpract ice
appre hension
ĠPRO JECT
Ġsign s
Ġgenu ine
PR OOF
d irect
s ing
re strict
be gin
imp ort
d oubt
m ain
n ce
Ġo l
it ious
er y
su ffici
A CE
the ology
ver s
ĠI N
tr anscendent
ante ced
P RE
d ec
e lement
i ences
u el
Ġp at
an throp
ent ire
Äł D
am ong
ex cept
wh o
Ġcl ose
wor k
ix t
analy tical
adv antage
/ /
A ccording
l abour
re me
Ġf ruit
Ġe fficient
Ġd ur
per son
ch itect
pos ing
ant s
un al
AR K
abstr act
: //
A nd
A TION
C T
b ig
g ing
m ode
o x
o pposition
Ġt re
Ġt ill
Ġa ir
re ally
en omen
Ġw ar
Ġs ound
al og
ic k
Ġin j
Ġin struction
or ical
le ad
Ġre ject
Ġwh ilst
ar ies
Ġh yp
im ents
Ġfor bid
Ġsu ff
Ġat tr
Ġat ions
Ġsp aces
Ġtr ouble
ĠB esides
Ġab andon
Ġper mitted
Ġsy m
ant ages
Ġst art
Ġrel ated
Ġev id
ac ing
ĠP henomen
so ever
Ġpre jud
ĠĠĠĠĠĠĠĠĠĠĠĠĠĠĠĠ ĠĠĠ
Ġthen ce
Ġwhen ce
Ġgr anted
ĠC ON
Ġconnect s
Ġob vious
Ġdes c
Ġcomm ence
Ġcomm un
Ġrem ove
other wise
Ġinde pendence
ĠE go
exist ing
ĠD ialectic
Ġincl ude
cogn ize
Ġsens ations
Ġrequire ments
Ġdiv ine
Ġcontradict ions
Ġsupp ly
Ġexpress ed
intuition s
ma de
Ġconf idence
Ġconf used
ĠOn ly
Ġac ute
Ġattrib uted
Ġher self
Ġdiffic ulties
Ġdoubt s
Ġce lebrated
Ġaffirm ation
objective ly
Ġly ing
Ġsmall er
Ġte leological
Ġoper ation
Ġcomb ined
ĠIde a
follow ing
Ġoccup ies
Ġra ise
perfect ly
ĠJ udgement
ĠRE M
ĠRE ASON
Ġdeser ves
Every thing
speci es
Ġgen us
change able
Ġaccom pl
conform ity
Ġconver sely
Ġsubordin ated
Ġredu ce
Ġheter onomy
abstr action
Ġsequ ence
Ġadm ir
ĠWith out
Ġom ni
ĠSy nthetical
Ġdest ination
Ġimpul ses
Ġaggreg ate
Ġesca pe
Ġones elf
Ġschemat a
Ġmin or
Ġperi od
g ener
Ġ 8
Ġat ed
cor rect
A M
R I
ib ly
Äł M
Äł e
sim ilar
aff irm
ug ment
A n
W ith
i able
it io
ition s
ple asant
Ġtr ib
ass um
occ up
main tain
a ps
a enomen
b od
at us
st atement
Ġsp ect
ac her
Ġad missible
com par
ialect ical
i ance
Ġ ical
Ġ ve
Ġa ge
Ġc ultiv
Ġs ection
se t
ur ality
ec ond
con cl
Ġal ter
ab s
Ġr id
su pposition
Ġmor tal
Ġ1 0
rel ations
Ġsatisf actory
Ġset t
Ġleg itimate
Ġcoun ter
b oth
e ach
f ace
g ain
m ake
Ġt ast
Ġt yp
is able
is ibility
Ġw rong
Ġc ur
Ġs ides
Ġs light
Ġf ive
se c
ou se
Ġis ol
Ġre ndered
Ġd ict
st ate
om p
ut ions
ect ed
Ġh y
Ġas serted
the ological
Ġex posed
Ġl ose
Ġl oc
Ġsu sp
qu ite
Ġpro pose
Ġobject ion
Ġde ep
Ġal ong
ab ove
Ġun ceasing
um ber
tr ue
Ġr ank
Ġme ant
Ġim posed
Ġse at
Ġst ated
Ġrel ating
ĠP lato
Ġdis junctive
Ġpre mis
Ġpre cisely
Ġch imer
Ġpart ies
ĠS ince
ĠN e
ĠN evertheless
ĠO bject
Ġser vice
Ġpresent ing
com b
ast ic
Ġgood ness
Ġout side
Ġpossess ed
oun ces
Ġimp art
ĠM at
ĠM etaphys
Ġcomp are
Ġadv antages
Ġill usions
Ġright ly
Ġextend ing
Ġconcern ing
certain ly
Ġmod ality
Ġed ifice
Ġut most
Ġequ ivalent
Ġsignif ies
comple teness
sim ple
Ġharmon ize
Ġund oubted
Ġconj oined
Ġtreat s
Ġdistrib ute
Ġdistrib uting
Ġcriter ia
comm and
Ġstrict ly
Ġexhib its
Ġexcl uded
Ġbl ame
Ġpursu e
Ġfore going
Ġdel usion
Ġappro xim
sum mum
ĠSp eculative
consider ation
ĠPrinci ple
contain s
contain ed
ground s
Ġadopt ed
think ing
predic ates
belong ing
success ion
sens ation
Ġannihil ated
expl anation
Ġsequ el
ĠAccording ly
Ġconfin e
Ġborrow ed
Ġobst ac
Ġpreser ve
Ġstreng th
tt p
hypothe sis
Ġbeh ind
exer cise
deg ree
Ġgover n
ixt ure
Ġdur ation
V E
g er
i er
o ot
¢ Ä
or m
en lar
al t
so le
int u
dist rib
Q U
c lear
s our
or ph
if orm
il is
ans w
pr ogress
Ġple asant
ne ed
AR RAN
a uthor
c ol
c ks
e e
f it
m od
r i
Ġm on
se e
ot t
pr ight
pr op
un condition
av oured
ane ous
ogene ity
inqu ir
H ere
d eduction
p rom
Ġt aking
ic ion
Ġb re
Ġn ess
ut able
Ġl ink
con struction
Ġun ion
op e
me thod
Ġcogit ating
Ġattempt ed
ash ion
expect ed
C hapter
G od
L et
c o
d ialectical
m ight
n ay
Ġt end
Ġt ell
Ġthe sis
re ference
it ate
Ġc le
Ġp enetr
Ġin ward
Ġf ict
Ġre sol
Ġre comm
Ġre place
Ġcon straint
Ġd r
Ġd im
Ġd ream
Ġbe ar
ar bitr
Ġh id
Ġh ard
Ġl aid
res ult
ĠT RANSCENDENTAL
con ceived
Ġde pr
Ġint ended
us ive
ill usion
Ġun worthy
Ġthere to
of old
Ġunder t
Ġwill s
Ġany where
Ġform at
Ġst op
ĠA uthor
un less
Ġsubject ed
ĠP er
Ġdis claim
Ġpre fer
cl os
Ġar chitect
tern ity
ĠS to
Ġwhat soever
ĠO N
Ġne arer
Ġcomple tion
Ġgr ant
ĠC ategor
ĠC hapter
Ġthought s
ser ve
Ġconsid ers
Ġen ables
ĠE BOOK
Ġpres um
Ġam big
man ner
man uel
Ġorigin ated
ĠM y
ev ident
Ġcomp ared
ĠL ogic
Ġattain ing
Ġbefore hand
empirical ly
ĠCon ception
Ġset s
Ġdistingu ishing
Ġperson al
Ġnum er
ane ously
ail ed
any thing
Ġexpect ation
Ġop inions
Ġappre hend
ext ension
Ġallow able
Ġprom ises
Ġdepend ence
regard ing
dif ference
Ġmaintain ed
Ġte ach
Ġte aches
Ġbring ing
Ġcorrect ness
limit s
Ġask ed
Ġseek ing
Ġrecogn ize
Ġrecogn ized
Ġspontane ous
ĠĠĠĠĠĠĠĠĠĠĠĠĠĠĠĠĠĠĠĠ ĠĠĠ
ĠIde al
incl uding
Ġro om
ĠJ ust
distingu ished
mathemat ical
ins ic
presu pposes
predic ate
Ġannihil ate
Ġhon our
Ġtransc end
Ġheter ogeneous
Ġprob ably
Ġanalog ies
ĠIm manuel
valid ity
Ġmention ed
Ġrece iving
draw n
Ġeth ics
Ġremo ved
Ġindirect ly
again st
ĠPU RE
Ġcal cul
Ġfulf il
depend s
Ġdoctr ines
Ġadapt ed
Ġchapt er
ĠJudgement s
Ġtast e
Ġhy per
Ġsusp icion
Q u
S I
Ġ ive
il ities
R IN
r ist
Ġa st
an im
iv able
Äł st
ant icip
ob tain
gr ad
oc k
contin u
O M
c hed
i us
re ciproc
er r
er able
Äł E
el s
A N
a f
in c
re nder
en g
Äł pre
Ġpro ving
ori ly
Ġj oin
Ġact ive
Ġread y
Ġcompre hensible
P H
i ating
l ong
al th
Ġan n
ir ing
ur ther
ul ae
Ġpro pri
el se
und red
metaphys ic
neg ative
Ġaccomp an
Ġfortun e
imper ative
7 8
F ACE
c osmological
e lectronic
f ers
i ology
l ied
m ember
n umber
o pposite
w as
Ġ il
Ġ ies
Ġt alent
Ġa ugment
Ġthe ological
is ions
at icism
Ġc ent
Ġin adequate
Ġf ashion
an ations
Ġe ternity
Ġre ve
Ġre pro
Ġre ached
Ġd am
Ġd ays
Ġd imin
Ġh orizon
Ġpr a
Ġl arge
Ġwe lf
Ġfor ced
ur us
ist ics
Äł n
ĠT r
Ġde ath
Ġde part
Ġal leg
Ġal most
ore over
ill ed
Ġun certain
Ġsp ite
est y
Ġem br
Ġdo ll
ĠB oth
ad missible
Ġsh ap
ĠF irst
ĠF reedom
Ġide ality
Ġrel ative
Ġch ance
Ġsome what
ag ree
ĠO r
mat erial
ĠC om
Ġemploy s
Ġdisc ursive
Ġinde termin
Ġinde finite
ĠH im
Ġext reme
Ġen ounce
under stood
Ġout ward
Ġass ured
Ġprodu cing
Ġsynthetical ly
Ġincl udes
Ġimp ly
Ġview ed
Ġcor relate
Ġest imate
Ġpower ful
Ġsee ks
ĠL et
Ġdec ided
ĠU se
Ġclear ness
Ġright s
crib ing
Ġextend s
Ġansw ered
Ġexer c
Ġread ily
Ġcommand ed
Ġvirt uous
ĠTH IS
Ġover step
Ġerr one
Ġhold ing
Ġdoubt ful
pure ly
Ġpass es
Ġpreced ed
Ġprogress ion
ne ither
Ġpeculiar ity
Ġdraw ing
disc overed
Ġanalytical ly
categor ical
Ġte acher
inde pendence
Ġpar alogism
Ġmoment a
ĠEx perience
Ġestablish ment
caus es
ĠĠĠĠĠĠĠĠĠĠĠĠĠĠĠĠĠĠĠĠ Ġ
ĠĠĠĠĠĠĠĠĠĠĠĠĠĠĠĠĠĠĠĠ ĠĠ
Ġdestr u
ĠV II
Ġche cks
Ġdecl ares
Ġorgan on
constit ute
constit utive
Ġdeser ve
Ġdisp ute
Ġdisp utes
my self
Ġscept ical
Ġfa ith
speci al
Ġcre ated
Ġgain ed
Ġdogmat ic
Ġhigh ly
sens es
Ġmag n
Ġcol our
ĠAN Y
Ġredu ced
Ġuncondition ally
crit ical
ĠHow ever
hig her
Su preme
Ġaccident al
Ġfirm ly
Ġobsc urity
nex ion
Ġindif ference
Ġindif ferent
psych ology
legisl ation
Ġdisappear s
Ġenjoy ment
Ġavail able
defin ition
observ ation
Ġwond er
Ġbu ild
Ġhist ory
ĠNat ure
mention ed
import ant
PRE FACE
According ly
Ġtre ated
Ġwar ning
ĠPhenomen a
ĠREM ARK
Ġtrib unal
aenomen on
Ġslight est
Ġwelf are
U C
a ffect
c op
c oun
m o
v ari
Ġ -
ar ante
Äł su
ost at
dem and
che ty
a u
f lu
o pp
Ġin c
Äł per
Äł tr
ca p
A B
C I
c id
i ality
u ity
ce ll
se arch
ar mon
ore al
est eem
ad d
ind is
cont em
k en
n oumen
o ad
s mall
Ġin ner
Ġm ent
ent ia
ter m
ci ation
con struct
ind ividual
under stand
Ġchange able
irt ue
Ġchang ed
vere ign
Ġusu al
proble matical
? "
n ed
w ord
Ġ ions
Ġin struct
Ġf l
an c
Ġd ay
as is
im ental
Ġan throp
con duct
Ġr ation
so phist
ev ol
arr ass
Ġ5 0
success ive
path ological
feel ing
IL ITY
" ;
C L
T Y
T RANSCENDENTAL
U L
c our
c ases
h omogeneous
o ice
p et
p oreal
v iz
w ay
Ġ ence
in ally
Ġw a
Ġw id
Ġw ater
Ġc red
al f
Ġin here
Ġin stit
Ġb ase
Ġth y
Ġth reat
Ġm ut
Ġm und
Ġf ile
Ġf oot
Ġn ull
Ġe rect
Ġre pe
Ġcon ject
st ill
Ġh undred
Ġpr ide
Ġu seless
Ġu pright
Ġex pose
Ġsu scept
Ġg if
ain ted
Ġpro pens
ĠT ot
Ġint ensive
ab led
Ġun b
Ġun necessary
Ġun iform
Ġr ange
Ġprinci p
Ġexist ences
Ġv iol
pr of
Ġim prov
Ġhe ar
su preme
ĠF OR
Ġqu ar
now ledge
ĠA l
ĠA pp
ĠA nt
ac ks
Ġy ear
et ween
Ġar chety
Ġsynthe tic
ĠS elf
Ġsub mit
Ġpl urality
Ġend owed
ort unity
pro ved
pro cedure
Ġrem ote
Ġsystem s
Ġexam ined
Ġen abled
Ġyou th
Ġent ered
Ġatt ack
lect ive
cogn ized
Ġorigin ally
Ġshow ing
Ġquant um
ĠM e
Ġconsider ing
Ġdiv isible
Ġadv isable
Ġmatter s
Ġconce al
lu ences
Ġremain ing
Ġdec om
Ġdec ision
Ġpresu pposing
Ġconf usion
Ġaff inity
Ġple ase
Ġconform s
Ġset ting
Ġarr anged
Ġimper fect
Ġregress ive
Ġel aps
Ġexer t
Ġperson ality
Ġseem ed
Ġindic ating
do ctrine
Ġconduct ed
Ġess ence
Ġfall acy
Ġsuper ior
happ ens
Ġsing ular
Ġvol unteers
Ġtreat ise
Ġbring s
limit ation
Ġdistrib uted
ap perception
Ġintu itive
peci al
Ġcontinu ed
intellig ence
ĠUn ity
Ġexhib ited
ordin ated
ĠEx position
quest ions
Ġdesign ate
Ġobserv ations
synthetical ly
Ġbecom ing
Ġsur face
Ġsort s
Ġro ad
Ġpostul ates
ĠK nowledge
Ġoff ice
cogit ated
Ġacqu ainted
ĠÃ Ĩ
Ġgeometr ical
demonstr ation
Ġpe ace
Ġcol lection
Ġmechan ical
ww w
Ġdirection s
Ġprud ent
Ġaccident s
Ġproduct s
Ġanalog ous
ĠPro of
ĠPro ble
Ġcontem por
Ġassign ed
Ġhum ili
Ġobst in
super sensible
ert itude
Ġpun ishment
ĠPh ilos
ĠPh ys
Ġcap acity
consequ ences
Ġanci ent
Ġanci ents
Ġdevelop ment
Ġsubl ime
imag ination
argum ents
oblig ation
Ġmult itude
Ġpros pect
ĠDiv ision
Ġtw ofold
Ġheav en
ĠEpic urus
IR ST
Ġappe al
Ġgrad ually
ĠĠĠĠĠĠĠĠĠĠĠĠ Ġ
Ġvan ity
Ġsac r
Ġcompl iance
ĠInt uition
ĠDis cipline
suffici ency
entire ly
Ġhyp ostat
Ġadmir ation
bod y
econd ly
Ġsett led
Ġisol ated
Ġdoll ars
Ġelaps ed
8 0
b arrass
Ġ z
se m
Ġis t
ad mit
un t
Ġcl os
00 0
ap odeict
6 8
A G
B e
f ig
o ast
Ġa f
om orph
Ġan ce
ple x
ab or
ne w
IN G
L I
p o
at iv
Äł sub
ul g
Ġat ing
ech n
a el
l imin
o res
ic ated
ar m
ich ael
im ity
ist inction
Äł en
sol u
ress ion
form al
sy llogism
edu c
Ġcogit able
des er
comm un
IT ED
AM AG
B eing
in al
Ġo g
al id
es pect
Ġm ov
Ġf ix
Ġre conci
ist ence
if ies
Äł im
et ch
ag greg
Ġpos ited
Ġam ount
Ġprodu ctive
lect ed
determin ate
Ġself ish
app ly
acc ount
wor ks
des ire
Ġrestrict ed
anteced ent
flu ous
, [
; _
B ook
O L
O ur
b ased
b asis
c irc
e avoured
g ives
j unction
v irtue
w ish
Ġ ers
Ġt echn
Ġs ite
ic ial
Ġin consistent
Ġb ott
or ies
Ġm id
Ġf iction
Ġf latter
Ġre vol
Ġd ue
Ġbe a
om ogeneity
ot le
Ġh ouse
Ġpr int
os en
Ġon line
ow ers
Ġsu pposing
ur y
ver se
per haps
Äł ad
em br
Ġde al
Ġun changeable
âĢĶ âĢľ
ĠĠĠĠĠĠĠĠ ĠĠĠ
ĠĠĠĠĠĠĠĠ ĠĠĠĠĠĠĠ
Ġ( Â§
Ġthere with
tr y
Ġr ad
Ġr ash
Ġr oyal
Ġso vereign
ide al
Ġv is
Ġwill ing
ĠB e
ad istinction
Ġform ation
Ġno ble
Ġsh ar
Ġsh are
ement s
Ġad mission
ĠP ossib
Ġworld s
fere d
Ġch osen
sp eculation
ĠĠĠĠĠĠĠĠĠĠĠĠĠĠĠĠ ĠĠĠĠĠĠĠĠĠĠĠĠĠĠĠĠ
Ġma ch
Ġfar ther
Ġcomple ted
Ġbel ow
Ġcont act
ĠG ree
ĠW ARRAN
Ġgr ow
Ġgr and
Ġcontr ast
are st
Ġdes p
ĠH art
Ġfe es
Ġen umer
Ġag ent
Ġground ed
ĠE X
Ġmaxim um
Ġpossess ing
av ing
Ġsim plicity
Ġatt ended
ang es
Ġimp ressions
Ġfeel s
there by
Ġmode l
Ġinf all
Ġexpl anations
ĠM an
Ġwhere in
Ġproceed ed
reg ulative
Ġcomp ut
Ġcomp ens
Ġsee ing
Ġfree ly
Ġ1 2
Ġsupp lied
Ġphys ico
Ġdirect s
Ġarr ange
Ġarr iving
ON D
Ġocc urs
perception s
Ġansw ers
Ġimag inary
Ġparticular ly
Ġgu arante
Ġindic ated
contradict ions
Ġmethod s
Ġbelie ves
Ġover look
Ġequ ip
Ġtheoretical ly
Ġpost ed
Ġbound aries
Ġexplain ing
Ġmis understanding
Ġapply ing
Ġlook ing
Ġlook ed
Ġmaintain s
Ġaddition s
Ġfalse ly
philos ophical
br ought
Ġdisposition s
Ġobtain ing
rem ains
Ġtrans ition
Ġrecogn izes
Ġexcl ude
Ġ3 0
appl icable
Ġpursu it
Ġpursu es
produ ce
produ ced
Ġadvance ment
conf idence
univers ality
Ġpostul ated
perfect ion
Ġpositive ly
Ġwit ness
possess es
Ġfa ult
Ġaccept ed
Ġcircumst ance
Ġdogmat ism
Ġdat ur
Ġhappen ed
Ġkeep ing
path y
Ġir re
enetr ability
Ġlabour s
Ġconflict ing
effect s
Ġfan aticism
Ġreciproc ally
point s
Wh ile
Ġasc ending
mot ive
Ġelev ated
ĠSy stem
Ġobsc ure
Ġafford s
Ġdanger ous
Con sequently
Ġmark ed
Ġeth ical
independent ly
Ġsubl imity
Ġusu ally
Ġincre ase
Ġexec ution
Ġpersu asion
ĠCh rist
ĠEm pirical
diffic ulties
dog mat
ustom ed
Ġstru gg
Ġaccur ately
OG Y
Ġtal ents
Ġconvin ced
Ġfrequ ent
IM ITED
Ġfalla cious
Ġschol astic
Ġevid ently
Ġcommence ment
Ġomni pot
Ġspect ator
Ġpremis ses
ĠNe w
Ġundoubted ly
Ġbre ak
Ġhid den
clos ed
Ġrepro ach
Ġshap e
Ġindetermin ate
Ġerrone ous
ĠTot ality
Ġquar ter
Ġcontempor aneously
Ġbott om
Ġo us
re pt
le x
Ġre d
ĠS T
acc ident
rem ain
pur su
f urn
s us
Ġt en
Ġp o
Ġp ress
le t
qu al
Äł ch
em onstr
pr act
acc omp
vey ed
A C
O D
O RE
a ult
d on
i hil
m ist
m echan
r og
r ust
u ct
er ci
Ġu re
th row
res ist
Äł an
am ent
Ġv ice
ie ve
arr ow
des tr
argum ent
b ound
m ong
s ed
y right
in om
in separ
re nt
at a
Ġc our
Ġm ixed
ter s
Äł F
Ġat es
ol f
tain s
Ġr u
ex per
ph ism
pon s
AL EC
Ġconv en
rem ark
ole m
ES IS
TH ESIS
Ġauthoriz ed
S IS
a per
p gl
w ant
Ġ iv
at i
at ory
Ġn amed
ut ter
Ġas certain
ir th
Äł g
ul ation
Ġal tern
Ġr un
Ġqu a
me an
dis position
abl eness
Ġpass ing
up il
Ġsupport ed
Ġear ly
TIC AL
psych ological
Ġaccur ate
olog ia
begin ning
N o
U nderstanding
U ND
W hether
] ,
a pons
c ritique
h ood
h ope
p perception
p ublic
p owers
r ance
r ather
u ly
on ically
it ation
it ative
it les
Ġof ficial
is en
Ġw ww
Ġp aper
ic ability
Ġin complete
Ġin comp
Ġb ook
Ġb oast
Ġto uch
Ġm arks
an cing
Ġn ext
Ġe ternal
Ġe go
se en
Ġcon nexion
Ġd ate
st ead
ot ed
Ġan nex
Ġex empt
Ġex ceptions
Ġex cell
Ġl ic
Ġl ur
Ġl iving
Ġl ater
Ġnot ice
ĠĠĠĠ ĠĠ
Ġsu n
Ġsu it
th ics
og icians
ul ates
Ġde tr
act ing
us ively
ab out
Ġun f
tain ing
Ġour s
Ġsp o
not ions
Ġso phism
Ġv ac
Ġtr ied
ad ed
Ġform ulae
su ppose
Ġse es
Ġcogn izing
Ġman kind
un avoidable
Ġsubject ing
ĠP RIN
Ġevery where
ĠĠĠĠĠĠĠĠĠĠĠĠĠĠĠĠ Ġ
ĠS ome
Ġph aenomenon
ens es
ĠN or
Ġsub stit
ĠIn formation
Ġpresent ly
Ġcont empt
form s
form ed
Ġlimit ing
Ġrequ iring
Ġown er
Ġphilos oph
with in
other s
Ġinde finitum
âĢĿ âĢĶ
Ġext inction
Ġen ounces
Ġformer ly
Ġground less
ĠE ither
Ġeffect ed
Ġass ent
Ġass ure
Ġreal ization
Ġjust ly
av id
Ġent ertain
Ġent itle
man y
phys ico
Ġorigin ating
ĠWe b
ful ness
Ġinv alid
Ġinf luences
Ġcogit ates
ĠM oreover
ys s
ra se
phenomen al
Ġdiv ide
Ġdiv isibility
Ġcomp etent
Ġ1 9
Ġpredic ated
Ġconform ed
Ġconform ably
TI THESIS
Ġarr ived
Ġregress us
Ġel abor
Ġinfinite ly
Ġneed s
Ġmod ern
Ġresult ing
Ġindic ation
Ġant inom
HA T
Ġelement ary
Ġread ers
bec ome
Ġsol ic
Ġsol id
Ġsol ve
Ġspeci fic
Ġhold er
Ġco inc
Ġprov ince
Ġinst inct
Ġhar m
Ġelse where
Ġden om
ext ent
Ġgener ated
ĠTHE SIS
Ġmaintain ing
Ġpath s
Ġadd s
Ġconj oin
categor y
Ġjud ged
Ġjud ging
Ġtreat ing
Ġtreat ment
Ġoper ating
Ġintr insic
Ġcorrect ly
Ġpret ended
Ġamong st
requ ired
Ġintu ite
Ġcontinu ity
Ġcompar ative
Ġmoment um
just ice
Ġexcl udes
Ġexcl usively
Ġcomb at
Ġspontane ously
Ġke y
incl inations
appear s
appear ance
Ġapodeict ically
consist ency
employ ed
Ġavoid ed
Ġinevit able
Ġsepar ated
Ġacqu ired
presu pposed
Ġopp ortunity
ĠSt ill
Ġdogmat ist
satisf actory
analy sis
Ġta ught
ĠAN AL
Ġexper iences
Ġimpl ied
Ġ9 0
great er
crit icism
Ġdef end
Ġassoci ation
attain able
Ġfour th
Ġwrit ing
Ġrece ives
Ġconfin ed
Ġenlar gement
Ġdiscuss ions
mot ion
rest s
post eriori
maxim s
indic ate
Ġimpul se
Ġreckon ed
Ġsubsum ption
Ġauthoriz e
Ġspirit ual
assert ions
Ġaccomp any
ik es
Ġmo on
Ġmo ving
Ġmult i
ĠDiv ine
Ġmediate ly
concern ed
Ġprim ary
Ġcost s
Ġconstant ly
ĠMor ality
Ġderiv ative
signif ication
preced ing
ĠNot hing
dedu ced
philosopher s
Ġprep are
ĠDI ALEC
ĠSEC TION
Ġsubstant ial
Ġconfirm ation
Ġmoder ate
element s
Ġinj urious
Ġtyp e
Ġloc ated
ĠMat hemat
sole ly
sour ce
Ġlink s
Ġreplace ment
ĠCategor ies
Ġpresum ption
eng th
Ġwonder ful
Ġfl ow
Ġration is
Ġdecom position
ĠÃĨ sthetic
ĠPhilos ophy
Ġheaven ly
Ġsacr ifice
limin ary
solu ble
ĠGree k
Ġequip ment
ĠChrist ian
pgl af
P er
T r
Ġis m
ut ic
Äł sp
em per
ex cl
cl ass
ine v
oc r
disc ern
des ign
compre hend
destr oy
on y
or gan
ci l
Äł pro
de v
su al
D UC
L eibnitz
S p
S t
U n
re ction
Äł I
Äł N
Äł sh
Ġal ly
Ġal ity
ge t
Ġhe s
Ġgo ing
sy m
inv ol
expl ain
ÄłÄłÄłÄłÄłÄłÄłÄł ÄłÄłÄłÄłÄłÄłÄłÄł
PL ES
ATION S
contem pl
mean ing
4 1
E AS
M etaphys
S EC
h armon
t reat
y m
Ġ ***
in fin
en evol
an nihil
ist rib
if ferent
Äł th
Äł be
de fect
de finite
ig ination
ad ox
Ġst ead
ha ust
ev il
ĠV I
RO DUC
OR AL
conv in
RODUC TION
r y
s oul
re ement
Ġf at
Ġf ixed
an cy
ess ential
ure an
tr ay
ex position
pon t
pre vious
Ġser ved
me ll
Ġconsider able
Ġchang ing
disc us
produ ction
Ġfa ir
Ġsuffici ency
Ġstep s
IC T
dog matical
sec ure
CI PLES
! "
P ure
P lease
P ART
S uch
S econdly
T RODUCTION
a de
a seless
c ame
f urther
i ability
l ogic
l ife
m akes
p ute
r ules
u ality
Ã ¦
Ġt itles
he res
Ġo mit
Ġo ppose
re ceive
it ates
Ġof fer
Ġs il
Ġp ortion
Ġp upil
Ġin ex
Ġin ability
Ġin ternally
Ġin admissible
Ġin soluble
es pecially
Ġb and
Ġb ind
Ġb irth
Ġto pic
an ci
Ġn arrow
Ġe lectr
se em
Ġre action
Ġbe ars
Ġbe tray
Ġbe came
st one
ut ility
Ġh ttp
Ġh alf
Ġh omogeneity
Ġpr ime
the oretic
im possibility
os es
Ġex ternally
Ġex posing
Ġl ot
Ġl ab
Ġl icense
Ġl ength
Ġwe al
ter med
Ġg ave
th ree
ur a
ĠI s
ist otle
if ying
per manent
Äł H
Äł W
Ġpro poses
ĠT ake
end er
Ġde ce
us es
Ġat ive
Ġun fortun
Ġthere from
tr ademark
Ġsp urious
ecess ity
her ing
Ġv es
Ġv oice
Ġtr ust
Ġtr ack
Ġtr ying
ge ometr
Ġim pose
Ġhe ight
Ġab ide
ad ly
ad mitted
Ġper plex
ĠF IRST
Ġst atus
wh ose
ĠA b
Ġacc ustomed
ult ure
ult aneous
un iverse
ĠP art
Ġdis similar
Ġknow ing
Ġpre liminary
Ġch ild
Ġpart icip
Ġar isen
Ġrepresent ing
Ġmy st
fin ally
Ġdif fer
ort ions
com position
Ġlimit ative
Ġconnect ing
pro ve
Ġdist ance
Ġrational is
ĠH uman
Ġfe ll
Ġen closed
less ness
Ġpres cribed
aly tical
Ġthink er
Ġthink ers
Ġass ist
Ġass istance
Ġreal ized
oun ced
ĠD IS
ĠD AMAG
ĠD avid
Ġgreat ly
Ġimp ed
Ġview s
Ġconstit uting
there of
Ġinv isible
Ġshow ed
Ġintellig ent
Ġintellig ences
ĠM ichael
ĠM ORAL
Ġstr ange
Ġcharacter istics
Ġcomp ass
Ġadv ancing
Ġdedu cing
Ġres ide
Ġattain s
Ġphys iology
Ġcontent ment
Ġdirect ing
ĠCon cl
Ġconform able
Ġset tle
EN CE
Ġestabl ishes
Ġleg al
Ġdistingu ishes
Ġnum bers
Ġmod ific
Ġread able
Ġsol ved
Ġdemonstr ations
Ġ2 5
Ġprov iding
Ġpass ed
Ġrender ing
sim ply
Ġaw aken
bl es
Ġlegisl ating
Ġagre es
exam ples
Ġinfer ring
Ġmed iating
Ġintu iting
Ġstrict est
Ġcompar ing
bel ief
ĠEx istence
Ġobserv ance
Ġanteced ently
Ġabstract ed
ĠAr istotle
proper ty
Ġpursu ed
Ġey e
Ġrestrict ion
Ġrestrict ions
Ġdel iber
Ġintrodu ction
Ġintrodu cing
Ġdecl are
consider ations
sc hema
Ġfurn ished
metaphys ical
Ġdeser ving
Ġoff ers
speci f
presu pposition
Ġfavour able
Ġfig ures
interest s
origin al
belong s
free ly
Ġfr ame
Ġfr amed
Ġcoun try
Ġir resist
like wise
Ġtransc ends
Ġadm ixture
obser ved
correspond s
How ever
Ġprob ability
Ġfan cy
Ġclass es
Ġcomprehend s
power ful
Ġsk etch
Wh atever
Ġparagraph s
Ġoppon ents
Ġwrit ten
Ġindu bit
Ġasc end
Ġenlar ge
Ġinsepar able
Ġbene fit
Ġcontrib ute
Ġcontrib utes
distinguish able
ĠDe ity
Ġ200 2
Ġqual ities
Ġqual itative
Ġpay ing
Ġnecessit ated
Ġsubsum ed
express ion
Ġdevelop ed
ik ing
Ġren ounce
pret ensions
Ġexec uted
Ġdisplay ing
ĠDo ctrine
establ ished
inst ead
Ġfrequ ently
Ġtransgress ion
show n
Ġobe y
Ġaddu ced
ĠSEC OND
Ġpat ient
Ġclose ly
lead s
Ġforbid s
Ġsuff er
Ġattr action
Ġsym pathy
Ġcultiv ation
Ġrid ic
Ġapproxim ate
Ġobstac le
ri ption
Ġdream s
Ġarchitect onic
ĠSto ics
Ġpropri ety
Ġalleg ed
Ġembr ace
Ġdestru ction
Ġbuild ing
Ġconject ure
Ġgif ts
Ġpropens ity
Ġimprov ement
Ġyear s
Ġhumili ation
Ġclos er
apodeict ic
fig ure
ativ um
ores aid
Ġmov ements
Ġtechn ical
Ġrad ical
utter ly
Ġelectr onically
ĠDAMAG ES
Ġmodific ations
1 5
G r
y llogism
he ter
Ġa in
Ġe ll
Äł imp
ici ous
ass ign
acc ur
Ġmis sion
TH E
supp ort
accomp an
. .
U D
a x
h ab
i pp
Ġo u
Ġc t
al le
ic es
ject ed
ain ing
Äł T
end eavour
of t
ad m
ex c
pre v
arr ant
bec om
proc ess
adv ance
A r
D e
I ON
b al
b ol
c osm
h on
i i
k ing
s pont
Ġa ch
in cre
in trodu
Ġo st
Ġn ihil
Ġis h
de utic
um b
tr ansc
pos it
ex hib
Ġy ield
ag ger
pro b
Ġent ity
cor rupt
CE P
EM ENT
abs urd
E TH
G RE
H e
M ETH
N ot
a ccess
d ated
e ed
i ans
m erit
p eculiar
u it
Ġt ed
re ckon
er ity
ic ate
nd eed
iv il
Ġan im
Ġl est
ci ated
qu e
Ġso ever
ex ception
for th
sp e
ie ce
Ġconce ivable
ane ity
** ***
pens ably
gu ard
Pr odu
dec lar
answ er
prop ortion
PH Y
d id
e ffort
m oment
s ight
t on
t ext
u ary
u ge
Ġ Qu
Ġt ext
Ġo s
re fer
en ing
er o
al e
Ġm ine
Ġf il
Ġe ase
se ct
se ction
Ġre str
os s
Ġwe b
th orough
ur ies
ci ent
og ant
Äł ab
Äł ind
us h
Ġca st
est im
Ġtr ace
ary ing
ant ly
Ġch ief
Ġar y
el t
Ġgr at
ari um
lu cid
Ġconsist ency
Ġworth iness
TI QU
Ġequ ality
ext ensive
oc ation
des c
Ġprob able
OG IC
establ ish
Ġconvin cing
Ġfruit ful
ick ed
RI TIQU
Ġaccompan ied
OD OL
METH ODOL
1 6
C TICAL
I ES
S o
S ince
Y ou
a utonomy
b its
b onum
c ision
c ourse
d ay
d one
d ialectic
g ulative
h ttp
l iberty
m et
m ixed
n a
s ur
s ch
s aid
ĉ ĉ
Ġa x
on ations
in finitum
Ġthe ories
en cies
Ġw ished
Ġc at
Ġs ize
Ġp olem
al ed
al ready
Ġin n
Ġin sist
Ġin comprehensible
Ġin consistency
Ġb on
Ġb urd
Ġth ou
or n
ct ory
Ġf ate
Ġe lective
Ġre tain
Ġre view
Ġd ark
Ġbe gan
om ents
ar ise
Ġpr ag
Ġex agger
Ġl u
Ġl ate
pt ions
Ġsu st
Ġsu pposes
ĠI ll
if ference
per ceive
Äł G
Äł L
Äł O
Äł o
ul er
em piricism
ĠT hen
Ġare na
con ceive
con junction
ch ain
Ġde ceived
act ive
act ual
us ing
ill ion
aw ay
am es
Ġun it
Ġun expected
Ġcom pr
Ġcom posed
Ġr ound
Ġr ace
Ġr atio
Ġr uler
Ġem ail
Ġem barrass
Ġdetermin ative
Ġv it
Ġv ict
Ġv ag
Ġdo ing
Ġcondition al
Ġcondition ally
Ġhe alth
Ġab ly
Ġab yss
Ġper ce
Ġsy non
Ġus er
ĠF undamental
Ġse ven
Ġse vere
Ġst e
present ation
wh atever
ĠA fter
ĠA SC
ĠA pperception
ĠA GRE
un able
un known
un ciation
pon ed
pon ent
ĠP RA
Ġdis pens
Ġdis gu
et s
et ary
here nce
Ġle aving
Ġch ar
Ġar ound
Ġar ose
Ġph rase
ress ed
op ing
op inion
ag reement
Ġsub ter
Ġne ar
Ġma st
ĠIn trodu
Ġpl acing
Ġend eavoured
ĠG r
ĠG er
ĠG ood
ĠW ill
ĠW here
ign or
Ġcontr over
rit ical
com posite
ĠC RITIQU
ser ves
Ġrequ est
Ġdes cribe
Ġdist ant
Ġdist ress
Ġcall s
Ġcall ing
Ġen cour
ĠR ational
ĠE nd
Ġpres cribe
Ġsensib ly
Ġreal ize
Ġcrit ic
Ġatt ach
Ġatt acks
ĠD es
Ġsensuous ly
Ġcor poreal
Ġquant a
ĠRe gulative
ĠM is
Ġstr ike
Ġstr ives
Ġanaly sing
Ġref use
Ġref ers
Ġdiv erse
Ġcomp els
Ġadv ances
Ġcontradict s
ĠL ogical
ĠL IMITED
ĠL OGIC
Ġconce iving
Ġconcl uding
Ġres istance
Ġremain ed
Ġ1 78
Ġdec ides
Ġlogical ly
ma j
Ġdiscover able
know s
Ġsatisf ies
TI ES
practical ly
Ġac knowledge
Ġobser ving
Ġseem ingly
Ġmod est
Ġed ition
Ġed itions
ĠĠĠĠĠĠĠĠĠĠĠĠĠĠĠĠĠĠĠĠĠĠĠĠ ĠĠ
ĠĠĠĠĠĠĠĠĠĠĠĠĠĠĠĠĠĠĠĠĠĠĠĠ ĠĠĠĠĠĠĠ
Ġes pecial
Ġattempt ing
Ġneg lect
subject ively
aim s
Ġbelie ved
Ġspeci ally
Ġideal s
ĠPr int
Ġcontin ually
Ġtoo k
Ġess ay
Ġinst ances
Ġexpect ations
Ġpass ive
Ġden ies
Ġaffect s
oc in
oc ke
Ġallow s
Ġsuper fluous
Ġcopy ing
Ġyour self
giv ing
according ly
sh all
Ġjustif ies
Ġinquir ing
ĠAn alytical
Ġconv ince
Ġthorough ness
Ġpret end
Ġobtain s
Ġinvol ve
Ġinvol ving
pur poses
imp enetrability
just ified
att ention
Ġrecogn ise
Ġabstract o
comp elled
Ġdon ate
Ġsur pr
Ġoccup ation
separ ate
Ġdel usive
Ġconstruct ing
produ ctive
Ġappro ach
consist s
Ġmanifest ations
Ġdecl ine
Ġlet ter
Ġadequate ly
Ġorgan ization
constit ution
Ġcreat or
Ġcreat ing
Ġcreat ures
There fore
ground ed
ins ight
Ġacqu ire
Ġacqu aint
gu idance
Ġproblematical ly
Ġfig ur
more over
Ġdefinite ly
Ġfr i
Ġcoun sel
real ization
occ asion
great est
Ġsecure ly
Ġfill ing
Ġfill ed
Ġdef ence
Ġdef ici
Ġmeet s
Su ppose
Ġfan cies
Ġfail ed
Ġultimate ly
ator s
attain ed
Ġur ged
ĠIm possibility
Ġdet ected
Ġdet ailed
Ġwrit ings
Ġindu ce
Ġasc ent
Ġsent iment
Ġsent iments
Ġbene ficial
Ġsucceed ed
Ġmist akes
Ġmist aken
Ġpun ct
Ġperform s
Ġ200 1
Ġpay ments
Ġstreng then
Ġfit ness
consequ ence
oper ation
Ġestim ated
Ġestim ating
Ġmerit orious
Ġesca p
ref lection
supp ly
fortun e
Ġdev oted
Ġdisplay ed
Ġcomply ing
Ġpromot ion
Ġpromot ing
diffic ulty
Ġfulf illed
Ġprim arily
Ġhist orical
trans ition
Ġheav y
Ġaccord s
Ġderiv ation
Ġspecif ied
concept s
ĠNO T
Ġtal k
preced es
Ġweak ness
Ġsubsist s
Ġesteem ed
Ġimit ated
attrib ute
Ġobe ying
Ġwide ly
Ġhind er
Ġhind rance
Ġanticip ate
Ġfalla cies
Ġcontempl ation
Ġaccompl ish
Ġaccompl ished
gener ally
RI B
An alytic
With out
occup ied
statement s
Ġalter ation
Ġdeep ly
ĠObject s
Ġservice able
Ġimpart ial
ĠMetaphys ic
Ġobstac les
Ġgovern ment
¢Ä ¢Ä
author ity
uncondition al
uncondition ally
inquir y
inquir ies
Ġtend ency
Ġfict ions
Ġfict itious
Ġdim ensions
Ġdepr ive
Ġundert aking
Ġambig uity
Ġast on
Ġpra ise
au sible
AB ILITY
indis pensable
Ġwid est
Ġmund us
Ġrepe ated
Ġupright ness
Ġsuscept ible
Ġprincip al
ĠAl though
ĠAnt inomy
ĠMe thod
Ġexert ions
Be fore
Ġaf oresaid
aggreg ate
embr acing
ĠĠĠĠĠĠĠĠĠĠĠĠĠĠĠĠĠĠĠĠĠĠĠĠĠĠĠĠĠĠĠĠ ĠĠĠĠĠĠĠĠĠĠĠĠĠĠĠĠĠĠ
ĠWARRAN TY
Ġcomput er
mechan ism
rog ative
insepar ably
exper iences
ati ocin
Ġincomp etent
Ġexcell ent
Ġsophism s
ĠPRIN CIPLES
Ġantinom ies
Ġdenom in
Ġmulti plicity
ĠDIALEC TIC
Metaphys ic
infin ity
enevol ence
Ġfat al
Ã¦ deutic
Ġdece it
Ġirresist ible
METHODOL OGY
Ġpolem ic
ĠASC II
ĠPRA CTICAL
ĠCRITIQU E
P h
an alog
Äł ar
all ow
rem o
conf irm
I de
O S
T RIB
b ar
Ġa y
Ġo und
re vol
it iz
en joy
ib oly
Äł com
Äł mis
de l
de t
pir ic
ag on
Ġpos it
ĠE ND
av ag
app e
acc ord
cont est
occ ur
Pr inci
anthrop omorph
2 2
5 0
T RA
c reat
m ag
r own
t est
v ation
y our
y ield
Ġo t
re cogn
Äł he
Äł al
min is
du c
ke ep
gr at
ext end
subst ant
Ġstru ct
E m
F L
O SE
P RO
b ed
b ring
e ous
l ast
n is
r am
s pr
s let
Ġ rom
Ġ educ
in tr
at ir
Ġto l
Ġm al
Ġe ct
ou d
ib ilis
og ram
if ul
Äł B
ill a
am p
pr ud
art es
ac qu
to o
so on
cl ose
Ġend ed
ivers al
form ula
ile ge
Ġ1 3
Ġi p
TI VE
Ġce asing
bl ing
ird ly
TH ER
prof ess
alle l
prev ent
7 1
A PHY
E T
R espect
S IC
V IS
d ut
f ici
f und
f avour
l oad
n et
o e
o ose
p opular
t ent
Ġa ut
it us
it ory
it ted
is k
en cing
Ġs w
Ġp ol
ct ible
ent ity
Ġu d
os ing
ib us
ver sion
ĠI ND
og mat
res h
Äł se
Äł for
Äł ob
ul ous
ul sion
pp ing
de pendent
Ġr ic
ph iboly
Ġse ld
te llig
Ġar d
pre cept
mat ic
Ġpresent ation
ro ken
Ġsec urity
ma il
Ġple ases
RE CT
leg itimate
Ġ4 5
oin c
vol ition
hypothe tical
Ġprep ared
rupt ed
err or
? âĢĶ
A t
B oth
G eneral
N evertheless
S ome
S mall
S ee
_ âĢĶ
a cious
b ation
b etween
c r
c ertitude
d le
e es
e go
f il
f ield
f ounded
f uge
h ad
j oined
l ain
l able
l ittle
l ines
l timate
m aking
n g
r ies
s ort
u ent
u um
v an
v oid
v arying
w are
Ġa str
in ing
in ently
in sufficient
Ġthe ore
re ceptivity
is ive
en ough
en able
er ms
Ġw arn
Ġw icked
Ġc ed
Ġc ens
Ġc ertitude
Ġs l
Ġs aw
Ġs ave
Ġs alt
Ġp ubl
Ġp arent
al together
Ġin e
Ġin sp
Ġin cor
Ġb enevolence
Ġm ar
Ġm ass
Ġf elt
an illa
Ġe p
Ġis su
Ġre fin
Ġre ply
Ġre vel
Ġre ferences
Ġre lease
Ġre distrib
Ġre serve
Ġd as
Ġd atum
as ions
Ġas pect
Ġan xi
Ġl ow
Ġl ime
Ġl ays
Ġl ogicians
Ġl iability
Ġwe aken
Ġwe apons
ir able
Ġg ot
Ġwith draw
th ird
ĠI D
ĠI F
ĠI ndeed
ist ered
Ġor igination
per mitted
per manence
Äł acc
Äł des
ul ated
Ġpro hib
Ġpro long
con cre
ch anges
Ġde ad
act ually
act orily
am ples
Ġun ite
Ġun its
Ġun avoid
Ġun success
Ġun certainty
Ġun pleasant
Ġun attainable
de pendence
ans ition
tr iangle
Ġsp ecul
Ġr ig
Ġr are
Ġr atiocin
Ġunder take
Ġdetermin ability
Ġv ision
Ġv isible
Ġtr uly
pr iate
pr imitive
ĠB E
ĠB RE
Ġhe at
ad ing
Ġper pet
su asion
Ġreg ular
Ġreg istered
ant inomy
Ġse lect
Ġcogn itive
Ġst ake
Ġst age
Ġqu oad
Ġrel uct
present s
Ġcons ult
ĠA gain
ĠA mong
ac ities
Ġapp ell
Ġsubject ion
ĠP sych
Ġdis satisfaction
), âĢĿ
Ġpre par
Ġpre cise
Ġpre cision
Ġpre rogative
Ġle vel
te aches
Ġpart ial
Ġar ms
ĠS e
ĠS cience
pre cisely
ag ogic
ĠN either
Ġsub div
Ġsub division
ĠIn stead
ĠW olf
Ġgr oping
Ġcontr ol
Ġcontr adistinction
ĠC an
ĠC ogn
Ġcomm erci
Ġown s
fect s
ish ments
der ived
Ġfe et
Ġcategor ically
Ġval u
Ġyou ng
Ġfind ing
ĠR el
ĠR oyal
ĠE ach
ell ing
object ions
Ġpres cribing
Ġexp ense
Ġexp enses
reason s
Ġreal ities
Ġreal izing
av ed
av ity
phys ics
Ġsim pl
Ġsim ultaneous
ĠD etermin
ĠD onations
Ġsec uring
ang ing
Ġimp ression
Ġthrough out
Ġview ing
Ġorigin ates
there in
Ġinv ent
Ġhere after
Ġinf ring
ĠM on
ĠM ET
Ġap agogic
Ġstr ikes
Ġanaly se
ev idence
Ġcomp ares
und etermined
ĠL aw
Ġconce it
Ġconce de
Ġres pon
Ġdec iding
Ġdec isive
ten ance
ĠU SE
ĠU ltimate
Ġsupp lies
Ġnow here
Ġtot ally
Ġmathemat icians
Ġmathemat ician
Ġcl ue
rel atively
Ġsatisf ying
Ġsuccess ful
Ġdefin es
Ġarr ives
Ġestabl ishing
Ġder ives
Ġleg ality
Ġconsequ ent
Ġseem ing
Ġmod i
Ġmod ification
mis understanding
Ġconting ently
Ġfin ality
part y
part icip
Ġcorrespond ence
Ġdemonstr ating
Ġsignif y
Ġsoul s
Ġpost poned
gr anted
ĠSu bject
comple ted
Ġconduct s
Ġexplain s
Ġhop es
Ġmis conception
Ġmis understood
Ġprogress us
Ġgener ation
ĠĠĠĠĠĠĠĠĠĠĠĠĠĠĠĠĠĠĠĠĠĠĠĠĠĠĠĠĠĠĠĠĠĠĠĠĠĠĠĠ ĠĠ
Ġoblig e
Ġremark ed
Ġdepend ing
Ġfall en
Ġaffirm ations
disc ursive
Ġadd ress
Ġharmon ious
des ires
giv er
Ġfalse hood
happ y
Ġdemand ing
Ġdemand ed
Ġnegative ly
Ġjustif ication
Ġjud ges
Ġte aching
Ġthorough going
Ġpret ension
Ġabs ent
Ġcho oses
Ġpar adox
where as
Ġlead ing
Ġstrict ness
imp ressions
Ġtrans itory
Ġdistinguish able
Ġprof it
Ġrequis ites
Ġ3 5
Ġsupposition s
Ġhel ps
Ġdesign ation
Ġobserv able
comp ared
proper ties
Ġpursu ing
Ġoccup y
appear ances
Ġrestrict ing
Ġrestrict ive
ific es
Ġintrodu ces
Ġintrodu ced
produ ces
II I
Ġappro pri
Ġexact ness
Ġmanifest s
Ġche m
Ġlast ing
Ġlast ly
quant ities
Ġsoon er
Ġarbitr arily
constit utes
Ġfurn ishes
ip se
ren ce
Ġoff ender
Ġdisp ense
Ġfa cil
Ġaccept ing
Ġput ting
presu ppose
Ġsimilar ity
pic ion
satisf ied
interest ed
Ġta ut
demonstr ated
Ġdom inion
prov ided
Ġir rational
conce ivable
Ġdown load
Ġconflict s
ounce ment
discover able
Ġaccess ion
Ġfill s
Ġarrangement s
Ġlos ing
investig ations
Ġom nis
Pr actical
Ġprevent ed
claim s
Wh y
Ġdet ach
Ġhum bles
proceed s
proceed ing
Ġenlar ged
Ġdiscuss ing
Ġdiscuss ed
mot ives
theoretical ly
post ulates
Ġsent ence
Ġbene fic
Ġelev ation
Ġcontrib utions
Ġdiscern ed
indic ates
Ġperform ing
Ġantit hetic
attempt s
Ġearth s
Ġgl adly
Ġcap acities
Ġnecessit ation
Ġremo ving
Ġcr ime
Ġcr ude
legisl ative
Ġestim ation
feel ings
Ġprofess ed
Ġ6 0
assert ion
Ġincre ased
Ġexc ite
oblig ed
Ġpromot ive
proble ms
Ġsafe ly
pass ing
ĠEpic urean
ĠMor al
Ġspecif ication
Ġspecif ically
IR D
conv iction
Ġgrad ual
ĠNat ural
require ments
Ġprot ected
ĠDI VIS
Ġsac red
Ġaddu ce
Ġdeclar ing
Ġdeclar ation
Ġdeclar ations
Ġconfirm s
Ġmoder ation
Ġfruit less
Ġforbid den
Ġprejud ice
Ġprejud icial
Ġobvious ly
Ġdesc ending
Ġcur rent
Ġunceasing ly
Ġchimer a
ĠObject ive
comb ination
comb ined
method s
Ġpenetr ation
Ġpenetr ate
Ġrecomm end
arbitr ary
ĠSto ic
Ġnumer ous
Ġhyper physical
obtain ed
reciproc al
AN TITHESIS
Ġaccompan ies
Ġcent uries
Ġreve als
Ġdam ages
Ġdimin ish
Ġdimin ished
Ġdepart ment
Ġextreme ly
Ġexerc ises
Ġexerc ised
Ġteacher s
ĠVII I
affect ed
coun ter
demand ed
add ed
noumen a
noumen on
sophist ical
Ġwa ver
Ġcred it
Ġmut ually
Ġunb ounded
Ġarchety p
Ġarchety pe
Ġz ero
sem ble
ulg ence
Ġreconci led
Ġrevol ution
Ġbea uty
Ġprint ed
Ġrash ly
ĠPossib ility
Ġmach ine
Ġinfall ibly
Ġoverlook ed
Ġstrugg le
Ġomnipot ent
sus picion
emonstr able
AC H
ORE M
don ate
Ġannex ed
Ġ19 9
Ġsolic it
St ates
harmon y
ym ous
haust ed
convin ced
discus sion
Ġbind ing
Ġunfortun ately
Ġchild ren
ĠMORAL S
becom es
Ġax is
Ġcat alog
Ġburd en
Ġdispens ed
Ġsubter fuge
Ġcontrover sy
Ġacquaint ance
APHY SIC
dut ies
Ġseld om
tellig ence
Ġsalt us
concre to
Ġunavoid ably
Ġunsuccess ful
ĠBRE ACH
ĠMET APHYSIC
ĠDIVIS ION
H T
N AL
Ġ ll
Ġo un
ou ch
Ġis e
Ġit ion
ĠI M
Äł the
hen s
art ic
ĠH A
av ail
requ is
B L
P END
b an
c oinc
d ict
f l
n umer
p at
p un
t a
u b
u c
at hemat
Ġw ard
Ġp ot
an qu
Ġan c
Ġl ar
og istic
Äł R
Äł comp
Äł conf
il ed
pl ain
Ġv ed
all en
pon der
int ention
iz able
Ġact ed
over t
know led
Ġstand ing
do ctr
Ġmis s
Äłd ec
circ um
N I
U M
a uthoriz
b ene
c ultiv
f r
f al
r ation
s k
s ent
re conci
Ġp et
ind u
Ġexperience d
for ce
ict ions
str um
med i
dist inct
IN D
exer c
signif ic
Ph ilos
1 3
1 7
1 8
A l
C a
E G
G HT
I TION
M athemat
N ITY
S y
b st
b our
b ered
d ivers
e al
f ill
l est
m em
m ast
n gl
t ow
t ered
t empt
u ating
w rit
x ious
Ġ ig
Ġ ute
Ġ ied
Ġ ible
on es
it im
is y
or ic
Ġf lu
ed istrib
st reng
ll ogistic
ib r
ur is
and er
per form
Äł as
Äł qu
Äł we
ch ief
ab andon
Ġso ci
pr iv
ind ifferent
Ġsh ip
for t
Ġend ing
und ity
ĠU ND
Ġattain able
mis s
ps es
ob sc
happ en
imp ul
conf lict
Ġ4 0
my st
xiom s
Ġol ogy
compar ison
SI TION
Ġconven ience
UD ING
Ide al
TRIB UT
A D
A gain
B S
H app
N T
N OM
O F
O BS
V I
V ATIONS
a ordin
b et
d anger
e y
f ut
f unction
f ixed
h orizon
i pt
i ant
l ie
l ated
p el
p arent
r ain
r un
s mell
w it
Ġ ics
Ġ ically
he tical
Ġa ught
in fer
is s
Ġc rib
Ġc ivil
Ġp air
Ġb es
Ġth rown
Ġm er
Ġm oun
ce ly
se tt
Ġit ies
Ġd rop
iv er
im b
Äł In
Ġr ob
Ġsen sual
ĠB OOK
ad es
ad ow
ori al
pir it
ant om
ĠF UND
our th
Ġad vers
Ġar tic
Ġcont est
ra de
TI NOM
Äłs ur
row d
Ġra ising
crit ic
manif est
Ġsa f
Ġappe ared
Ġimit ation
hab it
CEP TION
tow ard
' t
) (
) :
- -
. âĢĶ
2 80
4 0
A ct
A uthor
B esides
B ILITY
C ritique
F oundation
F inally
H ume
I V
I s
N ecessity
P lain
T ime
V EN
Y TIC
a gement
a ught
b ra
b usiness
e thics
f old
f its
g ue
h oly
i atus
l p
l ication
l icense
l ier
l osing
m utable
p one
p ite
p ared
p dated
r s
s ation
s ciousness
s cribe
t akes
t aken
v ention
Ġ ight
Ġt one
Ġt emper
he ld
he lp
on ce
on ical
in ner
in capable
in ferences
in consistent
in comprehensible
Ġo d
Ġo mitted
it ute
it hetic
is ition
at eness
er al
er ably
Ġw ings
Ġw oe
Ġc ut
Ġc ard
Ġc tion
Ġc ustom
Ġc ulture
Ġs al
Ġs an
Ġs em
Ġs ine
Ġs edu
Ġs mo
Ġs oft
Ġs aved
Ġp ays
Ġp age
Ġp ages
Ġp ortions
Ġp iece
al ogy
al most
ic a
Ġin cap
Ġin sufficiency
Ġin hering
Ġin contest
Ġb all
Ġb ooks
Ġb aseless
or ne
Ġm il
Ġm ixture
Ġm oments
Ġf ed
Ġf ire
Ġf lat
an while
an uary
Ġe con
Ġe red
Ġe lucid
Ġre ver
Ġre ception
Ġre vere
Ġre straint
Ġre solution
Ġre verse
Ġit ed
Ġd i
Ġd read
Ġd well
Ġd uring
Ġd oubted
Ġbe g
ent itled
ot ion
ar um
ar les
ar ched
ar cely
as us
ut iful
Ġh it
Ġh ollow
iv en
Ġl ive
Ġl of
Ġl ives
Ġl ooks
Ġl ively
Ġl oose
Ġl imb
Ġnot e
ĠĠĠĠ Ġ
Ġwe alth
cept ive
ter ior
ter ms
Ġwith drawn
ur istic
ci ences
ver ted
qu ality
ec ided
per ity
Äł str
Äł int
Äł gr
ul ating
ĠT HAT
ĠT erms
ch anged
il t
il ty
Ġde ed
Ġde ceive
Ġal ge
Ġal ike
Ġint end
ple teness
act ed
us ality
us ual
Ġha st
Ġha bits
ill usions
ill iant
am ents
Ġun law
Ġun ites
Ġun iting
Ġun conscious
Ġun inter
Ġun answ
Ġun anim
Ġun observed
Ġun mixed
Ġun varying
um mum
um bling
Ġ( _
Ġthere on
Ġlaw giver
Ġsp are
Ġcom pos
Ġcom ponent
not withstanding
of ten
Ġr ises
Ġr ising
Ġr isk
est ors
Ġme l
Ġunder min
stand s
Ġtr oub
ĠB el
ĠB UT
Ġim pract
Ġhe uristic
ad s
Ġper sist
pos ited
Ġreg ulate
Ġsh adow
ĠF UL
ĠF inally
Ġst ability
Ġst opp
Ġqu it
Ġqu id
ord ination
Ġcons ent
ĠA ct
ac le
un ited
Ġapp et
ca ution
Ġad here
ĠP G
ĠP ers
ĠP ost
Ġy e
Ġdis regard
str ained
Ġle ap
te aching
ĠTh ought
Ġch aract
Ġpart e
Ġpart iality
Ġar gu
ĠĠĠĠĠĠĠĠĠĠĠĠĠĠĠĠ ĠĠĠĠĠĠĠĠĠĠĠĠĠĠĠĠĠĠĠĠĠĠĠ
ĠS c
ĠS en
ĠS ee
el ve
pre ted
pre cede
op yright
ppos ites
ĠO p
Ġsub mitted
Ġsub rept
possib ly
Ġser ious
Ġser ving
Ġdif fers
Ġdif fered
ĠIn ternal
Ġpl ane
Ġpl ausible
ort s
Ġnothing ness
ĠG os
reat or
Ġgr ate
Ġgr oss
com ing
ĠC a
ĠC ertain
ĠC osm
ĠC ritical
Ġow ing
pro ving
Ġdes cribed
Ġdes irable
Ġemploy ees
Ġfirst ly
Ġrem ed
Ġbelong ed
Ġen abl
Ġag o
over ty
ĠR espect
ĠR edistrib
ĠE ngl
ĠE VEN
ha ving
Ġout set
Ġpossess ions
ear ance
Ġam id
Ġam phiboly
Ġappl icability
oun cing
Ġmat ured
Ġatt aching
ĠD O
ĠD ate
ĠD uty
ĠD ifference
ĠD ogmat
ass ume
ang les
Ġimp elled
there to
Ġinv iol
Ġhere by
dis posed
dis pute
Ġintellig ibilis
Ġlike ly
app oint
Ġhand s
Ġrest ing
Ġref uted
Ġref utation
Ġdiv isions
ev ent
Ġproof read
Ġcomp el
Ġcontradict orily
contr adistinction
ĠL IC
ĠL ocke
Ġassum ptions
ER VATIONS
Ġconcl udes
Ġtruth s
Ġ1 00
Ġconsist ing
Ġcontent ed
In telligence
represent ed
Ġconf ound
Ġconf irmed
Ġconf ounded
Ġmathemat ically
Ġdiscover s
Ġmot ions
Ġaff air
sub ordinated
Ġconcept us
Ġi o
rel ates
lement s
Ġsatisf actorily
Ġind ul
Ġind ivid
Ġind emonstrable
Ġstand point
EN SE
Ġarr ogant
Ġleg ally
Ġimag in
Ġimag es
Ġneed ed
Ġneed less
Ġgu ess
Ġgu ides
Ġgu ided
Ġgu iding
ĠĠĠĠĠĠĠĠĠĠĠĠĠĠĠĠĠĠĠĠĠĠĠĠ Ġ
ĠĠĠĠĠĠĠĠĠĠĠĠĠĠĠĠĠĠĠĠĠĠĠĠ ĠĠĠĠĠĠ
Ġant iqu
Ġes se
Ġsc arcely
Ġneg ativum
part ly
subject ed
Ġinvestig ated
Ġinvestig ating
Ġassert s
Ġassert or
Ġassert ing
Ġassert orical
ov al
ĠTH IRD
TER NAL
mor ally
Ġattrib uting
Ġco al
ĠSu ppose
comple tion
Ġher o
Ġprev ents
Ġdistinction s
Ġmis led
Ġmis conceptions
Ġpass ages
Ġdeduction s
Ġmaterial ism
Ġaffect ion
Ġvari ance
Ġfall ing
Ġce pt
Ġce ases
ĠTHE OREM
Ġfal s
ont ological
Ġadd ing
Ġagre ed
Ġcirc ular
Ġspe cious
Ġund en
ĠY et
every one
Ġintel lect
Ġbr ain
Ġbr anc
Ġbr illiant
moral s
Ġvol unt
Ġadvantage ous
pres cribes
inde finitum
Ġpar allel
where by
Ġauthor s
comm unity
Ġcontinu es
Ġcontinu um
Ġcompar atively
Ġante cede
ĠUn less
ĠUn iversal
bel ieve
just ify
Ġtrans fer
Ġtrans formed
ĠEx cept
Ġins cr
Ġprof its
Ġexcl usion
Ġcomb ine
Ġdogmatical ly
ru ption
Ġdesign s
Ġevil s
Ġtranscendent ally
Ġcompre hension
IN TRODUCTION
Ġ5 68
igh bour
Ġbl amed
Ġbl iss
Ġsur vey
ĠAr gum
Ġrestrict s
ific ent
Ġappro priate
ĠV anilla
conf ess
employ ing
Ġear lier
ĠJ anuary
TH ING
div isibility
contain ing
Ġsepar ation
Ġtest s
Ġcare ful
Ġdeser t
Ġconcre te
ins ically
possess ion
Ġhypothetical ly
Ġacqu isition
Ġput s
fac ulties
Ġadopt ing
think s
Ġprop Ã¦deutic
analy se
conform able
conform ably
Ġreach ing
Ġhappen ing
Ġdestroy ed
kind s
demonstr ative
Ġconver t
Ġconver sion
Ġsubtle ty
jud ge
sens ations
prov ince
character istic
character istics
Ġcol lected
Ġannihil ates
Ġlay ing
ĠAN TINOM
content ment
enetr able
Ġimpl anted
light ened
Ġindis pensably
Ġdef ault
Ġadm ire
Su pposing
Ġfan ci
Ġmaj esty
Ġplain ly
subsist ing
contin ue
contin uous
Ġopen ed
Ġplan ets
Ġassign s
Ġabsurd ity
particular ly
Ġang le
Ġindu ction
Ġindu ced
Ġrece ipt
Ġborrow ing
Ġelev ating
Ġsucceed ing
Ġdiscern ment
Ġmist ake
Ġperform ed
Ġapparent ly
On ly
after wards
Ġnecessit ate
Ġsubsum e
Ġremo ves
Ġfit ted
Ġfit ting
Ġcr y
Ġproportion ed
Ġaggreg ation
Ġreflect ing
proof s
Ġpopular ity
Ġrep ay
Ġsign al
Ġren unciation
Ġreturn s
Ġanimal s
Ġexc used
Ġenter ing
pret ation
Ġcal m
Ġpros perity
Ġextr avag
Ġextr aordin
Ġpersu aded
Ġpersu ade
ĠCh arles
ĠEm pty
Ġschemat ism
defin ed
influence d
Ġtw elve
Ġwond ered
Ġbu ilt
Ġsuggest ed
ĠMor als
Ġhonest y
Ġhonest ly
scept icism
Ġord ains
Ġord inary
Ġdoctr inal
Ġsubsist ing
Ġsubsist ence
Ġsecret ly
Ġillustr ation
Ġillustr ate
Ġconfess ion
dedu ce
common est
Ġprot ect
Ġcompl aint
ĠInt erest
ĠWh o
ĠWh atever
Ġanticip ation
Ġpathological ly
Ġcontempl ated
restrict ion
restrict ed
suffici ently
Ġpat tern
anthrop ology
Ġabandon s
ĠCON FL
Ġcommun icated
Ġsupply ing
Ġperiod s
Ġperiod ic
AM ENTAL
assum ed
assum ption
maintain ed
abs ence
Ġdict ate
Ġdict ates
Ġchimer as
Ġchimer ical
ĠMetaphys ical
command ed
intu ite
clear ness
Ġmon th
co existence
Ġcle arer
Ġresol ve
Ġresol ved
Ġrecomm ended
Ġdr y
Ġhard ly
Ġundert aken
Ġformat s
Ġdisclaim er
Ġdisclaim ers
Ġarchitect onical
Ġgrant ing
Ġambig uous
Ġnumer ical
ĠIdeal ism
Ġcalcul ate
Ġcalcul ated
Ġfulfil ment
Ġhyper text
anim ous
anticip ation
reciproc ally
Ġpropri etary
Ġreve al
Ġpra ised
ĠTr ansition
Ġembr aces
ĠCom pleteness
Ġparalogism s
Ġdestru ctive
Ġmagn ificent
Ġmagn animous
Ġwarning s
cop yright
vari ous
small est
word s
Ġanthrop ology
Ġanthrop omorph
CL UDING
Ġcred ential
Ġinhere nt
Ġinstit ute
Ġinstit uted
Ġthreat en
Ġmut ual
Ġfoot ing
Ġsuscept ibility
Ġunb roken
Ġhear ing
ĠApp lication
ĠApp earance
Ġimperfect ion
ĠProble m
ĠProble ms
Ġobstin ate
Ġobstin ately
Ġhypostat izing
syllogism s
Ġselfish ness
circ le
Ġmid dle
Ġbea utiful
Ġroyal ty
Ġroyal ties
Ġvis it
Ġshar p
ĠPossib le
Ġgrow th
Ġenumer ation
Ġinfall ible
Ġcompens ate
Ġguarante ed
Ġomnipot ence
ĠST ART
Ġpo ison
Ġcour age
Ġlur ks
Ġsuit ably
Ġunf air
Ġvac ant
Ġinvalid ity
Ġelabor ation
Ġcoinc ide
Ġharm less
Ġconjoin ing
Ġcombat ants
ĠANAL YTIC
ĠMathemat ical
ĠMathemat ics
inev itable
ocr isy
Ġhes itate
annihil ated
Ġfair ly
Ġlab orious
Ġparticip ation
ĠDIS TRIBUT
Ġimped iments
ĠConcl usions
Ġdeliber ate
specif ication
Ġindubit able
Ġridic ulous
heter onomy
assign ed
accur ate
accompan ied
Ar chive
spont aneity
Ġost ensive
Not hing
reckon ed
spe aking
Produ ced
declar ing
effort s
refer red
Ġfil es
Ġrestr ain
Ġbon i
Ġprag matical
Ġexagger ated
ĠIll usory
Ġvict ory
Ġvag ue
Ġsynon ymous
Ġste pping
ĠAGRE E
Ġmast er
ĠIntrodu ctory
ĠGr ound
ignor ance
Ġsurpr ising
Ġfigur ative
Ġaston ishment
Ġdenomin ate
Ġdeceit ful
appe ared
Princi ple
duc ive
Ġstruct ure
Em pirical
spr ing
slet ter
intr insic
atir ae
prud ence
Ġissu e
Ġanxi ety
ĠID EAS
Ġprohib ition
Ġappell ation
ĠPsych ology
ĠRel ation
ĠRoyal ty
ĠMon ad
Ġomnis cient
Ġcatalog ue
ĠHA VE
Ġanc estors
ĠUND ER
Happ iness
OBS ERVATIONS
bet ter
fut ure
ĠFUND AMENTAL
Ġsaf ety
Ġfed eral
Ġrevere nce
Ġalge bra
Ġunlaw ful
Ġcompos itum
ĠBel ief
ĠFUL L
Ġcharact ers
Ġenabl ing
ĠDogmat ism
ĠLIC ENSE
Ġbranc hes
Ġinscr utable
ĠANTINOM Y
Ġextraordin ary
ĠCONFL ICT
c ur
e g
Ġt y
Ġa u
Ġo re
Ġo se
Ġc i
Ġl at
Äł j
Äł ent
em barrass
Ġag es
ĠU T
ignif ic
Äłin v
cre t
Con cl
trans gress
5 68
O P
x t
Ġ ize
on om
Ġo c
Ġp on
es is
Ġb ar
Ġis ts
Äł el
Äł rel
of ess
ca st
Ġter n
princi p
Äłc o
arch itect
2 0
6 22
C h
C ont
b re
c arr
f ail
h o
l ab
u ously
Ġ ives
he t
Ġa k
Ġb le
Ġf ere
an n
Ġit e
as c
the tic
im pl
Ġor t
Ġor y
Äł pl
Äł over
Äł ext
Äł pres
Äł comm
Äł appro
em in
ch imer
end i
hen tic
ill ustr
de pr
Ġv ing
pr ot
pr os
su ggest
un gl
Ġle ar
pro hib
Ġent s
sen sual
Ġi a
oc al
haps od
Äłin f
att ack
Äłre f
velop ed
5 5
7 5
A IM
D ENTAL
D ED
E pic
I X
I VE
L E
M or
S to
U RE
a z
c al
c ert
d est
e as
e lev
f a
f am
h um
k al
l o
m er
n ic
o h
p enetr
s id
t ouch
v i
w is
w art
w arrant
Ġ #
Ġ $
Ġ ently
Ġ ial
Ġ ice
Ġ ized
in o
in struct
en umer
Ġc es
Ġp t
Ġth row
Ġe c
ll ous
iv ae
os ity
Ġan ces
Ġl and
ith met
id er
th y
th reat
Äł res
Äł am
Äł app
Äł und
Ġpro c
con ject
con fin
con ven
il ia
Ġal tered
hen sibility
Ġcom ing
est ic
pr im
ome ter
sp ecul
be ll
ser vice
pro pri
Ġinterest ed
contr overt
ER AL
Ġ1 6
cont empt
ilar ly
produ ct
iber um
oper nic
PL EAS
Ġ8 0
see k
SI BILITY
anc endent
inev it
sch ol
hens ions
PEND IX
ban ks
circum st
622 15
1 0
1 9
4 5
A mong
F irst
F ourth
G ENCE
N ES
P OSE
S S
W ARRAN
W olf
c ustom
d den
e w
f ast
f irm
f ault
g ust
h ort
h igh
h ip
j oin
m other
n ify
p us
s ure
s ipp
t es
Ġ '
Ġ +
Ġ ire
Ġ ious
he it
Ġa dequ
Ġthe r
re w
at ch
at tr
er ke
Ġw arrant
Ġc ame
al ter
Ġin ation
es tr
Ġb ow
Ġf und
an ch
an imal
ot yp
ar alogism
as m
as certain
Ġu e
Ġu al
im id
im age
ur bed
ĠI X
sib ilities
Äł U
Äł under
con stant
ab ilis
ies t
tr ace
of f
ous and
ad em
ad apt
Ġsy llogistic
Ġk s
ph old
ac ent
ment al
te en
sp read
sis sipp
pre fer
ag ing
me ant
ĠC HA
we ight
Ġhapp ily
less ed
ĠE D
uten ess
Ġcor rupt
und oubted
contr ib
ER CHA
Ġres ist
stru ctive
EN TI
arr angement
AL ITY
ob vious
gr ant
Ġ2 2
ia e
inde finite
comm erci
bel ie
ask a
ium ph
inv ent
Ġagree able
Ġagree ableness
Ġposition s
ĠÃ ¢Ä¢Ä
super fluous
consequ entia
jun ct
equ al
SE QU
ili ary
Ġid le
CT RIN
col our
Ġinstruct ed
CL AIM
rept itious
guard ed
fal se
ERCHA NT
! )
" .
* ]
. :
. ;
1 1
1 78
3 9
5 7
7 9
A fter
B ooks
E Book
F urther
F IRST
F ORE
I ED
I RECT
L iterary
L icense
L anguage
L IMITED
M ost
M oreover
P PENDIX
R ight
R ational
R emark
R ICT
R POSE
T itle
V ery
a ple
a part
a ired
a cies
b ly
c hes
c ulture
c artes
d ash
d ignity
e ase
e Book
e Books
f ailed
i ological
i pses
i osity
l and
m as
m ise
m ber
m dash
o ke
o pposed
p ire
p utation
r or
r ought
r ied
s akes
t aking
t xt
u ation
u ated
v ity
v ive
v ain
v erest
w ishes
x iliary
y le
z ip
Ġ x
Ġ ution
Ġt ing
Ġt ant
Ġt ear
Ġt empt
Ġa ce
in y
in ference
in formation
in struction
in eness
Ġo pposing
Ġo pposites
Ġthe olog
re ndered
re cognized
re verse
re productive
it atis
it eness
Ġof fered
at on
at ible
at ically
at ae
er ion
er ce
er vice
Ġw ont
Ġw ander
Ġc and
Ġc old
Ġc urs
Ġc ush
Ġc itiz
Ġs is
Ġs ag
Ġs ending
Ġs orrow
Ġs mell
Ġp overty
al ong
al ogical
ic ited
Ġin compre
Ġin correct
Ġin justice
Ġin discern
Ġin secure
Ġin strum
Ġin accurate
Ġin controvert
es thetic
Ġb ro
Ġb inary
Ġb orne
Ġth ir
Ġth read
Ġth wart
or ous
Ġm ing
Ġm ove
Ġm ock
Ġm illion
ce ase
ce mber
ing ers
Ġf am
Ġf ant
Ġf aint
Ġf avoured
Ġf resh
Ġf ingers
an alogy
ed ifice
ed ient
ed itions
Ġn om
Ġn ought
Ġn ames
Ġn aught
Ġe re
Ġe cl
Ġe leg
Ġe arn
Ġe po
ou th
Ġis ed
Ġis tic
le y
le ology
le ave
Ġre t
Ġre cognition
Ġre press
Ġre aches
Ġre mind
Ġre search
Ġre semble
Ġd ouble
Ġbe ha
st ition
st hetical
om ni
om aton
ent ions
Ġwh it
ot es
ut or
ut um
ut ious
Ġh our
Ġh int
Ġh iatus
Ġpr ince
Ġas ks
Ġas cribing
Ġu st
the w
the ory
the ologia
iv ocal
im ony
im ilarly
Ġex hausted
Ġl iqu
Ġl angu
Ġl ament
Ġl ikes
Ġl iking
Ġwe ar
Ġfor get
id ge
id ently
Ġsu ppos
Ġsu its
Ġsu dden
ir us
Ġg ene
ur ance
qu id
ive red
res istance
ist urbed
Äł ev
Äł Con
em arks
em bered
em nify
Ġpro ject
Ġreason ers
ĠT RAN
Ġobject ed
con nexion
ve llous
ch oice
end eavoured
il iar
Ġde ar
Ġde ist
Ġde posit
Ġde ceptive
Ġal kal
Ġint entions
ple ases
act s
act ly
ther wise
us io
ill usory
aw are
am ing
am ount
pl an
Ġun sol
Ġun question
Ġun connected
Ġun important
Ġun satisfactory
âĢĶ (
ol unteers
ig hed
ig ious
ĠĠĠĠĠĠĠĠ ĠĠ
Ġthere upon
Ġlaw less
tr ies
tr icable
Ġsp ent
Ġsp heres
Ġsp run
Ġcom fort
Ġr ap
est ed
Ġpossib ilities
Ġem piric
Ġem bell
Ġso ar
ide ality
Ġv ulg
Ġv icious
Ġv ocation
Ġv irus
Ġtr ave
Ġtr aining
Ġtr ades
Ġtr iumph
Ġwill ed
od es
od ality
ĠThe ology
ĠThe oretical
ĠB ec
ĠB onum
ĠB etween
Ġim posing
Ġim medi
Ġim mutable
Ġhe arer
Ġab ut
Ġab ode
ound s
Ġper taining
all owed
Ġno vel
Ġno body
su pposes
Ġreg ulating
Ġus age
ant ity
Ġif ication
ph aenomenon
Ġsh alt
ĠF ac
ĠF RO
ĠF IT
ĠF OU
Ġse arched
Ġcogn izes
Ġst ay
Ġst aff
Ġst ream
Ġst umbling
Ġst yle
Ġqu ick
Ġrel igious
present ing
wh y
wh om
now here
Ġcons cience
ĠA L
ĠA d
ĠA utonomy
ĠA ug
ĠA xioms
ĠA esthetic
ac cept
Ġj uris
Ġacc us
un ion
un attainable
Ġapp end
for ces
ĠFor m
ĠP re
ĠP ref
ĠP ART
ĠP aralogism
Ġdis k
Ġdis s
Ġdis par
Ġdis posed
Ġdis pleasure
Ġdis sect
Ġdis section
Ġdis interested
Ġdis appoint
Ġdis gust
et c
et ic
et ition
et ies
et ext
te leological
ĠTh ose
ĠTh rough
Ġch arm
Ġch allen
Ġpart ially
Ġar gue
Ġsome one
Ġmoral ists
ĠĠĠĠĠĠĠĠĠĠĠĠĠĠĠĠ ĠĠĠĠĠĠĠĠĠĠĠĠĠĠĠĠĠĠĠ
tern ational
ĠS h
ĠS oul
ĠS UC
ĠS pecial
ĠS econdly
ĠS ummum
ĠS atirae
ĠS ervice
ĠS outh
Ġph antom
el ess
sol ve
ens ed
Ġwho ever
op inions
ĠN ecessity
ĠN EG
ĠO THER
int ensive
int ended
Ġsub mission
Ġsub species
Ġsub ordination
Ġthan k
imit ation
Ġfre ed
Ġne arest
Ġne ighbour
ĠIn te
ĠIn finite
ĠIn asmuch
Ġpl ans
Ġcaus a
ort ed
Ġcont ents
ĠG re
ĠG IVE
reat ing
ĠW is
ĠW est
ĠW hence
ĠW HAT
Ġgr own
Ġgr avity
The y
com es
ĠC l
ĠC ause
ĠC opyright
ĠC reator
ĠC opernic
form ulae
Ġpos iting
Ġob l
pro jected
Ġfound s
Ġcomm itted
Ġrem oval
Ġdisc ret
Ġsystem atically
ĠH ist
ĠH ypothe
Ġact uality
we apons
Ġext inct
Ġen v
Ġen ig
Ġen ounced
Ġen close
Ġen joined
Ġag ents
stit ution
ĠR emark
ĠR emarks
ĠE v
ĠE IN
ĠE Book
ĠE thics
ĠE lements
Ġeffect ing
Ġeffect ive
Ġter t
Ġthink able
Ġout line
Ġout lines
Ġsensib ilis
reason ing
ear ly
Ġass ures
Ġass uring
Ġass urance
Ġent ers
Ġent ium
Ġent rust
phys iology
ĠD r
Ġgreat ness
Ġbas ing
Ġfact a
Ġfact o
Ġfact s
Ġsec ures
ang led
Ġincl ined
rib e
Ġimp ot
Ġimp utation
Ġimp enetrability
Ġshall ow
Ġorigin ator
Th ou
Th ose
Th irdly
Ġcor rection
Ġcor ruption
Ġinv ention
dis cipline
Ġinf lex
Ġexpl ore
Ġpower less
Ġintellig ibility
experience d
ĠRe ality
ĠRe place
ĠRe presentation
ĠRe fund
ĠM ay
ĠM any
ĠM otion
ĠM ERCHANT
Ġap per
Ġwhere fore
Ġcharacter ized
Ġcharacter izes
ra id
ra ise
ra ising
Ġrest ed
Ġanaly st
Ġref uses
Ġsum mon
Ġcomp ounded
Ġadv ice
ĠL at
Ġconce ives
Ġconcl usive
Ġres ides
Ġ1 7
Ġ1 8
Ġsince re
Ġdec re
Ġmet al
ĠU nder
ĠU pon
Ġill um
lear ned
Ġsupp lement
Ġconsist ently
In formation
In stead
In ternational
Ġaim ed
represent s
represent ing
sub tle
sub stratum
Ġ[ *]
rel ated
rel igion
ĠOn e
ĠOn t
ĠCon sciousness
red it
Ġdeg r
nat urally
nat ura
Ġind ulgence
Ġind estr
Ġind emnify
Ġple a
Ġple asing
Ġsuccess fully
Ġdefin ing
Ġworth lessness
EN ERAL
TI CE
Ġarr anging
Ġup wards
Ġac uteness
Ġel imin
Ġocc asions
Ġobser ver
Ġobser ves
Ġobser vers
mon ition
Ġleg itim
Ġconsequ entia
Ġneed ful
Ġmod us
Ġmod ified
Ġmod esty
Ġresult ed
Ġgu ilty
ĠĠĠĠĠĠĠĠĠĠĠĠĠĠĠĠĠĠĠĠĠĠĠĠ ĠĠĠĠ
Ġsc att
Ġcop ied
Ġcop ula
Ġneg ations
subject s
arr ive
Ġnew sletter
Ġmain tenance
Ġread ing
Ġbod ily
Ġmethod ology
Ġeas ier
ov ember
ob edience
Ġover come
Ġdog mas
synthe tic
Ġnon sense
Ġdemonstr ates
Ġanswer ing
Ġco herence
Ġpost erity
Ġpost pone
Ġexcept ed
Ġmem ory
Ġcontin ual
Ġinqu ires
Ġident ify
Ġprov ision
Ġprov ides
Ġprov isions
Ġinst ant
Ġexpect s
Ġhop ing
Ġhop ed
Ġhop eless
Ġmis lead
Ġmis erable
Ġden ote
Ġappre ciation
ext ended
Ġaffect ing
Ġaffect ions
Ġprogress ing
Ġgener ality
Ġgener ations
Ġoblig es
Ġremark ably
oc ent
Ġvari able
Ġsuper stition
Ġce aseless
sim ony
Ġaid s
dif ferences
bl ance
Ġdraw s
Ġaffirm s
connect s
Ġharmon izes
some times
Ġyour selves
Ġund isturbed
ĠY es
Ġbr ief
Ġvol ume
Ġjud icial
Ġfut ility
Äłin ter
Ġdistinct ive
Ġoper ate
Ġintr insically
ĠAn y
Ġcorrect ive
pres ence
limit ations
Ġpret ence
Ġlie u
Ġabs or
leg al
Ġintu ites
Ġlead en
Ġcontinu ance
intellig ent
intellig ibility
Ġdynam ically
ĠUn iverse
imp ression
just ification
Ġsupport s
Ġsupport ing
Ġexhib ition
Ġtrans fers
ordin ate
ĠEx t
Ġins ignific
Ġrecogn ises
Ġrecogn ised
Ġcomb ines
Ġdesign ated
Ġabstract ing
comp are
Ġke pt
Ġdon ation
Ġdon ors
Ġsur r
Ġsur pass
Ġsur render
Ġsur veyed
Ġsur reptitious
Ġsur vive
Ġoccup ying
Äłf r
Ġdel ight
Ġappro ve
Ġrefer ring
conf usion
conf irmed
Ġcircum ference
cre ated
Ġear lies
consider ing
consider able
quant itas
Ġorgan ism
Ġsignific ations
place d
pe ople
ĠJ uly
distingu ishing
div ided
Ġfurn ishing
ĠK IND
ĠK ey
ĠRE AD
Ġsepar ately
Ġtest ed
Ġtest imony
worth iness
Ġdisp uting
Ġdisp utation
Ġcarr ies
Ġcarr ied
Ġcarr ying
Ġaccept s
Ġaccept ation
Ġspeak s
val ue
Ġcre ate
Ġcre ations
Ġgain s
Ġgain ing
Ġsimilar ly
Ġcosm ology
ĠSt ate
ĠSt aple
origin ally
origin ates
conform ability
demonstr ate
Ġinter fere
Ġinter mediate
Ġinter vention
Ġinter preted
Ġwise ly
Ġconver sation
jud ged
prov iding
Ġart s
real itas
Ġcol lective
ĠAN TITHESIS
conce aled
expl ained
Re lease
mort al
ante cede
Ġtransc ending
Ġtransc ription
Ġtransc ribe
Ġheter ogeneity
Ġ9 5
Ġ9 9
great ness
discover ing
crit erion
Ġindis p
Ġreciproc ity
Ġpriv ativum
Ġpriv ilege
Ġequal s
Ġcomprehend ing
contin ually
den ial
Ġfail ing
Ġsophist ries
Ġanalog on
air banks
Ġback wards
ĠIm per
Ġdet ect
Ġdet ail
Ġpract icability
Ġhum ility
Ġhum ble
Ġindu ces
Ġprocess ing
Ġvent ures
Ġvent ured
ED IES
Ġturn s
post ed
post ulate
Ġelev ates
Ġweight y
Ġstud ies
Ġcontrib uting
Ġdiscern ing
Ġantecedent ia
look ed
nex us
Ġmist rust
neg ation
conting ency
Ġpun ished
Ġpun ishments
indic ating
Ġdest ined
Ġdest itute
Ġpreser ved
ĠDe fect
ĠDe pendence
ĠDe cember
Ġ200 0
Ġ200 4
attempt ed
Ġgl ance
Ġgl ass
Ġgl orious
Ġcap ability
Ġintention ally
Ġqual ification
Ġmark et
Ġnecessit ates
ST ART
express es
express ed
express ions
oper ations
Ġcr own
legisl ating
Ġproportion ate
ĠPU NI
ĠPU RPOSE
Ġprofess ion
Ġprofess es
por ated
step s
Ġ6 4
Ġguard s
Ġguard ing
Ġincre asing
Ġexc ites
Ġshort est
ĠÃ¦ sthetical
bid den
equ ality
Ġbold ly
Ġpros yllogism
Ġextr icate
Ġdev i
Ġdev ote
ĠCh ange
ĠDo es
Ġstrong er
Ġoccur red
Ġoccur rence
Ġblind ly
Ġgenu ineness
PL IED
conci lable
concern s
concern ing
Ġprim acy
observ ations
pass ages
Ġtax es
inter mediate
appro ach
appro bation
EM NITY
addition al
signif ies
Ġord ered
find s
ĠNO TICE
Ġlist en
ĠĠĠĠĠĠĠĠĠĠĠĠ ĠĠ
Ġhead s
ĠEvery thing
Ġillustr ating
Ġconfess ed
Ex perience
dedu ctible
attrib utes
attrib uted
Ġ15 00
Ġprot otyp
imper atives
fall s
fall acies
Ġmeasure d
Ġmeasure ment
Ġchapt ers
ĠWh y
Ġsubstant ia
ĠDis c
Ġanticip ations
Ġroot s
Ġcontempl ates
direct ly
sing le
restrict ing
import ance
doubt ful
ĠIN TRODUCTION
ĠIN CLUDING
transcendent ally
PRE SS
dec ided
Ġtre asure
Ġreject ing
Ġreject ed
Ġhyp ocrisy
Ġattr act
Ġevid ences
ĠPhenomen al
Ġprejud ices
ĠCON TRA
ĠCON CEPTION
ĠCON SEQU
Ġdesc ent
Ġdesc end
Ġdesc ription
Ġcommence d
Ġcommun ication
ĠREM EDIES
Ġadmir able
affirm ative
pleasant ness
assum ing
occup y
bod ies
Ġcultiv ate
concl usion
concl usions
Ġcounter po
Ġtyp es
Ġcur ved
Ġisol ate
Ġloc ations
Ġpremis s
ĠNe g
ĠMat thew
ĠMetaphys ics
Ġapproxim ation
enlar gement
enlar ged
intu ited
intu itus
clear ly
sour ces
progress ion
mod es
prom inently
Ġcle arest
Ġdr iven
Ġdim ension
arbitr arily
arbitr ium
result ing
ĠEBOOK S
Ġapprehend ed
Ġhonour able
anticip ate
grad ually
continu ation
Ġann ouncement
Ġcent re
Ġdam age
Ġdam aged
agree ableness
ĠOr igin
Ġindefinite ly
ĠHim self
ĠANY THING
mo ving
vari ety
demand s
Ġinc ite
AB LE
CI DENTAL
search able
problematical ly
conduct ed
Ġmund o
Ġerect ing
Ġerect ed
Ġrepe at
Ġgif t
Ġuniform ity
Ġviol ence
Ġviol ates
ĠAnt ithetic
Ġsubmit s
Ġattack ing
Ġconceal ed
Ġsuperior ity
Ġhumili ating
ĠPhys ical
ĠPhys ico
ĠIntuition s
Ġz eal
Ġaf raid
LI GENCE
deser ving
commun icated
Ġmid st
Ġflatter ing
ideal ism
ĠBe fore
ĠBe yond
Ġshar ing
ĠWARRAN TIES
Ġdesp ise
Ġenumer ate
ĠEX PRESS
Ġcomput ers
Ġcompens ation
Ġguarante e
Ġwitness es
Ġirre concilable
dogmat ism
ĠST RICT
accident al
accident ally
furn ish
furn ishes
Ġpress es
qual ities
pract ised
mist ake
uct ible
bound s
bound aries
Ġru in
Ġconven ient
want ing
Ġpaper work
Ġtouch ing
Ġtouch stone
Ġlic ensed
Ġlur king
Ġdetr iment
Ġdetr imental
Ġspo il
Ġspo ken
Ġvac uum
ĠSome times
ĠNor th
Ġsubstit uted
Ġphilosoph ize
Ġentertain ed
Ġcoinc ides
ĠANAL OGY
Ġaccompany ing
excl uding
class ification
dev iate
Sp ace
Sp eculative
invol ves
invol ved
annihil ation
defect ive
Ġstead ily
Ġstead fast
previous ly
Ġoffer ing
Ġsil ence
Ġinex tricable
seem s
Ġves sel
geometr y
geometr ical
Ġperplex ity
ĠAb b
ĠPart icular
Ġdissimilar ity
Ġparticip ating
ĠDIS CLAIM
Ġawaken ing
Ġawaken ed
Ġdeliber ation
Ġindubit ably
Ġembrace d
Gr anted
Ġell ipse
support ed
ipp ed
endeavour s
De fects
cosm ical
Ġach ieve
incre asing
introdu ced
transc end
exhib ited
prob ability
merit orious
peculiar ity
uit ous
Ġted ious
proportion ed
sight ed
thorough ly
Ġcast s
estim ation
desc ending
Ġinn ocent
Ġdark ness
Ġcompr ises
Ġvit al
Ġperce ives
Ġperce iving
Ġdisgu ise
Ġdisgu ised
Ġchar ges
Ġnear ly
ĠGer man
ĠDes pite
ĠDes cartes
ĠMis sissipp
Ġ178 7
Ġfri end
Ġfri ends
Ġcounsel s
Ġdefici ent
Ġescap ing
Ġescap ed
remo ved
confirm s
OS SIBILITY
accord ant
anthropomorph ism
mag nitude
yield ing
PRO JECT
Ġrom ance
acqu ire
Ġip so
profess ing
Ġaut hentic
ĠIND IRECT
Ġric hes
Ġastr onom
Ġtheore m
Ġwarn s
Ġcens ure
Ġinsp ire
Ġincor porated
Ġrefin ed
Ġrevel ation
Ġlow est
Ġspecul ations
Ġrig orous
Ġrare ly
Ġperpet ually
Ġreluct ant
Ġprepar ation
Ġcommerci al
Ġinfring ement
Ġappropri ated
Ġchem ical
Ġfacil itate
Ġtaut ology
Ġdownload ing
Ġbenefic ent
Ġrecommend ation
ĠIM PLIED
Ġpet ty
signific ance
Al though
Mathemat ics
Sy nthetical
mem bers
writ ten
Ġsoci ety
Again st
VI DED
danger ous
smell ing
Ġbes ide
Ġmer its
toward s
Ġtemper ament
Ġsem blance
Ġincontest ably
Ġecon om
Ġlof ty
Ġuninter rupted
Ġunansw erable
Ġunanim ously
Ġtroub ling
Ġimpract icable
Ġstopp ed
ĠPers on
ĠSen suous
ĠOp inion
ĠGos pel
Ġgrate fully
Ġremed y
ĠEngl ish
Ġamid st
ĠDO CTRIN
Ġinviol able
Ġaffair s
Ġindul ge
Ġantiqu ity
Ġassertor ically
Ġcoal ition
Ġunden iable
Ġvolunt ary
ĠArgum ents
Ġfanci ed
Ġextravag ant
Ġcomplaint s
Ġanthropomorph ic
ĠMonad ists
Ġau xiliary
ofess or
princip ium
vi our
inevit ably
Fourth ly
NES S
WARRAN TIES
ĠCHA PTER
ENTI AL
commerci um
Ġtant amount
Ġcurs ory
Ġcush ion
Ġeleg ance
Ġearn est
Ġepo ch
Ġbeha viour
Ġgene alogical
ĠTRAN SITION
Ġsprun g
Ġrap id
Ġvulg ar
Ġtrave l
ĠFRO M
ĠFIT NESS
ĠAug ust
ĠPref ace
ĠSUC H
ĠNEG LIGENCE
ĠReplace ment
ĠMERCHANT ABILITY
Ġindestr uctible
Ġlegitim acy
Ġscatt ered
Ġinsignific ant
Ġearlies t
ĠStaple ton
ĠPUNI TIVE
Ġprototyp e
ĠCONTRA CT
ĠCONCEPTION S
ĠCONSEQU ENTIAL
Ġcounterpo ise
ĠDISCLAIM ER
ĠMississipp i
ĠDOCTRIN E
Ã ĥ
Ã ¢Ä¢Ä
Ġ ib
Ġ vel
Ġt ain
Ġo logical
er c
Ġm ents
Ġis hed
om pl
Ġl es
Ġg er
ĠI R
ere ct
Äł em
Äł cons
Äł cor
ca re
ĠP H
Ġle ct
Ġow ed
Ġpos ed
over n
red istrib
Ġul t
Äłm od
1 2
M ENT
a ut
r os
v ered
Ġ ility
Ġa pt
Ġa me
is ol
as ur
Ġu res
Ġl d
Äł V
Äł u
Äł to
Äł ass
Äł cogn
ph il
ac knowled
Ġar m
sen sib
ful fil
Ġres s
stru gg
Ġut ed
IC AL
appre hend
Äłpr op
contem por
C he
L AR
N O
U SI
a h
g n
p ort
Ġ ict
Ġ ides
Ġ QU
Ġo me
is se
en n
es ca
Ġn ing
Ġis ing
Ġis hes
Ġre ct
Ġd uc
st ac
Ġu red
ĠI S
if t
Äł K
Äł le
Äł ir
Äł ant
Äł reg
Äł br
Äł att
Äł gu
Äł Ex
Ġal le
am orph
Ġv en
Ġst one
ĠA S
Ġen ces
over ably
ĠR I
lu ct
bl ind
Äłde l
imag in
Ġver sion
A T
C om
I m
a ud
a str
a dequ
b at
b ungl
c her
c ob
c itiz
d ur
d am
d ile
d imin
f anci
g en
g est
g overn
h ic
h ist
h yp
i og
l oc
m oun
m ock
n ight
n ull
p ict
r hapsod
s a
s pl
t re
t emper
u gg
v ous
v oc
w ond
z er
z ism
Ġ Ä
Ġ ener
Ġ ÄłÄł
Ġ izing
Ġ *****
Ġa ke
in j
in comp
re ve
re du
is c
is ter
is yllogism
en esis
er v
er um
Ġc ing
Ġp us
ic an
ic ros
or ment
Ġf er
se ver
ou re
Ġis es
Ġre e
ar ond
ect yp
ll ed
iv eness
im m
os oph
ur p
ver t
Äł not
Äł so
Äł par
Äł Th
Äł disc
Äł Re
Äł supp
ul og
em pl
em piric
con sol
con dem
am pl
de pre
de part
ol ens
tr anqu
Ġexist ent
ction s
Ġtr ies
pr on
su cceed
Ġus ion
ant agon
Ġif y
ex ec
ex to
Ġev ol
un fortun
te ll
ie vous
pre par
pre ponder
pre gn
Ġpl ays
me asur
com pl
ser vation
we ak
Ġen cy
sess ion
ĠE R
Ġent ities
eci proc
ys ms
gin ia
ĠL I
ĠU S
acc ompl
In trodu
sub sum
Ġright eous
Ġinfluence d
ont al
sh ort
ap per
comm end
Äłc rit
Äłc oun
ru in
Äłre al
comp ut
icip ations
ometr y
Äłd en
ian a
Su bst
super ior
ST EM
JEC TIVE
cul ation
che son
IL OS
Qu od
opp on
cap it
fig ur
sym bol
sch ool
Ġlu cid
force ability
ibr ium
omni pot
NO W
USI ON
isse urs
ILOS O
2 5
A F
A RA
A rist
B C
C ertain
C ategor
C rit
D EM
D AMAG
E I
G RA
J u
L ogical
L EMENT
M e
M AL
N ER
O RO
P le
P ossib
P art
R even
S THE
T hing
U B
U S
U nt
b i
b es
b us
b ack
b new
c ence
c ivil
d oll
d rop
e in
e br
f an
f ict
g y
h n
h ind
h op
h io
k ingdom
m ark
m und
m ov
o k
o qu
o ca
p ob
r al
r ont
s ies
s ound
t w
u pright
u phold
v ict
w elf
Ġ &
Ġ q
Ġ utes
Ġ ided
Ġ 00
Ġt ur
Ġa ver
Ġa equ
in ated
in ward
Ġo pt
re ject
re ption
re pe
re sem
it ating
en cour
at en
at ure
er ving
Ġc ert
Ġp p
al ar
al tern
al leg
ic ed
Ġin ed
Ġin structive
Ġb an
Ġm us
Ġm ill
Ġn is
Ġn et
se cret
Ġis hing
Ġcon d
Ġcon qu
Ġd iction
st art
st arr
om nit
ot ot
ar ol
Ġh ole
the ore
iv al
im prov
Ġon g
Ġl ib
pt uously
ject ive
ith ful
ib ib
Ġsu ited
ld arond
qu i
ain drop
per sist
per pet
per plex
Äł out
Äł wh
Äł sol
Äł ag
Äł me
Äł contr
Äł cont
Äł part
Äł arr
Äł div
con junct
ve il
end our
end els
am ps
ab ol
ab ilities
de f
de tr
self ish
Ġca ution
ans as
min or
ies tle
of fer
pr ag
use ful
Ġper tains
su ppos
ex ert
ex cell
ance d
ac id
ult imate
un ceasing
un iform
ĠP O
ĠP ER
str ong
oy ed
be ho
The oretical
com men
Ġcomm encing
ici um
ish able
Ġrespect ive
we b
par adox
av en
necess it
dis play
can on
contr ast
Ġer t
Ġi an
arr ogant
ob stac
Ġut ing
Ġing s
Ġce ption
Ġaw a
cor rection
philos oph
Äłc he
Äłc irc
caus al
Ġ5 5
Äłp rom
Äłp ost
Ġconver ted
ĠAN D
ret ched
Pr otot
Ġpract ised
Ġate ly
Äłex tr
Ġ7 5
Ġguard ed
ili ates
vers ed
Ġpleasant ness
col lect
UL AR
Ġmov able
maj or
det ect
TRA DEM
sk ill
LAR Y
cob web
spl endour
condem n
" ),
( $
) -
) ?
* (
. ]
. ),
0 2
0 4
1 4
2 1
2 3
2 4
2 6
2 7
2 8
2 9
3 0
3 1
3 2
3 3
3 4
3 5
3 6
3 7
3 8
4 2
4 3
4 4
4 6
4 7
4 8
4 9
4 280
5 1
5 2
5 3
5 4
5 6
5 8
5 9
6 0
6 1
6 2
6 3
6 4
6 5
6 6
6 7
6 9
7 0
7 2
7 3
7 4
7 6
7 7
8 1
8 7
9 6
; [
A Y
A IN
A pperception
A PPENDIX
B etween
C osmological
C ritical
C reating
D IC
D ialectic
D ifferent
D URE
E nd
F UND
G EMENT
G ENERAL
H is
H uman
H ave
I TH
L ast
L ove
L ogic
L ocke
L AF
L LARY
M ichael
N on
O r
P lato
R TH
T wo
U pon
U AL
U pdated
V II
V olunteers
W NER
Y es
Y STEM
] .
_ [
a os
a ugment
b all
b esides
b servation
c s
c ible
c rowd
c asus
c overably
d ata
e per
e fficient
e gr
e veloped
e ometry
f ull
f ix
f lection
f aces
f ruit
f illed
f ancy
g one
g ained
h art
h old
h itherto
h oliness
h omogeneity
i ary
i ently
j acent
l ose
l ink
l lect
l aid
l come
l io
l ix
l urality
l iability
m n
m al
m ill
m unity
m acy
m oments
n icious
o ber
o ved
p ast
p utes
p iece
r d
r um
r ible
r ances
r ash
s in
s ought
s ake
s ided
s cribed
s ciences
t act
t able
t ask
t lest
u seless
v ocation
w ished
w ater
w rong
w ants
x ury
y ers
y pon
Ġ nd
Ġ ively
Ġt ib
Ġt em
Ġt rem
Ġt ends
Ġt utor
Ġt orment
he art
Ġa se
Ġa the
Ġa we
Ġa ys
Ġa version
in a
in ent
in ning
in ability
in ternally
in ery
in heres
in conceivable
Ġo y
Ġo mission
Ġthe e
Ġthe ist
re ach
re ceived
re hension
re cognize
re pute
re putation
re luct
re commend
it al
it ial
it udes
it itious
en forceability
at s
at ical
at ur
at urn
er on
er ation
er ate
er ring
Ġw al
Ġw ent
Ġw ound
Ġw arr
Ġw ild
Ġw rest
Ġw atch
Ġw rought
Ġw retched
Ġc ou
Ġc un
Ġc ath
Ġc ount
Ġc ub
Ġc rowd
Ġc asus
Ġc odes
Ġs i
Ġs it
Ġs es
Ġs end
Ġs ink
Ġs ap
Ġs ites
Ġs adly
Ġp u
Ġp al
Ġp ill
Ġp ause
Ġp oly
Ġp omp
Ġp ush
ic ing
Ġin an
Ġin ess
Ġin form
Ġin ane
Ġin expl
Ġin compar
Ġin estim
Ġin conceivable
Ġin habit
Ġin equality
Ġin sensib
es ult
Ġb it
Ġb are
Ġb lessed
Ġth ine
Ġth resh
Ġth ousand
or ter
or ably
or ned
or igination
Ġto ld
Ġm ir
Ġm over
ce lebrated
ct ober
Ġf ect
Ġf ain
Ġf if
Ġf ame
Ġf ight
Ġf ra
Ġf atum
Ġf light
Ġf ier
an alytic
Ġn es
Ġn ations
Ġe b
Ġe ff
Ġe lect
Ġe ulog
se verest
ou p
ly ing
le ft
Ġre ly
Ġre ign
Ġre ward
Ġre call
Ġre ap
Ġre new
Ġre production
Ġre trace
Ġre capit
Ġre rum
Ġcon e
Ġcon ced
Ġcon dem
Ġcon vey
Ġcon veyed
Ġcon ducive
Ġd il
Ġd ie
Ġd ress
Ġd ial
Ġd ates
Ġd ull
Ġd umb
Ġd rew
Ġbe ad
Ġbe que
Ġbe fits
st e
st ain
st ates
st ability
st atus
st ones
om as
om ain
om aly
ent ities
Ġwh ol
ar ing
ar ities
as p
as cribed
as ibility
ut most
ut cheson
ect ions
Ġh ide
Ġh ost
Ġh over
Ġpr ize
Ġpr ae
Ġpr oud
Ġpr ogram
Ġas h
Ġas pir
Ġu ally
the ning
iv ial
iv isible
iv oca
im pose
im poses
im mortality
im material
os session
Ġan xious
Ġan terior
Ġan omaly
Ġex ceed
Ġex change
Ġex cess
Ġex hort
Ġex empl
Ġl end
Ġl ust
Ġl oth
Ġl ack
Ġl iable
Ġl au
Ġl ibr
Ġl iberum
Ġnot ifies
Ġwe ari
Ġwe ighed
Ġwe lcome
Ġfor t
Ġfor ge
Ġfor be
Ġfor cing
Ġfor fe
Ġfor sakes
id ity
id ens
id ger
id night
ib les
Ġsu pre
Ġsu spect
Ġsu nt
cept ical
cept ible
ter onomy
ure ans
ir ation
ir ginia
Ġg out
Ġg aps
Ġg bnew
Ġwith stand
ur red
ci ate
ver sely
ĠI d
qu erable
og ue
res ides
ist ences
Ġor ator
Ġor bits
ere r
Ġcan st
ec um
ec utive
ec undity
if ling
and i
and o
and al
and ed
and om
per mit
per ceived
per mission
per suasion
sel s
Äł y
Äł ter
Äł ca
Äł form
Äł dist
Äł sim
Äł fe
Äł adv
Äł super
Äł equ
Äł trans
Äł gener
ul zer
Ġall ot
Ġall ure
Ġall ied
em y
rom ise
Ġpro lix
Ġreason ably
con veyed
con verted
con ducive
con versely
con querable
ate ful
ch arge
ch asm
ch ievous
ch arities
il ation
il anthrop
il ibrium
Ġde ter
Ġde fe
Ġde arest
Ġde let
Ġde pict
Ġde eper
Ġal s
Ġal arm
ore d
Ġint act
Ġint imate
Ġint imid
Ġint egr
act ivity
us able
us iveness
Ġha ph
ill ain
am ination
ab ile
ab iding
ab yss
pl ies
pl ays
pl anation
pl aces
pl acing
pl iance
pl ausible
Ġun w
Ġun re
Ġun tr
Ġun sh
Ġun just
Ġun real
Ġun necessarily
Ġun qual
Ġun belief
Ġun exception
Ġun satisfied
Ġun sett
Ġun changed
Ġun usual
Ġun influenced
Ġun restricted
Ġun alter
Ġun guarded
Ġun bidden
Ġun yielding
Ġun link
Ġun erring
Ġun conquerable
dition s
dition al
de ceived
de istic
ol ence
ol lection
ig ence
ig our
Ġca el
Ġca utious
Ġ( "
Ġ( *
tr od
tr ied
tr ack
Ġsp ur
Ġsp her
Ġsp ort
Ġcom ets
Ġr ot
Ġr ich
Ġr ose
Ġr ude
Ġr aces
Ġr iver
Ġr het
Ġr aindrop
est ing
Ġem pire
Ġwor se
Ġexist ential
her self
Ġv a
Ġv ast
Ġv igour
Ġtr ial
Ġtr aces
Ġtr iang
Ġtr anqu
Ġtr ivial
Ġtr ifling
Ġwill ingly
fore ign
fore seen
ĠB erke
use ment
ak ed
Ġim material
Ġim proved
Ġim mortal
Ġim pregn
Ġab sol
Ġab und
Ġper ish
Ġper man
Ġper nicious
ori ally
Ġform arum
Ġnat ive
Ġnat ura
Ġno bl
su pposed
su pposing
su itable
ame ter
pos its
pos itio
Ġk at
Ġk new
ind ifference
ind ulgence
Ġreg ions
Ġreg ret
Ġreg ulated
Ġus urp
Ġif ied
ex ternally
ex hausted
ex terior
ex actly
ph rase
Ġsh ame
Ġsh ake
Ġsh ine
Ġsh aken
Ġsh ield
Ġsh ared
Ġsh orter
ĠF unction
ĠF ull
ĠF AC
ĠF airbanks
ĠF ebr
Ġse a
Ġse yn
out side
out set
Ġcogn ise
Ġcogn iz
Ġcogn itio
Ġcogn isable
Ġst at
Ġst ory
Ġst ars
Ġst ored
ud o
Ġqu ib
Ġide ally
Ġrel iable
Ġev ade
wh olly
ĠA K
ĠA R
ĠA re
ĠA ff
ĠA CT
ĠA ldarond
our y
our ce
Ġj ugg
Ġj esting
Ġacc um
Ġacc ru
Ġacc used
Ġacc redit
Ġman hood
ult aneity
un ite
un ted
un its
un certain
un necessary
un ities
un limited
un certainty
un iting
un til
un changeable
un true
un ciated
un searchable
Ġunderstanding s
sequ ence
for ward
Ġad just
Ġad jective
Ġad jacent
ĠP ublic
ĠP lease
ĠP olem
ĠP OSSIBILITY
ĠP ARA
ĠP lurality
Ġy aw
Ġy oke
Ġdis mis
Ġdis appro
Ġdis advantage
Ġdis posing
Ġdis continu
Ġdis continue
Ġdis appeared
Ġdis pleases
Ġdis repute
position s
), [
so hn
et us
et ting
et ched
Ġknow able
str ings
str iking
Ġpre cl
Ġpre ference
Ġpre fers
Ġpre ponder
Ġpre posited
Ġpre caution
Ġpre mise
Ġpre monition
ĠTh ough
ĠTh irdly
ĠTh omas
Ġch amp
Ġch aos
ener ation
ener ally
Ġar ouse
Ġrepresent ative
sp aces
Ġsome where
Ġevery day
Ġsynthe ses
ĠS ing
ĠS ense
ĠS END
ĠS econd
ĠS alt
ĠS enses
ĠS pirit
ĠS ciences
ĠS imilarly
ĠS MAL
ĠS UB
ĠS aturn
ĠS ceptical
Ġph ilanthrop
sol ved
ens ity
ens ome
pre determined
pre hensible
pre pared
oy ing
ĠN ame
ĠN oumen
ĠN ihil
ĠN early
ĠN ovember
ness es
ĠO therwise
ĠO WNER
ĠO ctober
Ġsub du
Ġsub sid
possib ilities
imit able
Ġfre es
condition al
ĠIn cl
Ġcertain ties
Ġpl un
Ġend uring
Ġcomple ting
ort ing
ort unities
Ġcont ending
ĠG over
ĠG enerally
ĠW ould
ĠW ell
ĠW OR
ĠW IL
ĠW ITH
ĠW idger
Ġwhen ever
ploy ment
Ġgr oup
Ġgr asp
gor y
me et
Ġgo ld
Ġcontr ari
The ological
ĠC ity
ĠC omp
ĠC OM
ĠC AN
ĠC artes
ĠC ORO
ĠC arol
Ġow e
ast ically
ser ved
form ing
Ġconnect ions
Ġob no
Ġob sole
pro ves
pro posed
Ġdes ist
Ġdes cribes
Ġdes pot
Ġfound ing
old est
Ġcomm end
Ġcomm ences
Ġcomm erce
Ġdist rust
ari us
Ġfollow ers
Ġemploy ee
Ġwas hed
Ġrational ist
Ġrational ism
with drawn
Ġpur ified
Ġrem ember
Ġrem embered
Ġdisc ord
ĠH as
ĠH ad
ĠH itherto
ĠH armon
Ġact or
Ġact uating
we aken
âĢĿ .
âĢĿ ),
Ġext ol
Ġext ingu
Ġen unciation
Ġen lightened
Ġen emy
Ġag ency
over look
over step
over throw
Ġval uel
par alogism
under taking
Ġground ing
med ium
med iable
ĠR eciproc
ĠE s
ĠE qu
ĠE dition
ĠE lucid
ĠE mail
ĠE BC
ĠE LEMENT
Ġter minis
Ġter rible
Ġpres ume
Ġpres iding
Ġout we
Ġout dated
Ġexp end
Ġexp edient
Ġexp orting
wo ven
exist ed
exist ences
Ġam ply
Ġreal e
Ġreal itates
av a
Ġperfect ions
Ġent rance
man kind
phys ician
phys iological
Ġatt ends
ogit o
ĠD E
ĠD est
ĠD irect
ĠD ON
ĠD OM
ĠD omain
ass ion
ass ent
ass able
ass istance
ident ity
ident ical
hemat ism
Ġfact i
determin able
cogn izing
Ġimp ure
Ġimp air
Ġimp elling
Ġimp enetrable
Ġimp aired
Ġimp assable
yp al
Th ought
Ġconstit uent
Ġcor por
Ġpurpose ly
Ġhere in
necess itate
dis k
dis junctive
dis similar
dis appears
dis interested
dis putes
Ġinf used
Ġinf ancy
Ġexpl ication
Ġinterest ing
ĠM ore
ĠM atter
ĠM odality
ĠM endels
ĠM AY
Ġkind ness
Ġhand le
Ġhand les
Ġstr ive
Ġstr ay
Ġstr ain
Ġstr iving
Ġconc ess
Ġconc ur
Ġdem erit
ra ised
ra ft
Ġappear ing
othe ology
Ġrest less
Ġanaly ses
empt y
Ġref ute
Ġref used
Ġref using
Ġref rain
reg ulate
reg ulated
Ġdiv ides
Ġsum m
Ġsum s
ev ents
Ġcomp ound
Ġcomp any
Ġcomp ulsion
Ġcomp elling
Ġcomp etition
Ġcomp romise
Ġcomp ilation
Ġadv ised
und ecided
Ġdedu ctible
Ġcontradict ing
ĠL est
ĠL ogicians
Ġassum es
Ġres iding
lu de
Ġtruth fulness
Ġ1 1
Ġ1 4
mediate ly
Ġdec ay
Ġdec ried
Ġmet als
ĠU pdated
Ġmight y
acc ustomed
Ġsupp ressed
Ġpredic ating
Ġpredic ables
Ġpredic aments
Ġexpress ing
Ġexpress ly
Ġwork ing
Ġphys ician
Ġphys ica
In asmuch
In trod
Ġconf er
Ġconf ident
Ġconf usions
Ġconf using
Ġconf idently
Ġdiscover ies
Ġcl ock
Ġcl oud
sub scribe
sub stitution
sub ordinate
Ġi x
Ġi ly
Ġi um
Ġi ii
ĠCon cept
ĠCon trib
ĠCon junction
ĠCon tent
ĠCon tact
ĠCon ditions
know ing
Ġdeg rade
Ġind ivisible
Ġind olence
Ġdefin iteness
Ġclear ing
Ġarr og
Ġarr anges
Ġac y
Ġac knowled
Ġimper illed
Ġregress ion
Ġregress ively
Ġel oqu
cont end
cont act
mon ads
Ġsole mn
Ġexer ted
Ġperson ified
Ġneed ing
mis conception
mis apprehension
Ġed iting
Ġed ifices
Ġwant ed
Ġconting encies
Ġfin ishing
Ġfin anci
Ġsc ale
Ġsc andal
part e
part ed
arr ay
arr ived
aim ed
contradict s
contradict orily
Ġelement al
Ġassert orial
Ġassert orially
Ġmethod ical
Ġcommand ing
Ġmean est
ov erer
Ġless on
Ġless er
Ġless ened
ĠTH OSE
go als
Ġover throw
Ġover coming
transcendental ism
Ġdog ma
Ġsol ving
Ġnon entity
Ġnon propri
Ġdemonstr able
Ġrelations hip
Ġequ ipped
Ġequ ilibrium
bit ious
bit ably
Ġideal istic
Ġideal izing
Ġco in
Ġco at
Ġco ar
Ġco ol
Ġco ins
Ġco erc
gr ace
ĠPr imal
ĠPr iestle
ĠSu b
ĠSu pposing
ĠSu bst
Ġbound less
Ġconduct ing
men se
ail ing
Ġident ification
Ġ2 1
Ġ2 3
Ġexpect ing
Ġhar sh
Ġmis use
Ġmis ology
Ġmis representation
Ġmis inter
Ġmis applied
Ġmis sed
Ġmis leads
Ġmis fortune
Ġmis chief
Ġmis erably
Ġop ens
Ġpass ion
Ġpass ions
Ġargument ative
Ġden ying
Ġden otes
Ġappre ciated
Ġappre hensions
ext ends
ext reme
Ġgener ates
Ġgener atio
Ġoblig atory
Ġremark ing
oc ate
oc ks
Ġprom ising
Ġprom inent
Ġsuper ficial
Ġconscious ly
ĠBeing s
Ġce ased
sim plicity
sim ultaneous
Ġaw akes
ne arer
dif fer
bl under
bl ances
Ġpeculiar ities
Ġlegisl ator
Ġmaintain er
Ġaffirm ing
connect ing
Ġunderstand s
ave olens
cor poreal
some what
Ġcirc uit
Ġspe ech
Ġund one
Ġund ecided
Ġund isc
Ġund eveloped
des cribe
des ired
Ġbr utes
Ġbr anch
Ġbr utum
Ġbr idge
happ ily
happ ened
right eous
sh ip
categor ically
Ġign ore
Ġintellectual ized
Ġte leology
Ġfut ile
Ġdistinct ly
Ġdistinct ness
Ġclaim ing
br ain
Ġoper ative
Ġoper ates
yn ics
ĠAn alog
Ġendeavour ing
fer ing
Ġconv ict
Ġconv ictions
Ġcorrect ing
pres um
pres cribed
Ġthree fold
Ġpret ext
Ġdistrib utive
Ġanal ogical
sensuous ly
Ġpar simony
Ġpar abol
exam ine
exam ined
exam ining
Ġinvol unt
ap se
no ble
no isseurs
requ est
requ iring
leg ality
Ġmed itation
rem ove
rem ote
rem arks
rem ained
proc ure
fe es
Ġdynam ics
ĠUn philosophical
imp enetrable
Ġask ing
just ifies
Äłs c
Ġtrans lated
ĠEx ternal
ĠEx tent
ĠEx amples
ĠEx istences
ĠEx ecutive
ĠEx amination
att ached
att acks
caus ed
Ġprof undity
Ġpain s
Ġpain ful
Ġexcl uding
Ġexcl usive
Ġvain ly
Ġdesign ed
Ġdesign ates
Ġdesign ating
Ġsuccessive ly
ask ed
Äłre p
comp ound
comp ressed
appl ies
respect s
respect ing
respect ive
IN CIDENTAL
Ġ5 96
incl ined
incl udes
Ġbl ow
Ġthird ly
ĠAr chitect
Ġmeaning s
Ġmeaning less
oriz ontal
ft p
ific ate
Ġdel ivers
Ġdel ine
Ġdel usions
Ġdel icate
Ġdel ivered
Ġra ises
Ġappro ved
Ġappro val
Ġappro bation
consist ing
Ġ* (
Ġrefer able
ĠV ery
conf ounded
conf utation
Ġche er
Ġche mist
thought s
ĠSp here
Ġdecl ined
univers ally
quant a
Ġlet ters
Ġagree ably
Ġorgan ic
Ġarbitr ium
Ġsignific ancy
ĠJ UD
Ġens ure
Ġens ures
Ġens uring
then ed
Ġge ometer
div isible
constit uted
constit uent
mathemat ician
ĠK ings
ĠK NOW
metaphys icians
Ġ4 000
Ġ4 280
ĠRE PL
ĠRE FUND
iter ated
Ġsepar ates
Ġsepar ating
worth less
Ġcare lessness
ip id
ip ate
CE DURE
Ġoff ence
ins ipid
possess ions
Ġscept ic
Ġfa ulty
cogit able
cogit ating
Ġwis er
Ġwis est
Ġaccept ance
urs ively
speci fic
Ġcre ative
ven al
Ġgen ius
gu ides
think er
think ers
change ably
Ġfavour ite
Ġprop ension
Ġprop ounded
Ġsure ly
Ġoccasion ing
Ġoccasion ed
Ġoccasion ally
Ġdogmat a
Ġdogmat ists
satisf y
analy sed
origin ated
origin ator
origin arium
Ġhigh way
predic ated
predic aments
Ġgeometr icians
Ġgeometr ician
demonstr ations
demonstr atively
Ġinter ference
Ġinter ior
Ġinter rog
Ġinter pretation
Ġinter woven
Ġinter fering
Ġconver ting
Ġfr ustr
Ġfr ank
Ġfr ames
jud ges
jud ging
jud icium
sens atio
imin ished
Ġcoun tenance
Ġcoun tries
adv ances
Ġart ifice
real ized
real issimum
Ġcol lect
Ġmechan ically
Ġir respective
expl anations
Ġredu cing
Ġexper iments
Ġexper imental
Ġ9 2
discover s
matter s
Ġaccess ed
Ġaccess ible
Ġcanon s
obser ve
vol unteers
Ġprud ential
first ly
ND ATION
Ġlos es
Ġaccident ally
Ġclass ed
Ġcomprehend ed
investig ating
contin ual
Pr ofessor
Ġdivers ities
Ġdefect s
attain ing
Ġur ges
Ġsk etched
ĠIm mortality
Ġdet ection
aff inity
Ġpract icable
Ġrec ent
Ġrec ord
Ġrec ollection
Ġhum our
Ġwrit er
Ġconfin ing
Ġasc ends
Ġvent uring
Ġenlar ges
Ġenlar ging
adequate ly
inf luences
Ġsent imental
Ġbene f
Ġbene fits
Ġfirm ness
Ġsucceed s
Ġstud ent
Ġobsc ured
maxim um
Ġmist aking
neg ations
neg lect
say ing
Ġdest iny
Ġlower ing
ĠPh alar
Ġpreser ves
Ġpreser vation
Ġ200 3
attempt ing
Con ceptions
draw ing
gl orious
psych ologia
Ġgl im
Ġgl ory
Ġcap ital
Ġeng raft
Ġqual ified
Ġreckon s
Ġstreng thening
ÄłP h
oper ate
oper ative
oper ating
Ġ7 0
Ġauthoriz es
Ġauthoriz ing
Ġestim ates
Ġbest owed
Ġspirit uality
ĠPU BL
ĠPRO BL
ĠPRO CEDURE
ĠHere in
Ġreflect ed
regress ive
regress us
Ġprofess ions
imag ine
imag ined
Ġ6 5
ÄłA n
ÄłA r
cond itio
Ġguard ian
Ġrep ul
Ġrep utation
Ġrep orts
Ġrep orted
Ġhabit ation
Ġincre ases
Ġren amed
Ġren ounces
Ġren ounced
Ġexc use
Ġexc ited
Ġexc usable
Ġver ify
Ġver bal
supp lied
oblig atory
Ġsearch ing
pret ext
equ ally
equ ivalent
human ity
Ġmo ves
Ġbeh old
Ġbeh alf
Ġextr act
Ġdev iate
ĠCh ief
Ġenjoy ing
ĠEm piricism
ĠEm ployment
Ġstrong ly
Ġstrong est
ĠLeibnitz ian
Ġoccur ring
diffic ult
Ġblind ness
unte er
defin e
Ġstru ck
depend ing
infinite ly
Ġtw ist
inqu ire
Ġsuggest s
Ġsuggest ion
Ġsuggest ions
Ġaccord ant
ĠEpic ureans
Ġderiv able
addition s
second ly
deg rees
concept us
inst ance
inst ances
Ġappe als
Ġhead er
Ġpermit s
Ġadapt ation
ĠEvery one
Ġsecret s
Ġillustr ations
require ment
Ġtransgress es
Ġtransgress ing
Ex istence
Ex amples
Ġfortun ate
Ġimit ate
Ġimit ating
show ing
attrib uting
Ġvan ish
Ġvan ishes
Ġprep ares
ĠDI RECT
Ġobe ys
Ġhind ers
Ġaddu cing
ĠWh ole
Ġgover nor
Ġsubstant ive
Ġmoder ately
Ġschol ar
Ġschol ars
Ġschol astically
Ġroot ed
Ġcontempl ate
direct s
direct ing
direct ed
sing ular
begin s
ACE MENT
vers a
ĠIN TERNAL
anteced ently
analytical ly
advantage ous
labour s
person s
person al
person ality
abstract ed
ox ysms
Ġinj uring
Ġinj ury
Ġreject s
Ġreject ion
Ġsuff ers
Ġsuff ices
Ġattr actions
Ġabandon ed
Ġsym path
Ġsym bol
Ġsym pat
Ġstart ed
Ġevid encing
Ġcommun ic
Ġconfused ly
Ġaccompl ishes
Ġomni present
Ġomni presence
gener ations
Ġ8 5
Ġ8 41
correct ly
correct ness
affirm ing
affirm ations
occup ies
maintain s
aenomen a
Ġspect ata
Ġspect acle
compar atively
Ġve x
Ġve iled
Ġve hic
concl usio
Ġalter ing
Ġsett lement
Ġlegitimate ly
Ġtyp ic
Ġcur iosity
sec urity
Ġdict ation
Ġdict ated
Ġloc ale
Ġdeep est
Ġmeant ime
Ġimpart ed
Ġimpart iality
ĠMat erial
command s
Ġblame less
enlar ges
enlar ging
distrib ute
distrib ution
progress us
need ing
author s
col lection
col lected
mod i
Ġmon ogram
Ġmon ads
prom ise
prom ote
Ġlink ed
construction s
Ġtend er
Ġtend encies
Ġtell s
Ġcle ared
Ġresol ves
Ġresol utions
Ġreplace d
Ġdr ives
Ġhard ness
result s
Ġdepr ives
Ġundert akes
Ġstop s
ĠPer ception
ĠPer fect
ĠPer haps
ĠPer mitted
Ġprefer able
Ġprefer red
ĠCategor y
ĠCategor ical
Ġpresum ed
Ġambig u
Ġteach ings
Ġcalcul ation
Ġfulfil s
Ġhyper bol
grad uated
reciproc ity
err ors
inc erity
Ġjoin ing
Ġann ounces
Ġann oying
Ġil legitimate
Ġaugment ative
Ġcent ury
Ġreve aled
ĠTr anscendent
ĠTr ancendent
Ġalleg ing
agree able
material iter
ĠCom position
ĠCom pliance
Ġenounce ment
Ġimply ing
Ġdecided ly
Ġerrone ously
Ġcolour ing
affect ing
cop y
cop ying
coun try
mo on
opp ortunity
Ġinc it
Ġinc umb
indis pensably
small er
construct s
construct ed
individual s
Ġinstruct s
Ġration e
sophist ries
Ġ50 1
pathological ly
CL USION
UL TY
Ġwa x
Ġwa it
Ġwid er
Ġinhere nce
Ġthy self
Ġthreat ened
Ġthreat ening
Ġfoot path
Ġfoot steps
Ġnull ity
Ġerect s
Ġconject ures
Ġhundred s
Ġpropens ions
Ġprincip ally
Ġviol ate
prof itable
ĠAl aska
Ġyouth ful
Ġattack ed
ĠMe anwhile
Ġconceal ment
Ġroad s
ĠÃĨ STHE
ĠProof s
ĠProble matical
Ġobstin acy
ĠPhilos ophical
ĠPhys ics
Ġprospect s
Ġhypostat ize
Ġhypostat ized
80 1
apodeict ical
Be yond
LI ABILITY
LI ABLE
po seless
deser ve
commun io
Ġreconci le
Ġamount s
Ġflatter s
Ġsovereign ty
Ġmach ines
Ġmach inery
Ġdesp ising
ĠEX CEP
ĠEX TERNAL
Ġirre mediable
ĠSystem atic
Ġstrugg les
Ġstrugg ling
ĠNew by
Ġbreak s
remain ing
pursu it
pursu ed
Ġpo or
Ġpress ure
don ation
insepar able
Ġcour tes
Ġru ined
exper iment
remark ing
Ġascertain ing
Ġaltern ation
Ġaltern ate
Ġaltern atively
Ġrun s
disposition s
Ġincomp atible
Ġannex es
Ġexempt ion
Ġexcell ence
Ġlic ence
Ġlic et
Ġdetr act
ĠPRIN T
Ġsubstit ute
Ġsubstit uting
Ġ19 71
Ġelabor ate
Ġelabor ating
Ġmodern s
Ġantinom ial
Ġsolic itation
Ġsolid ity
Ġinstinct s
Ġdenom ination
Ġspiritual ism
ĠDIALEC TICAL
Ġflow ing
Per manence
Per suasion
class es
design ate
comprehend ing
comprehend ed
organ on
cil ity
dev ised
Ġhes itation
sym pathy
contempl ated
SEC TION
SEC OND
harmon ize
treat ment
definite ly
haust ible
convin cing
exposition s
Ġsil ver
Ġinex orably
Ġinex haustible
Ġbind s
anci ents
Ġbetray ed
Ġprime val
Ġunfortun ate
Ġtrust worthy
Ġheight s
Ġperplex ing
ĠAb out
Ġmyst icism
Ġcompass ion
ĠConcl usion
specif ically
Ġsuffer ing
Ġridic ule
Gr ant
heter ogeneous
adm ixture
adm iration
exc ite
exc ited
De ity
cosm ology
hon oured
hon esty
incre ase
introdu ction
transc ends
exhib it
prob able
reckon ing
forth coming
spe ak
Produ ce
declar ations
moment a
ton ian
ĠQu antity
sect ing
Ġrestr ained
Ġchief ly
Ġgrat ification
desc ent
Ġinn ate
Ġinsist ed
Ġbon us
Ġprag matic
Ġlu xury
Ġsust ain
Ġsust ained
Ġcompr ised
Ġembarrass ments
Ġhealth y
ĠAGRE EMENT
Ġchar itable
ĠIntrodu ction
ĠGr ant
ĠGer many
Ġencour age
Ġencour ages
Ġcritic ize
ĠMis sion
maj esty
Ġsurpr ise
Ġdefici ency
Ġpunct ual
Ġpunct ually
Ġstrengthen s
Ġtalk ed
Ġaston ishing
ĠMethod ology
Ġdenomin ated
Ġfatal ist
confirm ation
bar ism
enjoy ment
del usion
det ailed
agon al
anthropomorph ic
50 1
creat ure
creat ures
test ing
recogn ise
recogn izes
substant ia
PRO VIDED
bring ing
Ġeduc ation
Ġeduc ational
Ġtol erable
Ġtol erate
Ġmal i
Ġmal um
Ġect ypal
profess es
prevent ing
fici ency
Ġaut omaton
Ġsw amp
Ġpol es
Ġpol ice
ĠIND EMNITY
Ġric her
Ġard ent
precept s
Ġtheore ms
Ġsl ip
Ġpubl ish
Ġpubl ished
Ġparent s
Ġinsp ires
Ġincor poreal
Ġmar vellous
Ġmass es
Ġep isyllogism
Ġrefin ement
Ġredistrib ute
Ġredistrib uting
Ġprolong ing
Ġprolong ed
Ġratiocin ant
Ġvision ary
ĠBE FORE
Ġperpet ual
Ġconsult ing
ĠAgain st
ĠSe at
Ġsubdiv ided
Ġsubdiv isions
ĠWolf ian
ĠCan on
ĠCogn ition
ĠCogn itions
Ġcommerci um
Ġvalu es
Ġvalu ed
Ġsimpl est
ĠDetermin e
ĠDetermin ing
Ġrespon sible
Ġrespon sibility
ĠSubject ive
Ġaddress es
Ġparadox ical
Ġchem ists
Ġfacil ity
Ġtaut ological
Ġbenefic ence
Ġwaver ing
Ġarchetyp al
Ġarchetyp es
avail able
requis ite
fl own
Ġpot ential
Ġlar ger
Ġlar gest
plain ly
doctr ines
doctr inal
authoriz ed
bene ficial
cultiv ated
fr amed
ration e
sk etch
sent iments
reconci led
indu bitably
exerc ising
Philos ophical
18 87
Ca ius
Ca usality
divers ity
divers ities
mast er
mast ery
tempt ation
tempt ations
Ġflu id
streng th
streng thened
perform ing
abandon ing
abandon ed
priv ate
priv ilege
obsc ure
obsc urity
impul se
impul ses
myst icism
Ideal ism
function s
parent s
Ġmoun tain
Ġmoun tains
sett lement
Ġdrop s
iver ance
Ġadvers ary
Ġartic ulation
Ġcard inal
Ġsal ts
Ġsan ct
Ġsan ctions
Ġsedu ced
Ġsmo ke
Ġsmo oth
Ġsoft ware
Ġincap ac
Ġincap acity
Ġmil itates
Ġflat ten
Ġelucid ate
Ġrever ses
Ġdi ameter
Ġdi agonal
Ġlimb s
Ġhast ily
Ġunconscious ly
Ġmel ts
Ġshadow s
Ġappet ite
ĠPG LAF
ĠPost ulate
ĠPost ulates
Ġye a
Ġargu ing
ĠSc hematism
Ġsubrept ions
Ġsubrept io
ĠCa uses
ĠCa usality
ĠCertain ly
ĠCosm ical
ĠCosm ology
ĠRedistrib ution
ĠRedistrib uting
Ġconfound ing
Ġindivid uum
Ġimagin arium
Ġhero es
Ġfals ity
Ġ568 2
Ġ568 3
Ġadmire rs
Ġsignal ize
ĠWho ever
Ġsharp en
Ġpoison s
ĠDISTRIBUT E
ĠDISTRIBUT OR
Ġlat ent
embarrass ment
Concl uding
transgress ion
568 3
architect onic
lab orious
Ġfere nce
sensual izing
Epic urean
Mor ality
Sto ics
az ard
cal culation
dest ination
eas ily
elev ated
fa cility
fam iliar
hum iliates
lo ving
penetr ating
wis dom
warrant ies
ino zism
instruct ed
enumer ate
ithmet ic
threat ens
conject ured
confin es
conven ience
prim ary
specul ations
service able
PLEAS E
schol astic
circumst ances
62215 41
Wolf ian
mother ly
Ġadequ acy
animal s
constant ly
adem ical
adapt ed
ĠED ITION
undoubted ly
grant ing
consequentia e
Ġtear s
Ġtheolog ians
Ġwander ing
Ġcand our
Ġcitiz en
Ġsag acity
Ġincompre hensibility
Ġindiscern ibles
Ġinstrum ent
Ġincontrovert ibly
Ġbro ke
Ġthir teen
Ġthwart ing
Ġming les
Ġfant astic
Ġnom inally
Ġecl ipses
Ġliqu et
Ġlangu ages
Ġwear iness
Ġforget ting
Ġsuppos ititious
Ġsudden ly
Ġalkal i
Ġunsol icited
Ġunquestion ably
Ġempiric ist
Ġembell ishments
Ġtrades man
ĠBec ause
Ġimmedi atae
Ġnovel ty
ĠFac ulty
ĠFOU NDATION
ĠAd ditional
accept ation
Ġaccus ation
ĠPre cisely
ĠParalogism s
Ġdiss ipate
Ġdisappoint ment
Ġphantom s
ĠInte llect
ĠGre gory
ĠCl ue
ĠCopernic us
Ġobl iterated
Ġdiscret um
ĠHist ory
ĠHypothe sis
Ġenv y
Ġenig ma
ĠEv ents
Ġtert ium
Ġentrust ed
Ġimpot ence
Ġshallow ness
Ġinflex ible
Ġapper taining
ĠLat in
Ġdecre ase
Ġillum inated
ĠOnt ological
Ġdegr aded
Ġmislead ing
Ġsurr ounded
Ġsurreptitious ly
Ġindisp utable
ĠImper atives
Ġdetail s
Ġprosyllogism s
Ġdevi ations
ĠDisc overy
Ġtreasure s
ĠNeg ation
ĠOrigin ally
Ġzeal ous
Ġsteadfast ness
Ġsilence d
ĠAbb ott
Ġauthentic ated
Ġastronom ers
Ġeconom ical
Ġger m
ĠIR S
ĠPH ILOSO
Ġarm oury
strugg le
esca pe
Ġduc at
Ġalle ge
ĠRI GHT
Ġpus hed
ectyp a
Subst ances
oppon ent
omnipot ence
Arist otle
Categor ies
Crit icism
DAMAG E
GRA PH
Ju venal
Me anwhile
Ple asure
Possib ility
Part icular
Reven ue
Thing s
Unt il
bus y
civil ized
doll ars
fan aticism
fict itious
hind rances
hop es
mund us
mov able
pob ox
sound ness
tw ofold
vict ory
welf are
Ġaver age
Ġaequ ivoca
Ġopt ical
repe ated
resem blances
encour agement
alleg ed
Ġnis i
Ġnet work
Ġcond itio
Ġdiction is
starr y
omnit udo
theore m
improv ement
Ġlib itum
ibib lio
persist ed
perpet ually
perplex ity
conjunct io
def ence
detr imental
prag matic
suppos itio
excell ent
beho of
commen cing
paradox ical
obstac les
Protot ypon
TRADEM ARK
fruit ful
Ġtib i
Ġathe istic
reluct antly
recommend ations
Ġwal ks
Ġcun ning
Ġcath artic
Ġcub ic
Ġcrowd ed
Ġinan imate
Ġinexpl icable
Ġinestim able
Ġinhabit ants
Ġinsensib ly
Ġthresh old
Ġdil igence
Ġdial etic
Ġbeque ath
Ġwhol es
Ġhost ile
Ġaspir ations
Ġlau gh
Ġlibr ary
Ġweari ed
Ġforbe ar
Ġsupre macy
Ġgbnew by
Ġprolix ity
Ġdelet ions
Ġintimid ation
Ġintegr ity
Ġhaph azard
Ġunsh aken
Ġunqual ified
Ġunexception able
Ġunsett led
Ġunalter able
Ġcael o
Ġraindrop s
Ġtriang les
ĠBerke ley
Ġperman ently
Ġnobl est
ĠFAC ULTY
ĠFebr uary
Ġcogniz ant
ĠACT UAL
ĠAldarond o
ĠPolem ics
ĠPARA GRAPH
ĠSMAL L
Ġphilanthrop ist
ĠNoumen a
Ġsubdu ed
Ġsubsid iary
ĠGover nor
ĠWOR K
ĠWIL L
Ġcontrari wise
ĠCartes ian
ĠCORO LLARY
ĠCarol ina
Ġobno xious
Ġobsole te
ĠHarmon y
Ġvaluel ess
ĠElucid ation
ĠEBC DIC
ĠELEMENT S
ĠDirect or
ĠDOM AIN
Ġcorpor ation
ĠMendels sohn
ĠContrib utions
Ġeloqu ent
Ġfinanci al
Ġnonpropri etary
Ġcoerc ion
ĠPriestle y
ĠSubst ance
Ġmisinter pretation
Ġundisc overed
ĠAnalog ies
Ġparabol a
Ġinvolunt arily
ĠArchitect onic
ĠJUD GEMENT
ĠKings mill
ĠREPL ACEMENT
Ġfrank ness
ĠPhalar is
ĠPUBL IC
ĠPROBL EM
Ġ841 16
Ġhyperbol ic
ĠTrancendent ale
Ġincumb ent
ĠÃĨSTHE TIC
ĠEXCEP T
Ġcourtes y
s ign
Ġ X
Ġ ile
Ġ ived
Ġ ension
Ġ ensive
Ġ iving
Ġ iding
Ġt ic
Ġt ical
Ġa e
Ġa ve
Ġa ken
Ġa king
Ġp ose
Ġb er
Ġm it
Ġn t
Ġit h
Ġit ing
Ġit as
Ġit her
Ġu de
Ġan e
Ġan gu
Ġl ing
Äł k
Äł end
Äł act
Äł us
Äł all
Äł cl
Äł med
Äł ha
Äł sy
Äł RE
Äł leg
Äł rem
Äł pur
Äł conce
Äł aff
Äł gl
Ġare d
Ġy p
Ġar ch
der iv
Ġen e
ĠE M
Äłex p
ÄłP ro
Äład m
b or
b ted
l eness
u cid
Ġ ication
Ġ icism
Ġa il
Ġa ces
Ġo ve
Ġc k
Ġs ion
Ġs ect
Ġp ir
Ġb al
Ġm s
Ġit es
Ġu lar
pt ed
Ġg es
Ġg ed
Ġor s
Äł J
Äł on
Äł or
Äł aw
Äł ph
Äł fin
Äł ser
Äł ear
Äł man
Äł phys
Äł determin
Äł law
Äł ne
Äł prov
Äł Su
Äł Pr
Äł pret
Äł continu
Äł commun
Äł Un
Ġat io
Ġat ively
Ġun t
Ġr it
Ġr ing
Ġem ent
Ġif ies
Ġy ing
Ġar s
ĠO U
ĠE N
Ġter min
Ġut ation
Äłin st
Äłs um
Äłc al
Äłf a
Äłp ass
Ġur s
Äłb ene
Äłcon v
Ġol og
ÄłD e
Ġous ly
Ġoun ce
Ġward s
Ã¢Ä¢Ä ¿
S ol
Â ¦
Ä ī
Ġ Äł
Ġ ime
Ġ ician
Ġa le
Ġa de
Ġa ined
Ġo le
Ġo de
Ġof t
Ġs on
Ġp tion
Ġin es
Ġin ce
es cap
Ġn er
Ġe ty
Ġis ion
Ġre at
Ġit able
ar p
Ġu ring
Ġu des
Ġan ge
id ic
qu ire
Äł ver
Äł art
Äł ac
Äł te
Äł there
Äł do
Äł bl
Äł no
Äł analy
Äł origin
Äł vol
Äł assert
Äł comb
Äł sym
ĠT ION
Ġr ow
Ġr ust
Ġr ough
her s
Ġus es
ff er
Ġse l
Ġst em
Ġqu e
Ġmor t
ĠA M
ĠA TION
Ġj unction
Ġj oined
Ġy s
so ph
int ed
Ġen ed
Ġent ion
Ġent ia
Ġmat ical
ious ness
Ġer y
Ġi or
Ġi us
Ġant s
Ġing ly
Äłin c
Äłin s
Ġul ate
Äłm ag
Äłde f
Äłcon c
Äłcon cl
ÄłP er
ÄłA N
Äłdis p
Äłv ari
Ġord in
ÄłC ON
indis cern
ÄłÄłÄłÄłÄłÄłÄłÄłÄłÄłÄłÄłÄłÄłÄłÄł ÄłÄłÄłÄłÄłÄłÄłÄł
Ġou ld
pirit ual
ĠÃ¢Ä¢Ä ¶
A ND
B OL
G IN
I OM
L LI
M ont
N IC
O k
W iz
a ver
b t
h all
l or
l van
m ount
n os
r in
r is
u ck
Ġ .
Ġ /
Ġ ie
Ġ ern
Ġ ires
Ġ ÄłÄłÄłÄł
Ġ icable
Ġ xi
Ġ ibility
Ġ izes
Ġt il
Ġt ers
Ġa ly
Ġa ins
Ġo ph
Ġo te
Ġc ul
Ġc el
Ġp ect
Ġb i
Ġf fici
Ġn ed
le j
Ġit ive
Ġit io
om in
Ġh at
Ġas es
Ġu g
Ġu ll
Ġu ous
iv um
os pect
Ġon d
Ġg one
ĠI C
ĠI T
Äł ed
Äł ve
Äł ill
Äł pos
Äł ro
Äł with
Äł object
Äł reason
Äł contradict
Äł comple
Äł dif
Äł ap
Äł where
Äł intellig
Äł val
Äł neg
Äł imag
Äł oblig
Äł design
Äł acqu
Äł Ãĥ
Ġat is
Ġr aw
Ġus ions
ph arm
Ġst it
Ġst ood
Ġj oy
et amorph
Ġar k
Ġpl es
ĠC E
ism is
ach use
Ġen ess
Ġent ial
ang le
ra p
Ġres pond
Ġi gh
Ġi able
Ġac k
Ġans c
ique Sol
Ġover t
Ġce ived
RE M
Äłin de
Äłs ch
Äłs ign
Äłs atisf
Äłc ol
Äłre cogn
Äłf all
sc r
ĠÃ ĥ
Äłm ist
Äłp un
than k
Äłde v
Äłh y
Äłh um
Äłh yp
Äłcon ver
Äłex cl
Ġ7 8
Ġver sa
Äłpr ot
ÄłC om
err one
UND ER
Tr ancendent
ÄłI m
Ġou gh
Ġyield ing
Äłind u
Ġound ed
Ġud ing
Ġud ed
Ġtern al
Ġak es
Äłcoun ter
Äłcirc um
1 00
6 55
A H
A b
A pp
A pr
A str
A nt
B E
B od
B ole
C r
C ogn
C ON
D o
D es
D em
D ak
D et
D el
D ON
D IS
D ES
E AL
F IN
F UT
F OU
G S
G ign
H old
H ypothe
H amps
I P
I nd
I ll
I mag
I BOL
I GIN
J udgement
L aw
L ook
L ED
M ich
M and
M od
M ast
M OR
N at
N ol
N un
N umer
N eg
N ew
O v
O x
O bject
O nt
P re
P henomen
P un
P ers
P ost
P ro
P ER
P AR
P rop
P lat
S h
S im
S cept
S ach
S ocr
T U
T e
T em
U TION
V ari
W el
W IS
W AN
X IOM
Z en
a ed
a um
a est
a ign
a ug
a ert
b u
b ur
b ul
b tr
b ial
b urd
b vious
b oast
b enevol
c le
c ent
c ation
c ans
c od
c ens
c ro
d r
d y
d it
d ich
d ecess
d ise
d ro
e ter
e th
e ur
e org
f le
f ol
f ide
f ant
f oc
f requ
f ool
f air
f als
f oot
f ri
g em
g ard
g art
g ra
g ene
h i
h or
h ur
h us
h ast
h tm
h ole
h arm
i ation
i ec
i ogn
i othe
i ably
i ps
i ocr
j u
j uris
k o
k ak
l ical
l ib
l iber
l aps
l ax
l oric
l ah
l aud
m ar
m ate
m il
m el
m ole
m ometer
m icros
n est
n arr
n ob
n oc
n arrow
n cret
o il
o be
o ister
p it
p ing
p ut
p ate
p ol
p ered
p odeict
p air
r ic
r an
r if
r ality
r av
r ane
r ip
r oyal
r anc
r ho
s ink
s we
s edu
s ident
s light
s af
s oft
t us
t ol
t of
t uition
t ress
u end
u ber
u fact
v il
v ig
v est
v estig
v iol
w re
w ar
w ide
y om
y ear
y rin
z ard
~ ),
Ġ )
Ġ <
Ġ ich
Ġ ject
Ġ hen
Ġ iate
Ġ irm
Ġ ief
Ġ ired
Ġ ization
Ġ ibly
Ġt le
Ġt ort
Ġt ending
he ad
he av
Ġa th
Ġa ud
Ġa med
on ten
in her
in ex
in sp
in tern
in stit
in conce
in compar
in hab
in strum
Ġo ly
Ġo ll
Ġo id
Ġo od
Ġo ck
Ġo unt
Ġo ok
Ġthe w
re ce
re tr
re str
re fin
re mit
re ward
re arr
re vel
re vere
re inst
re pet
re miss
it ab
is os
is iana
en es
en em
en ch
en man
en ni
en cro
at he
at om
at ag
at ern
er mon
er iality
ion et
Ġs ist
Ġp it
Ġp ly
Ġp end
Ġp position
Ġp ict
Ġp pose
Ġp posed
Ġp posing
al ism
al hall
ic ut
Ġin k
nd oubted
es crib
Ġb at
Ġb ent
Ġb ject
Ġb ul
or phist
or ibus
Ġto u
Ġm our
Ġm ount
Ġm itted
ce l
Ġf f
Ġf ast
an as
an arch
Ġn ight
Ġe ur
Ġe min
se ar
se ld
le ag
Ġit er
Ġit ude
Ġd u
Ġd ition
st ud
st ret
om s
om it
om orphist
ent ient
ent uck
ar ie
as er
as hing
as ym
Ġh or
Ġh ing
Ġas ure
Ġu it
Ġu ch
the sis
the ism
the olog
the osoph
iv ol
iv ating
im measur
ition em
Ġan a
Ġan ch
Ġan ted
id ical
ib il
ir mat
ir ks
ir reconci
ur ate
ur su
ur ope
ci pit
qu aest
res pon
ist ingu
ist ration
Ġor g
ception em
ec ub
if ici
and a
per man
per miss
per dur
Äł is
Äł ple
Äł fore
Äł here
Äł op
Äł The
Äł exist
Äł ma
Äł wor
Äł ep
Äł exam
Äł appl
Äł separ
Äł produ
Äł consist
Äł employ
Äł constit
Äł mathemat
Äł speci
Äł conform
Äł predic
Äł demonstr
Äł expl
Äł obser
Äł Wh
Äł abs
Äł sec
Äł anim
Äł illustr
ul ary
Ġall oyed
con ca
con du
ve ill
ve get
ch arm
ch allen
ch ican
il as
il ater
ill imit
Ġat a
Ġat ic
Ġat om
aw aken
am a
am ber
am und
am atic
am big
ab und
pl au
de al
de ep
de light
de velop
de grad
um mat
um ni
ol ix
ol umb
ol ta
min uend
tr avag
Ġr y
Ġr ous
Ġem pt
Ġv arying
stand ard
od ox
pr ae
Ġim ent
Ġim ate
Ġhe d
Ġhe mat
Ġab ol
ad vers
ad minis
ad uc
Ġper tain
su pre
pos sident
Ġk ill
ind ivid
ind emonstr
ind escrib
ind istingu
Ġif ying
ex pon
ex travag
Ġse vered
our able
ac op
ac erv
un inter
un fit
un exception
un yield
un recogn
un veil
so vereign
ment ary
Ġar ily
el abor
el ucid
el ench
sol ip
pre mis
pre jud
pre limin
ag matical
iz ations
Ġcaus ed
Ġgr ace
me asure
com part
com posit
ivers ity
ser v
ser ious
pro xim
ici i
ro bor
xim ately
par allel
ĠE S
sy non
sy llogistic
sy lvan
ke y
ass ured
ass achuse
cons entient
cons ummat
dis sert
ĠM ON
und eter
ER NIC
In corrupt
In noc
sub div
sub rept
sub reption
Ġi ld
rel inqu
TI TY
mon ogram
mis appre
Ġes tr
isl and
Ġut ions
dom ain
Ġce ive
RE FUT
des pot
des pair
Äłin tr
Äłin cl
br ief
fer t
Ġful ness
All gem
no olog
leg itim
Ġmed i
Äłc r
Äłc le
Äłc ur
Ġprof itable
ru g
Ġul ation
conf ront
inv iol
inv alid
sc hes
CE LLI
gu arante
Äłm ain
Ġold est
Ġation al
Ġ9 6
OR IES
Su btr
Äłde t
Äłde fin
inf lex
Äłex c
Äłex press
gl imp
gress ion
ST UL
ST AND
Ġic k
you th
ik lej
ref lex
Äłpr of
che mist
proble m
inter pol
Ġfortun ately
ÄłC h
Ġcultiv ated
intu itive
co acerv
ÄłE X
Äłpre v
add ress
Ġog ical
embr ace
accomp any
Äłan n
sym pat
Ġell ed
Ġct ive
Ġach ing
appe al
Ġcrib e
Ġcrib ed
OP ERNIC
lab oure
phil odox
Che seld
enn sylvan
Äłir re
erum nos
Quod lib
necessit at
soph istic
Mont aign
Ok lah
Wiz enman
pharm acop
scr ut
erumnos iqueSol
! *
! ).
! **
! *****
" :
" ).
' ,
' ll
( #
( Â§
) [
) âĢĿ;
) ?"
) ":
* :
, -
. _
. ).
. )âĢĶ
0 3
0 9
7 75
8 3
8 4
8 655
: _
; âĢĿ
? _
A W
A re
A part
A utonomy
A xioms
B enevolence
B JECTIVE
C an
C opyright
C reator
C ogito
C ynics
D as
D eduction
D uty
D avid
D onations
E Y
E dition
E ither
E ach
E ven
E thics
E lements
F E
F reedom
F OR
F airbanks
F ailing
G E
G eometry
G eneration
H art
H utcheson
I RE
I ENCE
I ndeed
I UM
J ust
K Ã
L C
L ake
L ATION
M B
M y
M ore
M uch
M ark
M ON
M any
M oney
M odality
M idnight
N or
N ay
N UM
N ovember
O ther
O ne
O UT
O THER
O SITION
O therwise
O bservation
P ain
P IR
P ACE
P ortions
P OSSIBILITY
P ossession
P MB
P OSITION
R esult
S END
S olution
S econd
S ummum
S atirae
S hort
S imilarly
S YSTEM
S ections
S ulzer
S etting
T M
T O
T ot
T hen
T able
T ell
T ENCE
T ALITY
T ecum
U nder
V er
V anilla
V irginia
W here
W ell
W HAT
Y et
] -
_ )
_ ),
a i
a ves
a ises
a ii
a version
a ithful
a versed
b ent
b ow
b end
b ind
b ations
b led
b ases
b ooks
b orrow
b ank
b irth
b orn
b roken
b orne
b lessed
b oldest
c it
c ut
c ate
c ard
c art
c ost
c ue
c ode
c ited
c ibly
c ope
c ury
c ription
c endi
c odes
d ing
d ere
d ate
d ers
d ness
d read
d own
d iction
d atum
d ouble
d umb
d abilis
d abile
d ismis
e ternity
e utic
e leology
f at
f as
f ate
f ord
f ear
f usion
f ted
f latter
f ume
f utation
f ling
f ashion
f elt
f ictions
f ourth
f lying
f ecundity
g ical
g un
g ated
g old
g ered
g ree
g ner
g ave
g les
g izing
g reement
h s
h ire
h ated
h int
h ollow
h ode
h ouse
h undred
h alf
h iatus
h ateful
h orizontal
i is
i ad
i ers
i age
i ety
i atives
i ased
i ery
i unt
i works
i asm
i hi
j ack
j uries
k ill
k ansas
l er
l ity
l ay
l ate
l am
l ary
l ant
l ays
l ost
l are
l iness
l ives
l ower
l iving
l ively
l anguage
l ery
l iable
l ogicians
l ength
l oses
l iking
l oss
l orn
l iberum
m r
m us
m ans
m est
m able
m ish
m med
m ma
m arch
m ists
m ier
m illion
m phiboly
m idnight
n s
n y
n il
n um
n ance
n ers
n amed
n ares
n ament
n abilis
n aked
o at
o al
o of
o ak
o ever
o ble
o existence
o ppose
o pposes
o ins
o osing
o pposites
p g
p ith
p ay
p ain
p sis
p ires
p age
p els
p upil
p ulsion
p ub
p orts
p overty
r on
r act
r ous
r ose
r ict
r ise
r ink
r ived
r ang
r ange
r ises
r up
r ained
r idge
r ival
r andom
s al
s ic
s ical
s ine
s ize
s aken
s ides
s io
s ential
s ending
s cribes
s piritual
t i
t ist
t ig
t ile
t ful
t ension
t itle
t ending
t ts
t itles
t ender
t ax
u o
u es
u ed
u est
u ers
u ine
u ided
v o
v us
v ant
v iate
v idence
v iction
v isible
v icious
v ature
v ogue
v illain
w er
w ither
w hence
w arn
w arks
w anted
w ider
w atch
w rought
w inning
x es
y ourselves
y ms
z es
z ing
z ed
´ ris
Ã ©
Ã Ģ
Ã ´ris
ĉ ĠĠ
Ġ Ċ
Ġ nder
Ġ âĢĶ
Ġ ience
Ġ ield
Ġ idence
Ġ iction
Ġ icians
ĸ NI
ĺ _
Ġt as
Ġt ab
Ġt ies
Ġt uition
Ġt ac
Ġt ute
Ġt ong
Ġt ied
Ġt ree
Ġt reason
Ġt ang
Ġt ween
Ġt aint
Ġt ild
Ġt orn
Ġt imid
he at
he ard
he ment
he me
he alth
he aded
Ġa ter
Ġa qu
Ġa int
Ġa uth
Ġa ward
Ġa vers
Ġa iothe
Ġa erumnosiqueSol
on or
on os
on ant
on ness
on ism
on ted
on set
on net
in er
in ant
in form
in sensible
in sist
in complete
in ctive
in sensibility
in admissible
in determinate
in secure
in hering
in herence
in uating
in structive
in experienced
in itial
in determinable
in cogitable
in security
in convenience
in nabilis
Ġo x
Ġo ce
Ġo th
Ġo ption
Ġthe at
Ġthe istic
Ġthe ft
Ġthe osoph
re action
re wards
re ap
re ached
re lease
re straint
re aching
re search
re taining
re jected
re coverably
re prehensible
re pulsion
it a
it ly
it ical
it ant
it atively
it het
it ivae
it ivum
it iation
is ect
is ans
is io
is que
is pered
en ame
en ance
en ment
en ious
en ounce
en ables
en closed
en ry
en ounced
en ouncement
en ouncing
en lightened
en unciated
at ant
at ers
at ism
at ived
at ists
at ient
at iable
at orial
er or
er ve
er ies
er ted
er ious
er io
er ially
er als
er vation
er isk
Ġw on
Ġw omen
Ġw ind
Ġw ire
Ġw ast
Ġw ood
Ġw ars
Ġw rests
Ġc c
Ġc ure
Ġc um
Ġc oll
Ġc ree
Ġc over
Ġc ode
Ġc hed
Ġc ited
Ġc lement
Ġc hes
Ġc ru
Ġc row
Ġc ash
Ġc overt
Ġc aring
Ġc itab
Ġs ic
Ġs or
Ġs ou
Ġs ar
Ġs qu
Ġs and
Ġs ore
Ġs ad
Ġs ible
Ġs can
Ġs atis
Ġs wor
Ġs ix
Ġs ibility
Ġs eduction
Ġs well
Ġs ling
Ġs ick
Ġs ieve
Ġs atir
Ġs itus
Ġs inner
Ġs incerity
Ġs nares
Ġp s
Ġp iv
Ġp il
Ġp um
Ġp all
Ġp ud
Ġp op
Ġp ledge
Ġp ates
Ġp ious
Ġp ique
Ġp ick
Ġp ock
Ġp icked
Ġp iec
al d
al es
al ved
al ities
ic it
ic le
ic us
ic um
ic ide
ic ations
ic ative
ic ine
ic acy
ic uity
ic ero
Ġin im
Ġin con
Ġin ch
Ġin ad
Ġin ca
Ġin op
Ġin cogn
Ġin action
Ġin ext
Ġin consequently
Ġin most
Ġin consist
Ġin consider
Ġin cess
Ġin super
Ġin ert
Ġin completely
Ġin cul
Ġin appro
Ġin serted
Ġin completeness
Ġin co
Ġin verse
Ġin applicable
Ġin formed
Ġin organ
Ġin heres
Ġin hab
Ġin corrupt
Ġin access
Ġin sect
Ġin active
Ġin fects
Ġin off
Ġin experienced
Ġin considerable
Ġin adequ
Ġin itial
Ġin imitable
Ġin cogitable
Ġin convenience
Ġin itiation
es ce
es see
es pecial
es pun
es cence
es erving
Ġb os
Ġb ur
Ġb end
Ġb ide
Ġb un
Ġb oy
Ġb ast
Ġb read
Ġb arr
Ġb ane
Ġb ull
Ġb orn
Ġb ungl
Ġb iog
Ġb oister
Ġb isect
Ġth in
Ġth rif
or k
or ing
or se
or as
or ation
or ld
or um
or able
or my
or ously
or icians
or ifies
or ters
Ġto p
Ġto ll
Ġto ur
Ġto il
Ġto to
Ġto uc
Ġto wer
Ġm ess
Ġm ad
Ġm other
Ġm onstr
Ġm arr
Ġm ob
Ġm arch
Ġm ild
Ġm utation
Ġm alle
Ġm icros
Ġm ecum
Ġm ocks
Ġm ihi
ce les
ce ased
ct uating
ing ence
ing enesis
Ġf ic
Ġf og
Ġf et
Ġf ought
Ġf ond
Ġf ost
Ġf are
Ġf oun
Ġf ath
Ġf ather
Ġf ood
Ġf ool
Ġf olly
Ġf ores
Ġf ecundity
Ġf oil
Ġf rug
Ġf iery
an a
an um
an ies
an tern
an ating
an atory
ed o
ed ition
ed icated
Ġn ation
Ġn ig
Ġn our
Ġn ational
Ġn igh
Ġn ug
Ġn aming
Ġn aked
Ġn Ã´ris
Ġe is
Ġe at
Ġe ction
Ġe uth
Ġe ffici
Ġe cess
Ġe rection
Ġe get
Ġe adem
Ġe lude
se a
se ated
se ven
se arched
se vered
ou ched
ou isiana
Ġis ible
Ġis land
le a
le te
le aving
le ologia
Ġre i
Ġre ar
Ġre act
Ġre pr
Ġre now
Ġre form
Ġre pose
Ġre posed
Ġre cede
Ġre sem
Ġre tains
Ġre taining
Ġre minis
Ġre prim
Ġre acts
Ġre versed
Ġre converted
Ġre plies
Ġre prehensible
Ġre served
Ġre commencing
Ġre sear
Ġit em
Ġit ate
Ġcon st
Ġcon str
Ġcon gr
Ġcon quest
Ġcon ger
Ġcon grat
Ġcon strained
Ġcon noisseurs
Ġd ar
Ġd aw
Ġd ab
Ġd ig
Ġd ally
Ġd are
Ġd ang
Ġd atis
Ġd ra
Ġd ug
Ġd inner
Ġd edicated
Ġbe at
Ġbe ast
Ġbe ating
Ġbe atis
Ġbe think
Ġbe ckon
Ġbe fit
Ġbe ware
Ġbe held
Ġbe aten
st o
st all
st ory
st age
st ains
st amp
st umbling
st amps
st ormy
om a
om uch
om istic
om ists
om itted
ent er
ent ive
ent ality
ent ance
ent ers
ent ures
ent ification
ent uring
ent angles
ent angled
ent ral
ent angle
ot a
ot o
ot ic
ot ing
ot ently
ot ives
ot omy
ot istic
ar ther
ar ment
ar ice
ar ising
ar gue
ar ithmetic
ar cation
as y
as ive
as ide
as ible
as hed
as hes
as cribe
as serted
ut a
ut ans
ut ary
ut ations
ut ers
ut ably
ut ability
ut ants
ut rality
ut sches
Ġh ur
Ġh ate
Ġh anged
Ġh unt
Ġh unted
Ġh orizontal
Ġh alved
Ġpr imit
Ġpr ice
Ġpr ating
Ġpr ized
Ġpr ius
Ġpr hole
Ġas ing
Ġas ed
Ġas cribes
Ġas sem
Ġas semble
ll ing
ll ess
ll ating
Ġu ity
Ġu me
Ġu phold
Ġu bi
the st
the me
the ian
the sin
iv ion
iv ized
iv ided
iv ery
iv ocation
iv endi
iv abilities
im en
im us
im ality
im ination
im manent
im posed
im acy
im properly
im perfectly
im ax
im parted
im mense
ition ers
ation is
ation ary
os a
os ed
os ities
os itionem
os cendi
Ġan eous
Ġan atom
Ġex ul
Ġex pos
Ġex cogitate
Ġex ponent
Ġex cogitating
Ġon ic
Ġon us
Ġon omy
Ġon wards
Ġl ent
Ġl og
Ġl if
Ġl ad
Ġl ame
Ġl un
Ġl ived
Ġl iar
Ġl iterary
Ġl ik
Ġl acks
Ġl owers
Ġl ax
Ġl oft
Ġl oud
Ġl oved
Ġl apse
Ġl aug
Ġl antern
Ġnot es
Ġnot ed
Ġnot ation
Ġnot ably
Ġnot io
Ġnot iced
Ġnot icing
pt s
pt ure
pt uous
pt ember
pt ians
pt oms
pt ivating
pt hs
pt otic
ess entially
ow a
ow ner
Ġwe ed
Ġwe ary
Ġwe igh
Ġfor ty
Ġfor cibly
Ġfor lorn
Ġfor saken
id a
id le
id able
id dy
ib ule
ib ilia
Ġsu e
Ġsu pe
Ġsu pel
Ġsu aveolens
Ġsu icide
ence ment
cept s
cept io
cept ibility
cept ivae
ter ing
ter able
ter rent
ter ror
ld ier
ir ous
ir teen
ir pate
ir recoverably
Ġg ate
Ġg ame
Ġg ather
Ġg allow
Ġg erms
Ġg estic
Ġg aming
Ġg onos
Ġg arment
Ġg iddy
Ġwith al
th ither
th read
th rown
th irteen
ur b
ur o
ur able
ur ring
ur ning
ur ities
ur ia
ur ists
ur rection
ur mount
ur idical
ci a
ci o
ci an
ci le
ci ples
ci llating
ver itable
ver ts
ver bal
ver bial
ĠI mit
ĠI owa
qu od
qu acious
qu ando
og ance
og ony
og rap
res ol
res set
res urrection
ist inct
ist rict
Ġor ation
Ġor ical
Ġor ious
Ġor nament
ere t
ain e
Ġcan onic
ec k
if old
if ting
if iable
and eur
per or
per ate
per ous
per ative
per ty
per tains
per forms
per formed
per ceptive
per ceptible
per versa
per severed
per ceptio
âĢ ĺ_
Äł Y
Äł ce
Äł ec
Äł of
Äł her
Äł present
Äł mat
Äł sen
Äł ident
Äł represent
Äł nat
Äł read
Äł mon
Äł go
Äł mor
Äł happ
Äł limit
Äł just
Äł dem
Äł caus
Äł IN
Äł TH
Äł possess
Äł success
Äł jud
Äł character
Äł occ
Äł compre
Äł contin
Äł indic
Äł appre
Äł oper
Äł correct
Äł assum
Äł distrib
Äł need
Äł indis
Äł pursu
Äł qual
Äł Tr
Äł organ
Äł guard
Äł substant
Äł myst
Äł off
Äł accept
Äł necessit
Äł philosoph
ul as
ul ity
ul are
ul atio
Ġall o
Ġall ures
Ġall ured
em bers
em inently
em anating
rom ising
pp et
Ġpro xim
Ġpro ps
Ġpro claim
Ġpro pter
Ġpro posing
Ġpro jected
Ġpro verbial
Ġreason er
Ġreason ed
Ġreason ableness
ĠT od
ĠT ex
ĠT ell
ĠT wo
ĠT yp
ĠT ext
ĠT OR
ĠT IM
ĠT err
ĠT rade
ĠT ABLE
ĠT enn
ĠT eleology
Ġobject or
Ġobject ivized
con joined
con strained
con cert
con join
con noisseurs
ve to
ch ant
ch ild
ch ains
ch oose
ch anging
ch loric
ch aser
ch oosing
end ure
end um
end less
end ix
end ium
end owed
end ship
il an
il ate
il ful
il ious
Ġde ception
Ġde em
Ġde tain
Ġde pre
Ġde fer
Ġde ceptions
Ġde press
Ġde als
Ġde parts
Ġde alt
Ġde af
Ġde taining
Ġde bar
Ġde bat
Ġde posits
Ġde bt
Ġde lete
Ġde pths
ust eron
Ġal ive
Ġal get
ore st
Ġint us
Ġint ol
Ġint ends
Ġint emper
ple te
ple asing
ple ading
act ness
act io
act ments
Ġbut tress
us al
us age
us ius
hen sibilities
Ġha ir
Ġha ps
Ġha zard
ill ing
ill ains
Ġat or
Ġat um
Ġat ory
Ġat ors
aw e
aw ful
aw aii
am ur
am med
am usement
am bitious
ab ond
ab asis
ab ilia
ab stain
ab ulary
ab ama
pl ed
pl urality
Ġun i
Ġun ction
Ġun com
Ġun reason
Ġun ass
Ġun wise
Ġun lu
Ġun ten
Ġun read
Ġun hes
Ġun gr
Ġun will
Ġun att
Ġun comp
Ġun ison
Ġun think
Ġun satisf
Ġun adv
Ġun like
Ġun common
Ġun true
Ġun alt
Ġun fit
Ġun ri
Ġun critical
Ġun educ
Ġun sus
Ġun mist
Ġun utter
Ġun seen
Ġun concerned
Ġun becom
Ġun attained
Ġun popular
Ġun intention
Ġun holy
Ġun accompanied
Ġun prot
Ġun eas
Ġun warrant
Ġun ascertain
Ġun aware
Ġun worthiness
Ġun searchable
Ġun practised
Ġun supported
Ġun veil
Ġun skill
Ġun sought
Ġun enforceability
Ġun perceived
Ġun prepared
Ġun happily
Ġun righteous
Ġun caused
Ġun changeably
Ġun convincing
Ġun authorized
Ġun cultivated
Ġun instructed
Ġun civilized
Ġun ilater
Ġun sophistic
Ġun named
Ġun instructive
Ġun changing
de ed
de tain
de ceive
de jected
de posit
de veloped
de ficiency
de terrent
âĢĶ _
âĢĶ âĢĺ_
um n
um ans
um ble
um mate
um ping
um atism
ol aters
ig an
ig ations
ig ably
ig uous
ig uity
ig enesis
Ġca res
Ġ( )
Ġ( =
Ġ( ~),
ans ion
ans lated
ans gression
min e
min ently
min istration
ies ce
Ġlaw su
Ġlaw fully
Ġlaw fulness
Ġlaw lessness
Ġlaw giving
Ġlaw yers
tr ain
tr ays
tr action
tr aces
tr ying
tr ains
tr ouble
tr acks
tr ades
Ġsp ot
Ġsp end
Ġsp ared
Ġsp ati
Ġsp acious
Ġsp elling
Ġsp inning
Ġsp aring
Ġsp rang
Ġsp eck
Ġcom for
Ġcom ment
not her
of ficial
Ġr an
Ġr out
Ġr ud
Ġr ays
Ġr aking
Ġr ick
Ġr ouse
Ġr ock
Ġr isen
Ġr hapsod
Ġr ival
Ġr andom
Ġr ocks
est ial
est ine
ecess ary
Ġem ended
Ġem power
Ġwor ms
Ġso ber
Ġso ldier
Ġother where
Ġunder go
Ġunder line
Ġunder too
Ġunder gone
Ġv on
Ġv ary
Ġv ind
Ġv ult
Ġv oy
Ġv ivid
Ġv ote
Ġv indic
Ġv isions
Ġv ii
Ġv ouch
Ġv ider
Ġv otes
Ġv ogue
Ġv illain
Ġv eneration
Ġv arie
Ġv ivendi
Ġv illains
Ġtr ail
Ġtr ains
Ġtr ained
Ġtr ick
Ġtr illion
Ġtr amples
Ġtr ah
Ġtr ampl
Ġtr aduc
Ġtr aversed
Ġtr iad
Ġtr uest
Ġdo or
Ġdo st
Ġdo ve
Ġdo cile
Ġsen seless
fore going
fore gone
od eration
ĠThe oretic
ĠThe oric
pr it
pr imal
pr ior
pr ising
pr avity
pr olix
pr aises
ĠB ose
ĠB ON
ĠB ru
ĠB ox
ĠB AC
ĠB aum
ĠB onnet
use um
ge ance
ge tic
ak er
ak able
Ġnecess ities
Ġim in
Ġim moral
Ġim manence
Ġim properly
Ġim prud
Ġim proving
Ġim measur
Ġim mense
Ġim probable
Ġim movable
Ġim minently
Ġhe w
Ġhe ard
Ġhe ark
Ġhe ap
Ġhe ars
Ġhe mmed
Ġab use
Ġab ound
Ġab ort
Ġab ides
Ġab used
Ġab iding
Ġab lest
Ġab ounds
Ġab stain
Ġab omin
Ġab hor
Ġab ridge
Ġab stains
ound ing
ad a
ad ic
ad able
ad ise
ad ays
ad ology
ad icated
ad orned
Ġper il
Ġper sp
Ġper pend
Ġper missible
Ġper sec
Ġper version
Ġper verted
Ġper sever
Ġper vert
Ġper dere
Ġper fume
Ġper juries
Ġper verts
ori an
Ġform ative
Ġform idable
Ġform ulas
all er
all ation
all ibly
all oyed
Ġthem e
Ġnat isque
Ġno et
Ġno bly
Ġno vo
Ġno ogony
su n
su it
su es
su ited
su aveolens
su ffer
pir ing
pos al
pos ses
Ġsy ncret
Ġk not
Ġk ins
Ġk ai
ind irect
ind emonstrable
ever al
Ġreg ulation
Ġreg ulates
Ġreg imen
Ġus ers
ant y
ant ities
ant ibus
ant ithetic
Ġif ic
ex pose
ex poses
ex ceptions
ex ico
ex ponent
ex actness
ff ing
ph antom
ph aenomena
Ġsh ut
Ġsh un
Ġsh ines
Ġsh oot
Ġsh rew
Ġsh ift
Ġsh rink
ĠF ight
ĠF ollow
ĠF ree
ĠF RE
ĠF requ
ĠF als
ĠF urther
ĠF inal
ĠF ailing
ĠF lor
ĠF ranc
ĠF onten
ĠF arther
art ifices
Ġse as
Ġse ated
Ġse ize
Ġse lected
Ġse verest
actical ly
out ly
out ward
Ġcogn ate
Ġcogn ised
Ġcogn itable
Ġcogn izable
Ġcogn oscendi
Ġst ar
Ġst ag
Ġst ating
Ġst atis
Ġst up
Ġst ret
Ġst ock
Ġst ories
Ġst ationary
Ġst umble
Ġst outly
ud ence
Ġqu am
Ġqu od
Ġqu oted
Ġqu ibus
Ġqu ando
Ġphenomen ized
Ġphenomen ization
Ġrel ie
Ġrel ish
Ġrel inqu
Ġrel iance
Ġrel ativ
Ġrel ax
Ġrel apse
Ġev asion
Ġev asions
Ġev ading
Ġev ok
Ġev asive
ord ain
ord ant
present ly
wh ilst
wh ispered
Ġmor ose
Ġcons ole
Ġcons cient
Ġcons erv
Ġcons onant
Ġcons ervation
Ġcons ummate
ĠA ve
ĠA RE
ĠA way
ĠA lex
ĠA PPENDIX
ĠA XIOM
ĠA podeict
ĠA greement
ĠA mphiboly
ĠA nother
our ces
our aging
ac ute
ac knowledge
ac ademical
Ġj oc
Ġj ury
Ġj eal
Ġj ew
Ġj uridical
Ġj umping
Ġnature s
Ġacc use
Ġacc oun
Ġacc using
Ġacc idens
Ġman ent
Ġman ual
Ġman ufact
Ġman ners
un o
un ary
un connected
un pleasant
un anim
un essential
un corrupt
un mixed
un happy
un fold
un usual
un influenced
un attempted
un pleasantness
un yielding
un sa
un selfish
un enforceability
un righteous
un changeably
un profitable
un authorized
un fruitful
un fair
un broken
un alloyed
un suited
Ġapp oint
Ġapp ended
Ġapp ositionem
Ġtheir s
ca ptivating
sequ ent
for bid
for get
for sakes
Ġad mis
Ġad verse
Ġad hering
Ġad orn
Ġad herence
Ġad minis
Ġad junct
Ġad monition
Ġad orned
Ġad oration
Ġad ministration
nthe sis
ĠFor bidden
ĠP ut
ĠP ay
ĠP ha
ĠP oint
ĠP ne
ĠP ower
ĠP ages
ĠP lat
ĠP lain
ĠP OP
ĠP ossession
ĠP ursu
ĠP ennsylvan
Ġy n
to ld
Ġdis use
Ġdis sol
Ġdis pose
Ġdis arr
Ġdis sim
Ġdis may
Ġdis content
Ġdis like
Ġdis pensable
Ġdis solution
Ġdis clos
Ġdis regarding
Ġdis eng
Ġdis proved
Ġdis closed
Ġdis figure
Ġdis hon
Ġdis proportion
Ġdis agreement
Ġdis close
Ġdis favour
Ġdis miss
Ġdis united
Ġdis proving
Ġdis join
Ġdis ease
Ġdis allowed
Ġdis union
Ġdis agreeableness
Ġdis involved
Ġdis qui
Ġdis plays
Ġdis grace
Ġdis agreeable
Ġdis inher
Ġdis ciples
Ġdis concert
Ġdis posal
et e
et ing
et ates
et ites
et uous
Ġworld ly
str ive
str iving
str aight
Ġpre y
Ġpre ception
Ġpre determined
Ġpre conceived
Ġpre posit
Ġpre fixed
Ġpre dile
Ġpre fix
Ġpre lude
Ġpre decess
Ġpre cipit
Ġpre mier
here in
here with
here nt
here after
Ġle ction
Ġle vity
te acher
te leologia
ĠTh ou
ĠTh ree
ĠTh ousand
Ġch at
Ġch ose
Ġch art
Ġch ase
Ġch air
Ġch ican
ener gizing
ener getic
Ġpart isans
Ġpart icle
Ġpart aker
Ġar med
Ġar ks
Ġar bit
Ġar my
Ġar mist
Ġar cs
sp it
sp end
sp ite
sp arks
sp oke
Ġmoral ist
Ġmoral ized
ces ilas
tern itas
ĠS he
ĠS ens
ĠS pect
ĠS mall
ĠS oph
ĠS IM
ĠS ocr
ĠS YSTEM
ĠS ections
ĠS ulzer
ĠS ource
ĠS etting
ĠS PACE
ĠS kill
ĠS everal
sis mus
Ġph this
Ġph aenomena
el an
el ed
el le
el ater
sol ar
ens ate
ens oribus
ens urate
pre condition
pre ference
pre formation
pre determine
pre conceived
pre liminary
pre cision
pre rogative
pre miss
op oly
op ening
ag ent
ag ation
ag ination
ag ious
ag mentary
ag oras
fin e
fin al
fin ished
fin itude
fin itions
fin iteness
fin espun
ĠN D
ĠN on
ĠN il
ĠN ev
ĠN umber
ĠN ames
ĠN ecessary
ĠO ut
ĠO ther
ĠO reg
ĠO pposition
ĠO pposed
ĠO hio
ĠO bservation
ĠO bvious
ĠO BJECTIVE
ĠO perative
int end
int imate
int estine
Ġsub sequently
Ġsub serve
Ġsub joined
Ġsub scribe
Ġsub verted
Ġsub reption
Ġsub altern
Ġsub tlest
Ġsub serv
Ġsub tile
mat eriality
mat ron
Ġser ially
Ġser vant
imit s
imit ative
solute ly
Ġne fas
Ġne utrality
Ġma zes
nect icut
be o
be quest
be gun
be trays
Ġfar thest
ĠIn herence
ĠIn telligence
ĠIn cert
ĠIn vestig
Ġpresent able
Ġpl ate
Ġpl ant
Ġpl ast
Ġpl ants
Ġcaus as
Ġend ure
Ġend anger
Ġcomple tes
Ġcomple mental
Ġbel oved
Ġcont ext
Ġcont iguous
Ġcont agious
ĠG ive
ĠG ute
ĠG AL
ĠG OD
ĠG aining
ĠG ENERAL
ĠG eometry
ĠG eorg
ĠG oal
ĠG uided
ĠW ere
ĠW ise
ĠW OL
ĠW oh
ĠW erke
ĠW yom
ĠW alhall
ĠW ashing
ĠW orld
ost atic
ost ensive
ploy ee
ign ant
ign ia
ign ava
Ġgr av
Ġgr ants
Ġcontr ive
rit us
rit ory
The tic
The ology
com form
com mit
com pose
com posed
com ply
com positio
ĠC oun
ĠC lear
ĠC ap
ĠC AT
ĠC ogito
ĠC ynics
ĠC olumb
ĠC OPERNIC
ĠC oexistence
ĠC icero
ĠC entral
ast ly
ast ical
ser ving
form arum
ism a
Ġpos es
Ġpos se
Ġob edient
Ġob tus
Ġob viate
Ġdes pond
Ġdes cribing
Ġdes ider
Ġdes irous
Ġdes perate
Ġfound ations
old s
Ġcomm it
Ġcomm its
Ġcomm ended
Ġcomm ends
Ġcomm ensurate
Ġdist ances
Ġdist urb
Ġshould st
Ġshould ers
ari ably
Ġfollow er
ro ot
ro od
ro ad
ro amatic
spect ion
spect acle
ish ables
Ġrational istic
Ġrespect ed
Ġrespect ability
with hold
Ġpur a
Ġpur se
Ġpur posed
Ġpur ify
Ġpur port
Ġpur poseless
Ġrem orse
Ġdisc ard
Ġdisc overer
Ġdisc ursively
Ġdisc ouraging
ink s
ine ar
ine fficient
Ġinde bted
Ġinde fat
ĠH ob
ĠH ave
ĠH oly
ĠH oliness
ĠH ope
ĠH err
ĠH aving
ĠH OP
ĠH utcheson
ĠH ecub
ĠH onor
ĠH enry
ĠH awaii
ĠH umans
ĠH aller
Ġexam ines
Ġexam ining
der ives
Ġact um
Ġhapp ier
âĢĿ ?
âĢĿ âĢĶâĢľ
Ġfe ared
Ġfe ature
Ġfe asibility
Ġfe asible
Ġext ant
Ġext rem
Ġext ensions
Ġext orts
Ġext remit
Ġext irpate
Ġen light
Ġen clos
Ġen coun
Ġen counter
Ġen semble
Ġen acted
Ġen ouncing
Ġen unciated
Ġen cod
Ġen ric
Ġen actments
Ġen sues
Ġag endum
over come
over turn
over powers
over sies
over borne
Ġorder ly
par able
par ison
par aded
par simony
par oxysms
under take
under value
under mine
Ġground work
less ly
med iating
Ġsci re
Ġunivers itas
stit utes
ĠR ight
ĠR ules
ĠR ather
ĠR ATION
ĠR esult
ĠR idic
ĠR hode
ĠE t
ĠE ternal
ĠE ffect
ĠE lectronic
ĠE duc
ĠE gy
ĠE urope
ĠE lea
ĠE sto
Ġeffect ual
ell ipse
Ġter ror
Ġter restr
Ġter ritory
Ġpres cription
Ġout look
Ġout bre
ty pic
Ġexp ends
Ġexp ounded
Ġexp anded
Ġexp ansion
wo e
Ġquestion ed
Ġquestion able
Ġmaxim a
ophy sical
reason ed
reason ably
Ġhuman ly
Ġpossess or
ear th
ear ning
Ġass ists
Ġass ault
Ġam ple
Ġam iable
Ġam az
Ġam putation
Ġam usement
Ġam bitious
Ġreal m
Ġreal ist
Ġreal issim
Ġreal itas
Ġreal itatis
rough ness
Ġappl ause
Ġappl ications
Ġmind ed
av ish
Ġperfect s
Ġperfect ibility
Ġent is
Ġent angles
Ġent reating
Ġent hus
Ġmat hema
Ġmat urity
Ġmat erially
sen ess
Ġcrit ics
Ġcrit ically
phys ically
phys ica
Ġsim ul
Ġsim ultaneity
Ġatt ending
Ġatt aches
Ġatt ested
Ġatt entive
edu ces
ceed ing
ĠD ev
ĠD ynam
ĠD ialectical
ĠD emonstr
ĠD ifferent
ĠD iog
ĠD atur
ĠD istrict
ass on
ass ure
ass ures
ass ification
ident ial
ble matical
Ġbas es
). "
). [
cons in
cons ilia
hemat a
Ġsec ured
Ġsensuous ness
cogn itive
cogn itio
Ġimp el
Ġimp utes
Ġimp uted
Ġimp uting
Ġimp ug
Ġimp utable
Ġimp els
Ġimp etus
Ġimp iety
Ġimp atient
Ġimp eret
Ġorigin arium
Ġorigin arius
ular ly
ice berg
Th ree
Th ales
Ġcor ner
Ġcor rel
Ġcor relates
Ġcor pus
Ġcor robor
there d
there on
there with
there from
Ġinv ites
Ġinv iting
Ġinv inc
Ġinv ested
Ġinv ariably
Ġpoint ing
Ġpoint ed
Ġhere dit
Ġhere tof
necess itates
Ġnatural is
Ġnatural ist
Ġnatural istic
Ġnatural ists
ange lical
Ġshow er
Ġuniversal itas
dis appear
dis content
dis like
dis claim
dis connected
dis pleasure
dis solution
dis regarded
dis regarding
dis appearance
dis figure
dis claims
dis continue
dis appeared
dis plays
dis secting
Ġinf use
Ġinf ers
Ġinf lu
Ġinf lict
Ġinf using
Ġinf lam
Ġbet ake
Ġbet imes
can o
Ġexpl icative
Ġexpl anatory
ner vus
Ġsens itivum
Ġintellig ently
Ġintellig ibilia
Ġrequire st
Ġquant itas
ĠRe al
ĠRe ven
ĠRe public
ĠRe flection
ĠRe quire
ĠRe adable
ĠM S
ĠM en
ĠM ight
ĠM ont
ĠM air
ĠM ED
ĠM OD
ĠM AD
ĠM oh
ĠM etamorph
ĠM assachuse
ĠM otives
ĠM aine
ĠM ilan
ĠM oderation
ĠM useum
ĠM exico
ĠM elan
ys ics
Ġkind red
app arent
app etites
Ġmanifold ness
Ġnor mal
ught s
Ġap ology
Ġap olog
Ġhand ed
Ġhand iworks
Ġstr ife
Ġstr anger
Ġstr ik
Ġstr iking
Ġstr ipped
Ġstr atag
Ġwhere on
Ġwhere ver
Ġwhere of
Ġwhere upon
ccess ion
Ġcharacter ize
Ġcharacter ization
Ġconc ert
Ġconc aten
Ġconc ordant
Ġdem ur
Ġdem urred
Ġdem arcation
phenomen ization
othe ism
Ġrest ores
Ġrest oring
Ġanaly zed
ingu ishable
Ġref uge
Ġref rained
Ġref utations
Ġref usal
reg ion
reg ions
reg ulating
reg ister
reg num
reg ularly
Ġdiv est
Ġdiv iding
Ġdiv inity
Ġdiv erted
Ġsum mit
ev iating
ev angelical
Ġnotion al
Ġcomp ute
Ġcomp ressed
Ġcomp iled
Ġcomp anies
Ġcomp endium
Ġadv ises
Ġadv ocate
Ġadv entures
und iminished
Ġdedu cible
Ġcontradict ed
Ġcontradict ories
contr ol
contr action
contr acted
contr oversies
ĠL ake
ĠL ove
ĠL eg
ĠL imitation
ĠL aert
ĠL amber
ĠL AW
ĠL LC
ĠL ouisiana
ĠL imits
ĠL astly
ĠL earning
Ġfree zing
Ġsupreme ly
ER UM
Ġconcl usio
Ġconcl usiveness
Ġres ort
Ġres ists
Ġres ource
Ġres cue
Ġres ources
Ġtruth ful
Ġtruth fully
Ġremain der
Ġremain ders
Ġ1 000
Ġ1 15
Ġ1 13
Ġ1 40
Ġ1 10
Ġ1 45
Ġmost ly
Ġdec ry
Ġdec ade
Ġmet amorph
ĠU s
ĠU bel
ĠU ta
ĠU NITY
ĠU ndoubted
ĠU NUM
fic ence
Ġill imitable
irm ative
lear nt
acc ustom
acc idens
Ġsupp ress
Ġsupp ression
Ġsupp lant
Ġsupp orters
Ġpredic ata
Ġexpress ive
Ġconsist ed
Ġconsist ence
Ġphys ic
Ġphys iological
Ġphys iogn
Ġcontent less
Ġnow ise
Ġnow adays
intuition al
In finite
In experienced
In tending
Ġtot um
represent able
represent atio
Ġconf use
Ġconf luence
Ġconf uted
Ġconf uting
Ġconf utation
Ġconf ront
Ġmathemat a
Ġmathemat ic
pend ant
Ġer go
Ġer adicated
Ġmot to
Ġaff ixed
Ġaff irmat
Ġcl ay
Ġcl oak
Ġcl imax
sub mit
sub mitted
sub species
sub serve
sub ordination
sub tlest
sub traction
sub sequent
sub stitutes
Ġconcept as
Ġi i
Ġi er
Ġi ent
Ġi ality
Ġhypothe sin
rel ating
Ġproble matic
ĠCon sid
ĠCon stitution
ĠCon fusion
ĠCon viction
ĠCon necticut
ath y
wor se
Ġsatisf actions
Ġind ustr
Ġind ulg
Ġind istinct
Ġind ignant
Ġple ased
Ġconform ing
Ġconform ability
Ġsuccess ions
Ġsuccess ors
Ġworth less
Ġstand still
raph ies
sert orical
read er
read ers
read ily
Ġup per
Ġac id
Ġac hed
Ġac hes
Ġac ademical
Ġac roamatic
Ġright ful
law giver
Ġel uded
Ġel angu
Ġel icited
Ġel icit
Ġel imination
Ġocc ult
cont iguity
Ġder iving
Ġconcern ment
,âĢĿ [
mon opoly
Ġleg is
Ġleg ion
Ġleg acy
Ġleg ibus
opher s
avour able
Ġimag ined
Ġimag ines
Ġimag ining
trib unal
Ġconsequ ens
Ġconsequ ential
Ġexer tion
Ġexer ts
Ġmetaphys ician
Ġemployment s
Ġparticular ize
Ġneed y
ention alism
Ġnum bered
Ġmod ify
Ġfur thered
mis conceptions
mis chievous
Ġgu est
Ġed it
Ġed ited
Ġed ifying
Ġwant onness
hes itate
hes itation
hence forward
Ġfin ish
Ġfin itude
Ġindic ations
ĠĠĠĠĠĠĠĠĠĠĠĠĠĠĠĠĠĠĠĠĠĠĠĠ ĠĠĠĠĠ
Ġant ip
Ġant agon
Ġsc ru
Ġsc ope
Ġsc orn
Ġsc rup
Ġsc heme
Ġsc anty
Ġneg atives
Ġneg atio
Ġneg lected
part ies
subject ing
pect s
arr anged
arr ogance
oubt ingly
Ġmain ly
come ts
do cs
Ġlogic arum
Ġmethod ically
Ġcommand ments
Ġphysical ly
Ġmean ness
Ġmean while
Ġvirt uously
Ġless en
Ġless ens
ĠTH OU
Ġbelie ving
Ġimport unity
go at
Ġover gr
Ġover take
Ġover bal
Ġover sight
Ġover fl
Ġover takes
Ġover charge
Ġover thrown
Ġmen ace
ogress ively
Ġhence forward
transcendental is
Ġdog s
Ġsol ar
Ġsol us
Ġsol utions
Ġnon entities
Ġspeci erum
Ġspeci osa
mor row
Ġlong ings
Ġhold est
Ġanswer able
Ġequ ity
Ġequ ations
Ġequ ivocal
Ġequ ivocation
nature d
Ġing enious
Ġideal e
Ġco here
Ġco ars
Ġco heres
Ġco hering
Ġco erce
Ġpost hum
Ġpost erio
Ġexcept ing
Ġformal iter
gr uity
gr oss
gr oping
gr image
gr andeur
ĠPr ior
ĠPr ofessor
ĠPr agmatical
ĠPr imacy
ĠSu ccession
Ġcontin ent
Ġcontin ents
Ġbound ed
Ġbound ary
Ġher ald
Ġprev ention
Ġprev alent
ail able
Ġess endi
will ingly
Ġident atis
Ġident itas
Ġpleasure s
dist ance
dist ract
Ġdoubt ing
Ġdoubt less
Ġprov able
Ġprov idential
Ġinst ability
Ġinst antly
Ġinst inctive
Ġinst igations
Ġdialect ics
Ġdialect ically
Ġdialect icians
Ġdialect ician
Ġhar ass
Ġmis used
Ġmis employment
Ġmis fortun
Ġmis application
Ġmis apprehension
Ġmis ery
Ġmis conceived
Ġmis understand
Ġmis carr
Ġmis chievous
Ġpass age
Ġpass io
Ġpass ively
Ġpreced ence
Ġargument ation
Ġargument um
Ġden ial
Ġden ounce
Ġden oted
Ġappre ciate
Ġmaterial e
Ġmaterial ist
ĠAs k
ĠAs soci
ĠAs sertorical
Ġprogress es
Ġprogress ive
Ġprogress ively
Ġgener is
Ġgener ic
Ġgener ate
Ġgener ating
Ġoblig ations
Ġoblig andi
Ġoblig antibus
Ġbeginning s
oc ritus
ties t
Ġallow ing
Ġprom ised
Ġprom inently
Ġprom pted
Ġvari ation
Ġvari ations
Ġvari eties
Ġvari etates
Ġfall ible
Ġsuper fici
Ġsuper added
Ġsuper ann
Ġsuper sensual
Ġsuper subtle
Ġimperative ly
Ġce ptions
sim ultaneity
Ġaw ful
ne y
ne ighbour
dif fers
bl ock
nt ial
Ġpeculiar ly
Ġlegisl ators
.âĢĿ âĢĶ
Ġfal seness
For mal
disc ord
disc redit
disc overer
disc ursively
strict ly
strict est
ave lled
cor ner
cor relate
cor ruption
RE ASON
Ġharmon izing
some one
ull ed
ull itions
Ġav ow
Ġav owed
Ġav arice
Ġcirc ulate
Ġund a
Ġund o
Ġund emonstr
Ġund iminished
Ġund eserving
Ġund ivided
Ġund eviating
Ġund oubtingly
des iring
des cribing
ĠY ear
ĠY ork
Ġcontingent ia
Ġbr other
Ġbr igh
what soever
right s
right ful
right fully
lar ge
Ġconj oins
Ġfurther s
moral ists
sh ut
sh ore
sh ield
sh arp
sh ifting
les ome
Ġsing ly
Ġsing ulare
Ġvol o
Ġvol unteer
Ġvol cano
sist ence
sist ency
Ġign ava
Ġign oble
Ġintellectual ists
consid ers
Ġjud icii
Äłin qu
Äłin vol
Äłin trodu
Ġtreat ises
erse y
br aska
br utum
br idle
ck er
ck ily
Ġspring ing
Ġintr ude
Ġintr usive
Ġintr ospect
ĠAn ne
ĠAn nihil
ĠAn ax
ĠAn imality
fer re
Ġconv ulsion
Ġcorrect s
Ġcorrect ed
pres sible
pres cribe
pres cribing
pres erving
pres erve
limit less
inde xes
Ġpret ty
Ġpret ences
Ġpret ends
Ġpret ending
Ġdistrib utor
sensuous ness
Ġpar ading
Ġpar oxysms
Ġpar cel
Ġpar adise
ĠHe aven
ĠHe teronomy
EC TION
All ow
All heit
where in
where fore
Ġcriticism s
Ġinfer ior
leg es
ood less
ech ism
Ġdeterminate ly
Ġignor ing
Ġignor atio
Ġauthor itatively
Ġmed ical
Ġmed itate
Ġmed dle
Ġmed ley
Ġmed itating
Ġmed icine
rem ember
rem oval
rem embered
rem embers
world s
pens ated
comm only
comm encement
Ġcontinu a
Ġcontinu i
Ġcontinu ation
Ġcontinu ations
pur ity
pur poseless
pur chaser
Ġcompar ationis
intellig entia
intellig ibilis
fe res
fe asibility
Ġmoment ary
ĠUn ion
ĠUn question
ĠUn iversity
IS M
IS TENCE
rational istic
imp elled
imp els
imp etus
imp otently
imp etuous
bel ow
just ly
Äłs a
Äłs ac
Ġinfin itude
Ġinfin itus
Ġfield s
Ġexhib iting
Ġtrans form
Ġtrans ference
Ġtrans formation
Ġtrans port
Ġtrans ports
ĠEx planation
Ġseek est
att end
att ending
att aches
att aching
Äłc re
Äłc op
Äłc reat
Ġins ured
Ġins incerity
Ġins inuating
Ġins atiable
Ġins urmount
Ġins ensate
Ġrecogn izing
Ġrecogn izable
Ġpain t
Ġpain ters
Ġexcl usions
Ġcomb ative
Ġcomb ining
Ġ3 000
Ġ3 8655
Ġdesign ations
Ġanteced ens
Ġcosmological ly
Ġtranscendent ly
Ġabstract s
Äłre c
Äłre n
Äłre st
Äłre strict
comp el
comp ass
comp etent
comp ulsion
comp assion
comp ete
respect ively
Ġcompre hens
Ġcompre hensibility
IN CIPLES
IN CLUDING
Ġ5 2
general ness
Ġke ys
igh s
incl uded
Ġbl end
Ġbl oodless
Ġsur passing
Ġsur mise
Ġsur moun
Ġsur faces
Ġsur veill
Ġsur gical
ĠAr ithmet
ĠAr kansas
ĠAr rived
ĠAr tist
Ġpursu its
Ġfore ver
Ġfore go
Ġfore thought
Ġfore seen
Ġfore stall
separ ation
separ ated
separ ating
separ ately
ific ed
ific ial
system a
system s
system atical
Ġpsych olog
Äłf ig
Ġdel uding
Ġdel udes
Ġdel iverance
Ġdel ivery
Ġapodeict ical
Ġintrodu ctory
produ cing
Ġappro ves
Ġappro ving
Ġappro ached
Ġappro aching
Ġappro bations
consist ence
Ġkingdom s
Ġstates man
Ġmanifest ed
Ġmanifest ly
Ġmanifest ation
ĠV oid
ĠV au
ĠV irtue
ĠV olunteers
ĠV irginia
ĠV ermon
ĠV olta
ĠV ERUM
Ġul ty
conf ounding
sum ma
Ġche ated
Ġche ats
ĠSp inozism
Ġcircum scribe
Ġcircum scribed
Ġcircum scribes
Ġcircum spection
employ s
cre ation
cre ate
Ġear s
univers itas
quant i
quant um
quant itative
quant itatis
quant orum
Ġlet s
Ġlet ting
Ġagree ing
Ġorgan izations
Ġro of
Ġindividual s
Ġsignific ant
Ġpostul atum
perfect ions
perfect issimum
ĠJ urists
ĠJ uno
ĠJ ersey
Ġens ured
distingu ishes
TH IS
TH IRD
Ġline ar
Ġge ograp
div ine
div inity
div isions
div ested
sc hemata
mathemat ic
mathemat ically
Ġvolition s
ĠK ingdom
ĠK ansas
ĠK entuck
ĠRE FL
ĠRE LATION
Ġsepar ations
ae que
ae ternitas
Ġtest is
Ġtest ing
speculative ly
Ġcreat es
Ġcreat ors
Ġcare lessly
Ġdeser ved
Ġdeser ts
Ġvarious ly
ren ounce
apt ation
apt itudes
Ġoff ended
Ġoff spring
Ġutter s
Ġutter ing
ins ured
ins omuch
ins piring
ins ignia
Äłd r
Äłd og
Äłd edu
Äłd ialect
Äłd ogmat
possess or
possess ing
possess ed
Ġdisp uted
Ġdisp elled
Ġdisp assion
Ġdisp utants
Ġuseful ness
Ġfa de
Ġfa cia
cogit ation
cogit ates
Ġaccept able
Ġacqu ires
Ġacqu iesce
Every body
Ġcre de
ven ing
ven ged
Ġgen esis
ĠÃ Ģ
Ġadopt s
gu ide
gu ided
gu iding
tot o
presu pposing
Ġgain er
Ġsimilar ities
Ġopp ortunities
Ġfavour s
Ġfavour ing
Ġlight en
Ġlight ly
Ġcosm otheology
Ġcosm icus
Äłp o
question es
Ġprop ound
Ġprop ortions
Ġprop ounds
Ġprop aed
Ġprop agation
?âĢĿ âĢĶ
Ġsure r
Ġoccasion al
Ġdogmat izing
Ġschool man
analy sing
analy sation
Ġold er
origin ate
conform s
conform ing
conform ed
Ġdat ae
Ġforth with
predic able
belong ed
Ġdestroy s
Ġta uro
demonstr able
demonstr ates
demonstr ating
Ġinter fered
Ġinter course
Ġinter rupted
Ġinter secting
Ġinter feres
Ġinter vening
should ers
Ġconver se
Ġconver sio
Ġfr actions
Ġfr aming
Ġfr atern
Ġfr ivol
Ġfr agmentary
Ġreflection s
Ġconstruction s
Ġkeep s
success ions
Ġdom estic
Ġdom inant
imin al
prov ide
prov ision
prov ides
purpose ly
Ġmag ical
adv antages
adv ocate
adv enturing
Ġart ist
Ġart istic
Ġart ists
Ġart ifices
Ġart ifici
Ġart ificial
real ize
real izes
Ġmechan ics
Ġannihil ation
Ġcomparison s
ĠAN TIC
content ed
Ġir ref
Re ality
Re flection
Re futation
Re alities
occ urs
occ asions
Ġredu ction
Ġredu ces
Ġdown ward
Ġdown wards
Ġdown fall
Ġtransc ended
non entity
non entities
Ġ9 1
Ġ9 3
Ġ9 4
Ġ9 7
Ġ9 8
Ġ9 000
compre hension
ret reat
ret urn
great ly
discover ies
crit ically
far ther
Ġindis solu
Ġindis soluble
Ġdef ences
Ġdef ensive
Ġdef ended
Ġdef ensoribus
Ġadm ired
Ġadm ixt
Ġadm oto
ĠWith in
correspond ence
vol unteer
when ever
press es
universal itas
Ġprob ity
Ġprob andi
Ġfan atical
Ġpriv ation
Ġplain er
Ġplain est
Ġfear fully
Ġclass ification
investig ate
investig ated
den y
den ies
since re
Ġsever ity
Äłl ist
Äłl ab
struct ure
Pr of
Pr udence
Ġfail s
Ġfail ure
Ġdivers a
Ġdivers ified
Ġsophist s
Ġsophist ry
Ġprevent ing
Ġopen ing
Ġopen ly
Ġanalog ously
lat er
lat ent
lat est
attain ment
Ġur n
Ġur y
Ġur ge
claim ants
ĠOR IGIN
Ġsk ilful
Ġpublic ly
Wh ich
Wh oever
Ġback ward
Ġfour fold
ĠIm agination
ĠIm materiality
ĠPro cess
ĠPro positions
ĠPro vidence
ĠPro perty
ĠPro ceeding
Ġplan et
Ġassign ing
Ġstandard s
Ġabsurd ities
Äłde pr
particular ity
aff ord
aff air
aff irmed
Ġpract ise
Ġpract itioners
through out
Ġrec urs
Ġrec urring
Ġhum bly
ustr ation
truth s
truth ful
truth fulness
turn s
Ġwrit ers
Ġconfin es
Ġprocess ion
Ġprocess ors
ĠAt qui
ĠAt omistic
Ġchain s
proceed ed
mot us
ater al
ED OM
Ġturn ed
Ġturn spit
rest ing
rest ed
Ġsa ves
Ġsa fer
post erity
post poned
post pone
inf it
inf allibly
Ġsent ences
Ġbene ath
Ġborrow s
Ġelev ate
Ġelev ations
Ġweight iest
Ġstud ied
Ġcontrib uted
Ġobsc urities
Ġafford ed
Ġdomain s
Ġmajor ity
ug nance
Äłh armon
play ed
TIC ULAR
look ing
Ġmist ress
super natural
super human
neg atively
neg atived
before hand
conting ently
Äłcon sequ
indic es
indic ations
indic ative
Ġproduction s
Ġaxiom atic
Äłex per
Ġperform ances
Ġpreser ver
Ġpreser ving
ĠDe ceived
ĠDe fects
ĠDe ficiency
ĠDe gree
ĠDe utsches
ĠDe finitions
Ġearth ly
Con junction
Con sciousness
Con sistency
draw s
stant iality
mind ed
Ġgl ad
Ġgl ances
Ġgl orifies
Ġcap abilities
Ġeng age
Ġeng ages
Ġeng agement
appre ciate
Ġintention al
Ġqual ifies
Ġqual ifying
As k
Ġpay able
Ġpay ment
Ġnecessit as
Ġnecessit ating
Ġsubsum ing
Ġsubsum ptions
ST AN
Ġfit test
ÄłP U
consequ ent
umer able
expect ing
expect ation
cul pable
cul ae
cul prit
Ġ7 50
Ġcr ied
Ġcr ush
Ġcr iminal
.) [
_. âĢĻ
Ġestim able
Ġproportion ately
ĠPRO VIDED
Ġsubl unary
Ġaggreg ated
Ġaggreg ates
Ġreflect ive
feel s
imag inary
por al
logical ly
Ġ6 000
ÄłA b
Ġguard ians
Ġpopular ly
Ġrep el
Ġrep elled
Ġrep aired
Ġrep etition
Ġrep entance
Ġrep utans
Ġrep ugnance
assert io
assert orical
assert orial
Ġont ology
Ġont otheology
Ġhabit a
Ġhabit ual
Ġhabit ually
Ġren ouncing
Ġreturn ed
Ġexc iting
Ġshort en
Ġshort ness
Ġdisappear ance
Ġfew er
Ġextensive ly
Ġinquire r
Ġinquire rs
Ġcheck ing
Ġcheck ed
Ġver ge
Ġver ification
Ġver ifying
Ġver acious
Ġver bi
ref use
ref lect
ref und
ref utation
ref lective
ref lected
Äłpr act
Äłpr ogress
supp lies
fortun ately
pret end
pret ension
pret ended
equ itable
equ als
equ ivocal
conscious ly
human ae
plic anda
." ]
Ġcal oric
Ġcal umni
Ġbad ly
Ġbad ness
Ġbold est
Ġbold ness
Ġbeh oof
Ġpros cribed
Ġexec utes
Ġexec utive
Ġextr action
Ġextr aneous
Ġextr aneously
Ġextr acted
Ġextr amund
Ġdev ises
Ġdev ised
Ġdev iating
Ġdev oting
Ġpersu ading
Ġcausal itatis
Ġendless ness
Ġenjoy s
Ġenjoy ed
ĠEm peror
Ġpromot ed
Ġavail ing
che ck
che cks
PL E
dog ma
Ġmin ute
Ġmin erals
ank ly
found s
found ations
Ġplay ed
Ġ0 1
Ġ0 2
Ġlea f
observ able
observ ance
Ġsafe guard
pass es
pass age
Ġtw ice
Ġwond ers
Ġwond rous
Ġbu ys
Ġbu yers
Ġsuggest ing
Ġsuggest ive
trans form
trans fer
trans fers
trans lated
Ġheav ens
Ġaccord ed
Ġderiv ativ
Ġspecif y
Ġexperiment ing
Ġexperiment ed
view s
view ed
inter change
inter vention
inter changed
inter preted
appro ves
appro val
appro ximately
OG IES
scept ical
scept ics
signif y
second ary
Ġord aining
deg rade
establ ishes
establ ishment
intellectual is
IL EI
PR INCIPLES
find ing
Ġum pire
Ġum pires
ĠNO THING
pot entially
Ġtal ks
inst inct
inst abilis
inst illing
conv ince
conv ictions
conv entionalism
Ġcharge able
preced ed
Ġgrad ations
Ġconvin ces
Ġlist ing
Ġlist ed
Ġlist ener
Ġlist ens
Ġlist ened
Ġweak er
Ġweak ens
ĠNot ions
ĠNot withstanding
ĠEvery where
Ġesteem s
Ġesteem ing
Ġillustr ative
Ġillustr ated
Ġillustr ates
Ġconfess es
Ġconfess ing
Ġfinal is
Ġtransgress ed
Ġtransgress ions
Ex position
Ex ternally
Ex actly
Ex planation
Ex tension
Ġfortun ae
Ġimit ative
Äłr atiocin
fact itious
show s
tal ks
tal ents
Ġid em
Ġid leness
Ġid olaters
positive ly
Ġ15 0
Ġ15 5
distinction s
Ġprot est
Ġprot ection
Ġprot uber
Ġvan ishing
Ġ20 16
Ġ20 13
Ġ20 20
fall ing
fall acious
Ġhind ered
Ġcompl ain
Ġmeasure s
Ġperi uria
Ġaddu ces
ĠInt ensive
ĠWh ich
ĠWh ile
Ġsubstant iate
Ġsubstant iality
ĠDis junctive
ĠDis pute
Ġconfirm ations
Ġanticip ates
Ġanticip atory
Ġprofound ly
Ġpsychological ly
ĠKant ian
direct or
restrict s
restrict ions
doubt s
doubt ing
doubt fulness
ĠIN CIDENTAL
ĠIN TU
anteced es
anteced ens
dec ision
dec ides
dec ried
dec lare
Ġpat ience
Ġpat ched
Ġpat ches
anthrop ological
ÄłD I
ÄłD IS
among st
except ing
except ivae
work ing
Ġfruit fulness
Ġfruit lessness
Ġdur able
unal tered
unal terable
abstract o
abstract s
Ġair s
Ġair less
Ġwar mest
Ġsound ness
Ġinj ure
Ġinj ured
lead ing
Ġhyp ophysical
Ġforbid ding
Ġsuff ice
Ġsuff iced
Ġsuff icing
Ġattr active
Ġattr acted
Ġsym ptoms
Ġstart ing
Ġstart le
Ġstart les
Ġstart ling
Ġprejud ge
ĠCON CLUSION
Ġcommun is
Ġcommun ion
Ġcommun ities
Ġcommun io
Ġcommun icate
Ġadmir ing
Ġminor ity
gener ation
gener ated
gener ating
correct ing
correct ed
RI CELLI
Äłe lev
affirm ation
affirm atively
An alytical
An cient
Ġtrib es
Ġtrib ute
assum es
occup ying
maintain ing
acher s
compar ative
compar atio
Ġve hement
Ġcultiv ates
Ġcultiv ating
concl ude
concl uded
concl udes
concl usiveness
abs ent
Ġ10 5
Ġsett ling
Ġcounter s
Ġcounter act
Ġcounter part
Ġcounter bal
Ġcounter acts
Ġtast es
Ġcur o
Ġcur ta
Ġcur vil
sec ured
Ġdict et
Ġhy dro
Ġsusp ension
Ġobjection able
Ġrank ed
Ġpremis es
ĠNe braska
ĠObject ively
comb atant
Ġimpart s
Ġapproxim ations
Ġapproxim ates
Ġapproxim ating
Ġgovern s
Ġgovern ed
enlar ge
distrib uted
distrib uting
clear ing
sour i
answ ered
progress ive
need s
need less
col oured
col umn
mod us
mod ality
mod ern
mod ification
mod ifying
mod eration
ri ot
ri pture
Ġmon as
Ġmon adology
Ġmon otheism
see ks
ott ish
prop ose
prop ensions
prop ortions
prop Ã¦deutic
prop ensity
deduction s
prom o
prom ised
prom ising
prom otion
Ġbre ast
Ġbre aking
Ġbre vity
method ical
method ology
co exist
co existent
Ġtell us
Ġcle ver
Ġcle aving
Ġcle aves
Ġpenetr ated
Ġpenetr ating
Ġinward ly
Ġrecomm ends
Ġrecomm ending
Ġrecomm ender
Ġdr ive
Ġdr iest
Ġdr inks
Ġdream ing
Ġhard er
Ġhard ens
Ġhard ware
result ed
Ġdepr ived
Ġdepr iving
Ġdepr aved
Ġdepr avity
ĠAuthor s
ĠPer manent
ĠPer ceptions
ĠPer manence
ĠPer suasion
Ġdisclaim s
Ġdisclaim ed
Ġprefer ring
Ġarchitect onically
Ġpresum ptuously
Ġpresum ptuous
Ġnumer o
Ġnumer ation
Ġnumer ically
Ġapprehend s
Ġapprehend ing
Ġcalcul ations
Ġcalcul ating
Ġhyper physics
Qu ality
Qu antity
SI US
Ġast erisk
anim a
anticip ations
anticip ated
anticip ating
grad ation
grad ations
grad ual
grad uation
continu ing
continu ed
continu ity
continu ance
AN TITY
af oresaid
render s
eng aging
PH ICAL
PH IBOL
long est
Ġann ual
Ġann ounce
Ġann ounced
Ġann ulled
metaphysic a
Ġaugment ing
Ġaugment ed
Ġaugment ation
Ġcent ral
Ġfashion able
Ġrepro ached
Ġrepro aches
Ġdimin ution
Ġhorizon s
Ġpra ising
ĠTr ademark
ĠTr illion
ĠTr ansgression
Ġdepart ure
Ġdepart ments
Ġalleg es
Ġalleg ation
Ġdoll ar
Ġshap es
Ġshap ing
ĠOr der
material s
ĠCom mon
ĠCom munity
ĠCom parison
Ġindetermin able
Ġindetermin ateness
Ġoutward ly
Ġexerc ising
Ġoverstep s
Ġfaith ful
Ġmagn et
Ġmagn ified
Ġmagn etic
Ġcolour s
affect ion
affect ation
affect ions
cop ical
cop ied
coun tries
coun sels
mo ved
vari ations
vari ance
vari eties
Äłsu ff
Äłsu ggest
flu idity
opp ortunities
Ġinc ited
Ġinc urred
Ġinc urable
Äłtr ansc
cap acity
AB OUT
search ing
add ing
add ressed
Ġinner most
entia e
term ing
understand s
Ġinstruct ors
Ġfl ap
Ġfl oat
anc ers
imental ism
Ġanthrop ological
Ġanthrop omorphist
sophist ry
evol ent
evol ved
cour t
pet itio
Ġwa ited
Ġwid en
Ġwid ening
Ġcred ulity
Ġinstit ution
Ġinstit utions
Ġthreat s
Ġthreat ens
Ġmut ilate
Ġmund i
Ġnull a
Ġnull o
Ġnull ifying
Ġrepe ating
Ġconject ured
Ġpropens ities
ĠTot um
Ġunb iased
Ġuniform ly
Ġprincip ii
Ġprincip iis
Ġviol ation
Ġviol ating
prof it
prof ound
Ġimprov ising
Ġimprov ements
Ġimprov idently
Ġquar rel
ĠAl most
ĠAl abama
ĠApp rehension
ĠApp endix
ĠAnt icipations
Ġsubmit ting
ĠMe iklej
Ġconceal ing
Ġdecom pose
Ġdecom positio
Ġimperfect ions
Ġintuitive ly
Ġpeace able
Ġcontempor aneous
ĠPhys iology
ĠPhys iocr
Ġappeal ing
Ġsacr ifices
Ġsacr ificed
Ġhypostat ization
Ġhypostat izes
80 9
Ġist is
admit s
admit ting
Ġclos ing
Ġclos est
po em
formal iter
educ ation
educ ators
deser ves
deser ved
deser ted
commun e
commun is
Ġfix ing
Ġreconci ling
Ġreconci lable
aggreg ation
aggreg ates
apply ing
account s
Ġtechn ique
Ġtechn ically
Ġmid way
Ġrevol ve
Ġrevol ves
Ġrevol ved
Ġrevol utions
embr aces
Ġdeal er
Ġdeal ing
Ġrad ius
Ġrad iating
Ġvis ual
Ġvis ited
Ġvis ibly
Ġshar per
Ġshar ply
ĠĠĠĠĠĠĠĠĠĠĠĠĠĠĠĠĠĠĠĠĠĠĠĠĠĠĠĠĠĠĠĠ ĠĠĠĠĠĠĠĠĠĠĠĠĠĠĠĠĠĠĠ
ĠGree ks
Ġgrow s
Ġdesp ises
Ġdesp ised
Ġdesp icable
Ġdesp air
Ġenumer ated
Ġenumer ating
ĠEX PER
ĠEX ISTENCE
Ġmodel s
ĠMan ifold
Ġcompens ated
Ġcompens ates
Ġ12 0
Ġ12 5
Ġ12 40
Ġguarante es
Ġguarante eing
Ġoverlook ing
Ġfault s
Ġfault less
Ġirre voc
Ġirre coverably
Ġirre parable
Ġirre pressible
ĠSystem s
Ġobscure ly
ĠChrist ians
dogmat a
dogmat ic
dogmat ist
dogmat izing
dogmat ists
ĠNew slet
ĠNew sletter
ĠNew tonian
Ġred ness
ĠST AH
pursu e
pursu ing
pursu its
furn ished
furn ishing
sus ceptionem
sus ceptibility
Ġten or
Ġpo et
Ġpo orest
Ġpress ing
qual itas
qual ifies
pract icable
don ations
mechan ical
mechan ics
throw ing
rent ly
Ġcour t
Ġcour ses
Ġru ins
Ġconven iently
remark ed
remark able
remark ably
Äłg en
Ġaltern ative
Ġaltern ating
psychological ly
Ġboast s
Ġboast ing
Ġboast ful
Ġexempt ed
Ġlic enses
Ġlur k
Ġsun ny
Ġsuit ability
Ġunf illed
Ġunf aithful
Ġunf olds
Ġunf avourable
Ġspo ke
Ġspo iled
Ġsophism a
Ġvac ans
ĠSome thing
Ġsubstit utes
Ġcontempt uous
Ġphilosoph ic
Ġphilosoph ies
Ġphilosoph ized
Ġphilosoph ically
Ġphilosoph izing
Ġentertain s
Ġentertain ment
Ġinvalid ate
Ġsolic ited
Ġcoinc iding
Ġcombat ant
Ġkey stone
ĠANAL OGIES
Ġdefend ers
Ġspiritual e
Ġspiritual ist
Ġmulti plies
Ġmulti plicanda
Ġsubstantial e
ĠChristian ity
Per ception
Per fect
Per haps
Tr ansition
Tr anslated
excl usion
excl ude
excl uded
excl udes
discern ed
discern ment
design ing
design ations
destroy s
destroy ing
destroy ed
organ um
organ ized
dev ote
dev ices
Leibnitz io
Leibnitz ian
Sp inozism
St ill
St ars
Un conditioned
Un ited
Un iverse
Un iversal
Un fortunately
Ġhes itates
invol ve
contempl ation
contempl ate
contempl ates
contempl ating
meaning less
41 09
Metaphys ical
treat ise
infin itude
Äłth reat
defect s
Ġstead y
evil le
soul s
Ġfat ality
essential ia
discus sing
Ġfair ness
dogmatical ly
Ã¦ sthetic
Ġomit ting
Ġsil ly
Ġsil ently
Ġpupil age
Ġband s
Ġbirth place
Ġnarrow ly
Ġnarrow est
seem ing
Ġlab oured
Ġlab oure
Ġlab yrin
ĠIs land
Ġdece ives
Ġtrust ees
Ġperplex ities
ĠAb solute
ĠAb ove
Ġchild ish
Ġmyst ical
Ġmyst ics
Ġmyst ery
Ġmyst erious
Ġmyst icum
Ġfell ow
Ġassist ing
Ġassist entiae
Ġimped es
Ġimped ing
Ġimped iment
ĠMORAL ITY
ĠConcl uding
Ġ25 00
Ġirresist ibly
Ġfancy ing
Ġsketch ing
Ġobey ed
Ġsuffer ance
Ġsuffer ings
Ġridic ules
Gr ace
yllogism os
Ġell ipses
assign s
accur ately
accur acy
THE OREM
support ing
accompan ies
accompan iment
.. .
.. .âĢĿ
.. ..
endeavour ing
adm ired
adm irable
exc iting
exc uses
prev ailed
process es
advance d
advance ment
Ar ithmetic
Ar cesilas
De fect
bal anced
cosm ologia
hon ourable
spont aneous
spont aneously
incre ment
introdu ces
Ġnihil o
Ġnihil um
Ġish ment
transc ending
exhib its
prob ably
corrupt s
absurd ity
He aven
He teronomy
Not withstanding
access ions
merit o
peculiar ly
uit ously
Ġanim i
Ġanim am
Ġanim ality
Ġanim ated
Ġanim ates
Ġanim advers
que en
did actically
text s
ĠQu id
ĠQu ality
ĠQu od
ĠQu antities
Ġtext s
Ġos m
Ġfil ed
Ġfil ename
section s
Ġcast ing
Ġtrace d
Ġgrat ified
Ġgrat iae
Ġgrat uitous
Ġgrat uitously
met abasis
sur face
sur render
sur veyed
sur faces
sur prising
ĉĉ ĠĠ
ĉĉ ĉĉ
ĉĉ ĉĠĠ
Ġcat echism
Ġinn umerable
Ġinsist s
Ġinsist ing
Ġburd ensome
Ġreview s
Ġreview er
Ġreview ing
Ġdark est
Ġexagger ations
Ġexagger ates
Ġsust ains
Ġsust enance
ĠIll usion
ĠIll ino
Ġunexpected ly
Ġcompr ise
Ġround ness
Ġround about
Ġembarrass es
Ġembarrass ment
Ġvit am
Ġvit ally
Ġvit ium
Ġvict ors
Ġvict ories
Ġvag um
Ġvag abond
Ġsynon ym
Ġsynon yms
Ġsevere ly
Ġste el
Ġste ward
ĠAfter wards
Ġdispens es
Ġchar ms
Ġsubter rane
Ġmast ers
Ġmast ered
ĠGer mans
ignor ant
Ġcontrover sies
Ġencour aged
Ġencour agement
ĠEnd s
Ġcritic ized
Ġcritic ised
Ġcritic izing
Ġattach ments
ĠMis souri
ĠLOGIC AL
Ġ178 1
Ġ178 5
Ġ178 8
maj estic
Ġsuperfluous ness
Ġfigur atively
Ġfigur ae
occasion al
occasion ing
Ġdefici encies
Ġinduce ment
Ġmistaken ly
Ġpunct uation
Ġpunct ilious
Ġweakness es
Ġhinder ances
Ġpraise worthy
Ġrepeated ly
Ġfatal ism
Ġdeceit fully
Ph ysics
analog on
analog ies
analog ous
analog ue
analog ously
remo ves
remo ving
Ide as
TRIB UTION
bar ic
bar barism
revol t
revol ve
revol ution
revol ved
revol utions
enjoy s
enjoy ing
enjoy ments
del ay
del ivered
del iverance
det ected
Ġposit ives
contest s
occur red
Princi ples
creat ing
mag ic
test s
test ed
your s
keep ing
grat ified
grat ifying
grat uitous
substant iality
substant iae
Ġstruct ures
Em ployee
bring s
last ing
last ly
spr ings
Ġrom ancers
Ġeduc ators
intr insically
Ġtol erably
Ġmal evolent
acqu ired
soon er
close ly
Ġ13 0
Ġ13 5
prevent ed
71 2
Respect ing
fund raising
favour able
oe ia
popular ity
tent h
Ġsw im
Ġsw allowed
Ġsw ift
Ġpol itical
ulous ness
mail ing
Ġ45 57
hypothetical ly
rupted ly
fil es
fil ings
van ity
van ishes
van ishing
Ġastr ay
Ġastr onomy
Ġwarn ed
Ġwicked ness
Ġcens or
Ġcens ura
Ġsl umber
Ġsl ips
Ġsl avish
Ġpubl ication
Ġine fficient
Ġmar red
Ġmar ionet
Ġmar iner
Ġep ithet
Ġep igenesis
Ġissu es
Ġrevel ata
Ġredistrib ution
Ġaspect s
Ġanxi eties
Ġlow ered
Ġweaken ed
Ġwithdraw s
Ġwithdraw ing
ĠID EAL
Äłdes p
Ġprohib itive
Ġprolong ation
Ġunpleasant ness
Ġspecul ate
Ġspecul atists
Ġrig id
Ġrig our
Ġratiocin atio
Ġratiocin ati
Ġratiocin atae
Ġregular ity
Ġselect ing
Ġreluct ance
Ġreluct antly
Ġconsult ed
ĠAmong st
Ġappell ations
ĠPsych ological
Ġprepar ing
Ġprepar atory
ĠSe a
ĠSe gner
ĠSe ptember
Ġsubdiv isibility
Ġcontrol s
ĠCan st
ĠCogn itive
Ġvalu able
ĠRel igion
ĠRoyal ties
Ġsimpl er
Ġsimpl ify
Ġsimpl ifying
ĠDetermin ation
Ġinvent ed
Ġinvent ory
Ġinvent ors
Ġinfring es
Ġinfring ed
ĠMon th
ĠLaw s
Ġrespon sibilities
particip ation
particip ate
particip ant
particip ating
Ġharmonious ly
Ġappropri ation
Ġappropri ating
Ġomnis cience
ĠEpicurean ism
ĠMoral ists
Ġsacred ness
Ġrecommend ations
Ġarchetyp a
Ġrevolution ized
Ġ199 1
Ġ199 4
Ġ199 7
Ġ199 8
Ġ199 9
Ġcatalog uers
ĠIM MOR
artic ulation
artic ulatio
avail s
avail ing
requis ites
requis ita
PEND ENCE
ban ished
coinc ide
coinc ident
coinc ides
coinc idence
dict ation
dict um
dict ates
dict atorial
fl ashed
numer o
numer ical
numer ically
numer ica
pat tern
pun ishes
pun ishment
pun ishable
Ġpot ens
Ġpot entially
intention ed
circum scribed
authoriz e
authoriz ing
bene fit
bene ficence
cultiv ation
cultiv ating
fr ame
fr ankly
fal sely
ration ally
sent iment
sent imentalism
reconci ling
Ġpet itio
indu ction
indu ced
medi ation
IND EMNITY
exerc ises
exerc ised
signific ancy
Philos ophy
Philos ophers
17 5
17 39
Al ways
EG ORIES
Mathemat ical
Sy nthesis
fill s
fill ing
mem ory
writ ings
ones elf
Ġflu ency
Ġflu ctuating
perform ances
chief ly
Ġsoci al
indifferent ism
indifferent ists
Ġship wre
fort ified
conflict s
conflict ing
myst ical
comparison s
Ideal ist
ey es
fixed ly
horizon s
lie u
rain bow
run s
wit nesses
hetical ly
infer red
Ġbes et
Ġmer cury
Ġrob bed
Ġsensual ized
Ġsensual ists
Ġadvers ity
Ġadvers aries
Ġartic le
Ġartic les
Ġcontest s
Ġcontest ed
critic izes
manifest ly
manifest ations
Ġtemper ance
Ġcut s
Ġcut ting
Ġcustom s
Ġsal es
Ġsal utary
Ġsedu cing
Ġsedu ctive
Ġsoft ness
Ġincontest able
Ġball s
Ġmil es
Ġmil itant
Ġecon omy
Ġelucid ation
Ġelucid ations
Ġrever sely
Ġrever ti
Ġdread s
Ġdwell ing
Ġbeg un
Ġhit ting
Ġlive liness
Ġlof tiest
Ġloose ly
Ġdeed s
Ġhast e
Ġhast ens
Ġuninter fered
Ġunansw ered
Ġunanim ity
Ġ(_ )
Ġmel ius
Ġmel anch
Ġundermin e
Ġundermin es
Ġundermin ing
Ġundermin ed
Ġtroub lesome
Ġimpract icability
Ġpersist ed
Ġpersist ence
Ġshadow y
Ġstopp ing
Ġquit ting
Ġconsent iunt
Ġappet ites
Ġappet imus
ĠPers ius
Ġleap ing
ĠThought s
Ġargu es
Ġargu ed
ĠSc ripture
ĠSc ottish
ĠSen sibility
ĠOp inions
Ġserious ness
ĠGos pels
Ġgrate ful
Ġgross ly
Ġremed ies
ĠEngl and
Ġinviol ability
appoint ed
Ġindul ged
Ġindivid ually
Ġindivid uality
Ġimagin able
Ġimagin arius
Ġguess es
Ġantiqu ated
Ġcoal esce
Ġhero ic
Ġhero ism
Ġfals ification
Ġfals ify
Ġunden iably
Ġvolunt arily
Ġparallel ism
ĠArgum ent
Ġcollected ness
Ġfanci ful
Ġsignal ized
Ġextravag ances
Ġanthropomorph ically
Ġcredential s
Ġthreaten ings
Ġsharp est
Ġsharp ened
Ġpoison er
Ġunfair ly
Ġpragmatical ly
ĠMonad ology
ĠUNDER STAND
cur rent
cur iosity
cur vature
eg otistic
Ġlat est
embarrass ing
ĠUT F
Concl usion
568 2
Ġoc ular
Ġpon ens
Ġbar barism
Ġbar baric
cast ic
cast les
Ch aracter
Ch ange
Ch anges
Cont act
Cont ents
Cont ingence
bre aking
bre vity
carr y
carr ied
fail s
fail ing
fail ure
Ġble mish
ann ouncement
ann ouncing
asc ent
asc end
asc ension
impl ies
impl ied
impl anted
Äłpres er
emin ent
emin ence
emin ate
chimer a
chimer as
chimer ical
illustr ate
illustr ations
depr ive
depr ived
depr ives
prot ect
prot ensive
pros perous
pros pects
pros yllogismos
suggest s
suggest ion
suggest ed
Ġlear ner
Ġlear ning
Ġlear nt
prohib ition
prohib iting
prohib itivae
attack ing
Epic urus
Mor als
Sto ic
cal m
cert ificate
dest ined
elev ating
fa ithful
fam ily
lo quacious
mer ge
mer chant
oh n
penetr ate
touch ing
touch stone
wis er
instruct ress
enumer ated
Ġthrow s
thy self
threat ening
Ġproc ures
Ġproc ured
Ġproc uring
conject ures
confin ed
conven iently
specul ators
propri ety
contempt ible
product s
PLEAS URE
Ġ80 9
schol ar
circumst ance
62215 4
Among st
First ly
custom ary
firm ly
fault iness
high ly
pus hed
sure ly
Ġadequ ateness
Ġther mometer
attr action
attr actions
Ġwarrant ies
alter ations
Ġbow s
trace able
spread ing
prefer red
weight iest
Ġcorrupt ing
contrib ute
contrib uted
Ġresist ing
obvious ly
indefinite ly
belie ves
belie ved
invent ed
ĠÃ¢Ä¢Ä ¿
colour ing
false hood
178 1
178 7
Ġtempt ed
Ġtempt ation
Ġtheolog ian
Ġwander ings
Ġcand id
Ġcitiz ens
Ġsag acious
Ġincompre hensibilities
Ġincorrect ly
Ġindiscern ible
Ġinstrum ents
Ġincontrovert ible
Ġbro ad
Ġthir ty
Ġthwart s
Ġming led
Ġmock ing
Ġfam ous
Ġfam ily
Ġfam iliar
Ġfant astical
Ġnom adic
Ġnought s
Ġecl ipse
Ġret ort
Ġret orted
Ġrepress ed
Ġremind ed
Ġhour s
Ġhint s
Ġliqu id
Ġlangu or
Ġlament ed
Ġlament able
Ġsuppos able
Ġproject ile
Ġdeposit or
Ġalkal is
Ġunsol ved
Ġunquestion ed
Ġcomfort able
Ġempiric ists
Ġembell ishing
Ġvicious ness
Ġtriumph ant
ĠBec ome
Ġimmedi ata
Ġhearer s
Ġabut s
ĠFac ulties
ĠFOU RTH
Ġquick en
Ġquick ly
Ġquick ened
ĠAd aptation
Ġjuris prudence
Ġaccus er
Ġappend ix
ĠPre pared
Ġdiss ension
Ġdispar age
Ġdispar ata
Ġdispar aging
Ġdisappoint ed
Ġdisgust ing
Ġcharm ing
Ġchallen ge
Ġchallen ged
Ġchallen ges
ĠSh ould
ĠSh all
ĠSh allow
ĠOTHER WIS
Ġthank ful
Ġthank fulness
ĠInte ger
ĠGre cian
ĠWis est
ĠWis dom
ĠWis consin
ĠCl assification
ĠCopernic an
Ġobl ivion
Ġdiscret a
ĠHist orical
ĠHypothe tical
Ġenv ying
Ġenig matical
ĠEv il
Ġtert io
Ġimpot ent
Ġcorrection s
Ġinflex ibly
Ġapper tain
Ġanalyst s
Ġsummon s
Ġsummon ing
Ġsummon ed
ĠLat ins
Ġ18 2
Ġdecre ases
Ġillum inations
Ġsupplement ing
Ġsupplement ed
ĠOnt ology
Ġdegr ading
Ġelimin ate
Ġelimin ated
Ġelimin ating
Ġprovision ary
Ġinstant aneous
Ġbrief ly
Ġbrief est
Ġabsor ption
Ġabsor bed
Ġabsor bent
ĠExt ension
ĠExt ensive
ĠExt reme
Ġsurr ounds
Ġsurpass es
Ġsurrender ing
Ġ99 775
Ġ99 712
Ġindisp utably
ĠImper ative
Ġmistrust ful
Ġcrown s
Ġcrown ed
Ġdevi ation
ĠDisc ursive
Ġdescend ants
ĠNeg ative
Ġruin ous
Ġspoil s
ĠAbb Ã©
Ġfriend ship
Ġauthentic ity
Ġastronom er
Ġeconom ize
ĠPerson s
ĠPerson ality
Ġearnest ly
Ġepoch s
Ġrapid ly
Ã¢Ä¢Ä ¶
erect ing
erect ed
care fully
redistrib ution
redistrib uting
aut ia
aut omaton
Ġapt ness
Ġapt itudes
isol ate
isol ated
phil autia
acknowled ged
acknowled ges
fulfil s
fulfil ment
apprehend ed
contempor aneous
contempor aneously
Che mists
ĠQU ALITY
ĠQU ANTITY
Ġrect ification
Ġrect ify
Ġven geance
blind ing
imagin able
imagin arium
AT ES
Com munity
Com plete
Im possibility
Im manent
aud ible
astr ay
astr ology
adequ ateness
bat tle
bungl ers
bungl ingly
cher ished
cher ishes
citiz en
citiz ens
dur ation
dam age
dam ages
dile mma
dimin ution
dimin ishes
fanci ed
fanci ful
gen us
gen uine
govern ment
govern ments
hist orical
hist orian
hyp ocrisy
hyp ostatic
loc ations
loc ated
moun tains
mock ing
mock ed
null ity
null ifies
rhapsod y
rhapsod istic
tre ated
tre asure
temper ate
temper ament
voc abulary
wond er
wond ered
Ġener gy
inj ure
inj ury
incomp etent
incomp atible
reve als
reve aled
redu ction
redu ced
sever ity
imm ensity
imm utability
vert ently
empiric ist
empiric ists
consol ing
consol ation
ampl ify
depre ciation
depre ciated
depart ure
depart ment
tranqu il
tranqu ility
pron ounce
pron ounces
succeed s
succeed ing
antagon ism
antagon istic
exec ution
exec uted
exto lled
exto lling
Ġevol ve
Ġevol ved
unfortun ate
unfortun ately
tell s
tell ing
prepar ation
prepar ations
preponder ate
preponder ance
compl aint
compl acent
weak ens
weak nesses
ĠLI ABILITY
ĠLI FE
accompl ish
accompl ishment
Introdu ction
Introdu ctory
subsum ed
subsum ption
short est
short ening
apper tain
apper tains
ruin ous
comput er
comput ers
superior ity
figur ative
figur ae
symbol ical
school s
school men
Certain ly
EI THER
Logical ly
bes ide
back wards
ein heit
hio ko
mark ed
upright ness
uphold ers
Ġtur ning
Ġtur bul
inward ly
reject ion
itating ly
Ġcert ify
Ġcert ificate
altern ately
Ġban ish
Ġban ishes
Ġmus ic
Ġmus ician
Ġmill enni
secret ly
Ġconqu ered
Ġconqu eror
start ed
exert ions
acid s
unceasing ly
uniform ity
ĠPO STUL
ĠPER CEPTION
ĠPER SIUS
strong er
Theoretical ly
display ing
contrast ed
arrogant ia
Ġawa it
Ġawa its
correction s
philosoph ize
collect s
detect ing
cobweb s
splendour s
condemn ation
Ġtem ere
Ġtem poral
Ġtrem ble
Ġtrem bles
Ġtorment ed
Ġtorment est
Ġwarr anted
Ġwarr ants
Ġwild est
Ġwatch ing
Ġwretched ness
Ġcou ple
Ġcou pled
Ġcount s
Ġcount less
Ġsit uation
Ġsink s
Ġsap io
Ġpu ppet
Ġpu ffing
Ġpal pable
Ġpal ingenesis
Ġpill ow
Ġpill ars
Ġpoly theism
Ġpoly syllogistic
Ġpomp ous
Ġincompar able
Ġincompar ably
Ġbit ter
Ġblessed ness
Ġmir acle
Ġmir ror
Ġfif th
Ġfif ty
Ġfight ing
Ġfra il
Ġfra ilty
Ġfier i
Ġfier ce
Ġnes cit
Ġnes cio
Ġeb ook
Ġeb ullitions
Ġeff icacy
Ġeff eminate
Ġeulog ies
Ġeulog ize
Ġreign s
Ġreap ed
Ġrenew ed
Ġrecapit ulate
Ġrecapit ulation
Ġconced ing
Ġconced ed
Ġcondem ning
Ġcondem ned
Ġdull est
ste pping
ste eled
Ġhover s
Ġhover ing
Ġprae ter
Ġprae ferre
Ġproud ly
Ġprogram me
Ġash amed
Ġexceed ing
Ġexceed ingly
Ġexcess es
Ġexcess ive
Ġexhort ation
Ġexempl ification
Ġexempl ifies
Ġlust ful
Ġfort itude
Ġfort uitous
Ġforge ts
Ġforfe it
Ġforfe its
Ġgout y
ĠId entity
ĠId entification
Ġallot ment
Ġallure ment
Ġallure ments
Ġdefe at
Ġdefe ats
Ġdepict s
Ġdepict ed
Ġunw aver
Ġunw onted
Ġunre strained
Ġunre venged
Ġuntr ained
Ġuntr avelled
Ġunjust ifiable
Ġunguarded ly
Ġ(* )
Ġspher ical
Ġspher oid
Ġrot ten
Ġrot eron
Ġrhet oric
Ġrhet oricians
Ġva unted
Ġva cillating
Ġtranqu il
Ġtranqu ility
Ġimpregn ation
Ġimpregn able
Ġabsol ves
Ġabsol uta
Ġabund ant
Ġabund antly
Ġusurp ed
Ġusurp ation
Ġshame less
Ġstat ute
Ġstat utes
Ġquib ble
Ġquib bling
ĠAff inity
ĠAff irmative
Ġjugg ling
Ġjugg lery
Ġaccum ulation
Ġaccum ulated
Ġaccru ing
Ġaccru ed
Ġadjust ing
Ġadjust ed
Ġyaw n
Ġyaw ning
Ġdismis sing
Ġdismis sed
Ġdisappro ved
Ġdisappro val
Ġdiscontinu ing
Ġdiscontinu ed
Ġprecl ude
Ġprecl udes
Ġpreponder ate
Ġpreponder ance
Ġchamp ion
Ġchamp ions
ĠSing le
ĠSing ular
ĠSpirit uality
ĠSUB JECTIVE
ĠSUB STAN
ĠIncl ination
ĠIncl uded
Ġplun ge
Ġplun ges
ĠComp elled
ĠComp uters
ĠCOM MON
ĠCOM POSITION
Ġdespot ic
Ġdespot ism
Ġcommend able
Ġdistrust ful
Ġextol s
Ġextingu ished
Ġextingu ishing
ĠReciproc al
ĠReciproc ity
ĠEs se
ĠEs sential
ĠEqu ator
ĠEqu ivocal
Ġoutwe ighed
Ġoutwe ighs
ĠDE FIN
ĠDE PENDENCE
ĠDest ination
ĠDest itute
ĠDON ATIONS
Ġimpair s
Ġstray ed
Ġconcess ion
Ġconcess ions
Ġconcur rence
Ġconcur rently
Ġsumm ary
Ġsumm un
Ġadvised ly
Ġconfer red
Ġcloud ed
Ġarrog ate
Ġarrog ates
Ġacknowled ged
Ġacknowled ges
Ġoverthrow ing
Ġcoar se
Ġcoar ser
Ġcool ness
ĠSub sistence
ĠSub stantiality
Ġharsh ness
Ġmischief s
presum ption
presum ptuously
Ġblow s
Ġdeline ate
Ġdeline ated
Ġcheer ful
Ġcheer fulness
ĠKNOW LED
Ġinterrog ation
Ġinterrog ate
Ġfrustr ate
Ġfrustr ated
Ġbenef ited
Ġbenef iting
Ġglim pses
Ġglim mer
ÄłPh ys
Ġrepul se
Ġrepul sed
Ġtwist ing
Ġsympath ize
Ġsympath izing
Ġsymbol s
Ġsympat hetic
Ġsympat hetically
Ġcommunic ates
Ġcommunic ating
Ġvex ing
Ġvex ed
Ġvehic le
Ġvehic ula
ĠPerfect ion
Ġambigu ities
Ġambigu ae
Ġincit ement
Ġincit ements
Ġepisyllogism s
Ġepisyllogism os
Ġratiocinant is
Ġratiocinant es
Ġsanct ity
Ġsanct ification
Ġincapac itate
Ġincapac itates
Ġflatten ing
Ġflatten ed
ĠPHILOSO PHY
ĠPHILOSO PHICAL
sign s
Ġangu ish
Ġarch ives
deriv ation
Ġene tr
ĠEM PIR
Ġbal anced
Ġunt ouched
ĠOU GHT
Ġtermin ation
Ġale theian
Ġade pts
Ġoft ener
escap ed
Ġque en
Ġmort ification
ĠAM PHIBOL
Äłmag n
Ġordin ances
indiscern ibil
Ġxi ii
Ġcul pable
Ġcel estial
Ġbi as
Ġhat red
Ġrespond ed
Ġansc endent
Ġovert urning
REM ARK
errone ously
Trancendent al
100 00
Ab solutely
App rehension
Apr il
Astr onomy
Ant icipations
BE FORE
Bod ies
Bole yn
Cr usius
Cogn ition
CON CLUSION
Do es
Des pite
Dem ocritus
Dak ota
Det ection
Del aware
DON ATIONS
DIS TRIBUTION
DES IRE
FOU RTH
GS BERG
Gign i
Hold ing
Hypothe ses
Hamps hire
IP ATIONS
Ind iana
Ill ustration
Imag ination
Judgement s
Law s
Look ing
Mich igan
Mand eville
Mod o
Mast ers
Nat ural
Nol int
Nun c
Numer us
Neg ative
New tonian
Ov id
Ox ford
Object s
Ont ologia
Pre cepts
Phenomen a
Pun ishment
Pers ius
Post ing
Pro blematical
PAR TICULAR
Prop Ã¦deutic
Plat onism
Sh ould
Sim ply
Scept icism
Sach heit
Socr atic
Te achers
Tem pus
Vari ety
Wel come
WAN T
Zen o
bu ild
bur st
burd ensome
boast ing
benevol ent
cle arest
cent red
cans on
cens ura
dr iven
dich otomy
dise ase
eth ical
fle eting
fol k
fide lity
fant asy
foc us
frequ ently
fool ish
fals ity
foot ed
fri endship
gard ly
gart en
gra fted
gene alogy
hur ry
hast y
htm l
harm less
ju beo
juris diction
kak ov
liber ate
laps us
lax er
laud atur
mar vellous
mil king
mel ior
mole culae
micros copical
narr ower
nob ler
narrow ness
obe y
ran ks
rav ages
rip ened
royal ties
rho pon
sink ing
swe et
sedu ced
slight est
saf ed
soft ware
tol erably
vig orously
vest ibule
viol ates
war ning
wide ly
year s
Ġtort uous
head er
heav y
Ġaud ience
inex orable
insp ire
intern e
instit ute
inconce ivabilities
incompar ably
inhab its
instrum entality
rece iving
retr ogressively
refin ed
reward ing
rearr anges
revel ation
revere ntial
reinst allation
repet ition
remiss io
isos celes
enem ies
encro aching
athe ism
Ġpit iful
Ġpict ure
Ġbat tle
Ġbul warks
Ġtou ched
Ġmour ns
anas ia
anarch y
Ġeur hioko
Ġemin ent
leag ued
stud y
stret ch
asym ptotic
Ġhor ses
theolog ians
theosoph ists
immeasur ably
Ġanch or
irks ome
irreconci lable
quaest io
respon sibilities
Ġorg ans
perman ency
permiss ive
perdur abile
conca ve
condu ce
veget able
charm ing
challen ge
chican eries
illimit ableness
Ġatom us
awaken ed
ambig uity
abund ant
plau sibility
deal ing
deep ly
delight s
develop ment
degrad ed
minuend ae
Ġrous ed
prae ceptivae
Ġabol ish
adminis ters
supre mum
possident is
individ uo
indemonstr abilia
indescrib ably
indistingu ishables
expon ents
extravag ance
uninter ruptedly
unfit ness
unexception ably
unyield ingly
unrecogn izable
unveil ing
sovereign ty
elabor ation
elucid ate
elench i
solip sismus
premis ses
prejud ice
prelimin aries
measure ment
compart ments
composit a
serious ly
proxim ate
parallel ism
synon ymous
assured ly
consentient ia
consummat um
dissert ation
ĠMON EY
undeter red
Incorrupt ibility
Innoc ence
subdiv isio
subrept io
subreption is
relinqu ish
monogram ma
misappre hensions
Ġestr anged
REFUT ATION
despot ism
despair ing
brief ly
fert ility
Allgem einheit
noolog ists
legitim ation
Ġmedi ates
confront s
inviol able
invalid ity
guarante es
Subtr act
inflex ible
glimp se
reflex io
chemist ry
interpol ation
coacerv atio
address ing
sympat hetic
laboure r
philodox y
Cheseld en
Quodlib et
necessitat em
Montaign e
Oklah oma
Wizenman n
pharmacop oeia
scrut iny
KÃ ĸNI
dismis sed
sal ts
ĠâĢĶ >
Ġtas ks
Ġtab ular
Ġtac itly
Ġtute lary
Ġtong ues
Ġtang ible
Ġtild e
Ġaqu am
Ġauth rhopon
Ġavers amur
Ġaiothe ta
ĠaerumnosiqueSol ones
Ġoce an
Ġtheat re
Ġtheosoph ic
Ġwind y
Ġwast ing
Ġcoll ateral
Ġcree p
Ġcover ing
Ġcru cible
Ġcrow ning
Ġcovert ly
Ġcitab ere
Ġsor ry
Ġsou lless
Ġsar castic
Ġsqu are
Ġsore ly
Ġscan ning
Ġswor n
Ġsix ty
Ġswell ing
Ġsatir ical
Ġpiv ot
Ġpil grimage
Ġpum ice
Ġpall iatives
Ġpud ori
Ġpop ulation
Ġpock et
Ġpiec es
Ġinim ical
Ġincon gruity
Ġinad vertently
Ġinca utious
Ġinop s
Ġincogn izable
Ġinext inguishable
Ġinconsist encies
Ġinconsider ateness
Ġincess antly
Ġinsuper able
Ġinert iae
Ġincul cate
Ġinappro priate
Ġinco herent
Ġinorgan ic
Ġinhab ited
Ġincorrupt ible
Ġinaccess ible
Ġinoff ensive
Ġinadequ acy
Ġbos om
Ġbur nt
Ġbun gles
Ġbast ard
Ġbarr iers
Ġbungl er
Ġbiog raphies
Ġboister ous
Ġthrif ty
Ġtoll ens
Ġtour ney
Ġtouc hes
Ġmess age
Ġmad ness
Ġmonstr osities
Ġmarr ied
Ġmild est
Ġmalle ability
Ġmicros cope
Ġfet ters
Ġfond ness
Ġfost ers
Ġfoun tain
Ġfath om
Ġfool ed
Ġfores ight
Ġfrug ality
Ġnig gardly
Ġnour ishing
Ġnug atory
Ġeuth anasia
Ġeffici ency
Ġisland ers
Ġrepr inted
Ġrenow ned
Ġresem bles
Ġreminis cence
Ġreprim anded
Ġresear ches
Ġitem s
Ġconst ans
Ġconstr aining
Ġcongr uent
Ġconquest s
Ġconger ies
Ġcongrat ulate
Ġdar ling
Ġdaw ned
Ġdab ble
Ġdig ressions
Ġdang ers
Ġdra ughts
Ġbeckon ing
Ġbefit ting
Ġhur tful
Ġprimit ively
Ġprhole psis
Ġassem bled
Ġanatom ist
Ġexpos ure
Ġlog ician
Ġlif ts
Ġlad der
Ġlun ar
Ġlik ed
Ġloft iness
Ġlaug hed
Ġsupe resset
Ġsupel lex
Ġgallow s
Ġgestic ulate
ĠImit ation
resol ved
Ġproxim ity
Ġproclaim ed
ĠTod ay
ĠTex as
ĠTyp ic
ĠText s
ĠTOR RICELLI
ĠTIM E
ĠTerr asson
ĠTrade Mark
ĠTenn essee
Ġdepre ciated
Ġdepress ed
Ġdebar red
Ġdebat able
Ġintus susceptionem
Ġintol erable
Ġintemper ance
Ġbuttress es
Ġuncom pensated
Ġunreason able
Ġunass ailable
Ġunlu ckily
Ġunten able
Ġunhes itatingly
Ġungr ateful
Ġunwill ing
Ġunatt ended
Ġuncomp romising
Ġunthink ingly
Ġunsatisf actorily
Ġunadv isable
Ġunalt ered
Ġunri pe
Ġuneduc ated
Ġunsus ceptible
Ġunmist akable
Ġunutter able
Ġunbecom ing
Ġunintention al
Ġunprot ected
Ġuneas iness
Ġunwarrant able
Ġunascertain ed
Ġunskill ful
Ġunilater ally
Ġunsophistic ated
Ġlawsu its
Ġspati i
Ġcomfor ting
Ġrout e
Ġrud eness
Ġrick tig
Ġrhapsod ically
Ġundergo es
Ġundertoo k
Ġvind ication
Ġvoy age
Ġvivid ly
Ġvindic ated
Ġvouch safed
Ġvider i
Ġvarie gated
Ġtrail er
Ġtrah or
Ġtrampl ed
Ġtraduc ers
ĠBON UM
ĠBru cker
ĠBAC ON
ĠBaum garten
Ġimprud ent
Ġimmeasur able
Ġheark ened
Ġabort ive
Ġabomin able
Ġabhor rence
Ġpersp icuity
Ġperpend icular
Ġpersec ute
Ġpersever ance
Ġnoet a
Ġsyncret istic
Ġkins folk
Ġshun ned
Ġshoot s
Ġshrew dness
ĠFollow ing
ĠFRE EDOM
ĠFrequ ent
ĠFals us
ĠFlor ida
ĠFranc is
ĠFonten elle
Ġstag gered
Ġstup idity
Ġstret ches
Ġrelie ving
Ġrelinqu ishing
Ġrelativ a
Ġevok ed
Ġconscient iousness
Ġconserv ative
ĠAlex ander
ĠAXIOM S
ĠApodeict ical
Ġjoc ose
Ġjeal ous
Ġjew el
Ġaccoun ted
Ġmanual s
Ġmanufact ures
unanim ity
uncorrupt ed
unsa fe
Ġappoint ment
Ġadmis sibility
Ġadminis tering
ĠPha edo
ĠPoint s
ĠPne umatism
ĠPlat onic
ĠPOP ULAR
ĠPursu ing
ĠPennsylvan ia
Ġdissol ves
Ġdisarr anging
Ġdissim ulation
Ġdisclos es
Ġdiseng age
Ġdishon est
Ġdisproportion ate
Ġdisqui et
Ġdisinher it
Ġpredile ction
Ġpredecess ors
Ġprecipit ated
ĠThousand s
Ġchican es
Ġarbit er
Ġarmist ice
ĠSens ations
ĠSpect ators
ĠSoph isma
ĠSIM PLE
ĠSocr ates
Ġphthis is
ĠNev ada
ĠOreg on
ĠObvious ly
Ġsubserv ient
ĠIncert aeque
ĠInvestig ation
Ġplast er
ĠGAL ILEI
ĠGeorg ia
ĠWOL F
ĠWoh l
ĠWyom ing
ĠWalhall a
ĠWashing ton
Ġgrav itation
comform able
ĠCoun sels
ĠClear ness
ĠCap e
ĠCAT EGORIES
ĠColumb ia
ĠCOPERNIC US
Ġobtus eness
Ġdespond ing
Ġdesider atum
Ġindefat igably
ĠHob bes
ĠHOP E
ĠHecub a
Ġextrem es
Ġextremit ies
Ġenlight enment
Ġenclos ing
Ġencoun ters
Ġencod ing
Ġenric hed
ĠRATION AL
ĠRidic ule
ĠEduc ation
ĠEgy ptians
ĠEurope an
Ġterrestr ial
Ġoutbre ak
Ġamaz ement
Ġrealissim a
Ġenthus iasm
ĠDev oid
ĠDynam ical
ĠDemonstr ations
ĠDiog enes
Ġimpug ned
Ġcorrel ative
Ġcorrobor ating
Ġinvinc ible
Ġheredit ary
Ġheretof ore
Ġinflu encing
Ġinflict s
Ġinflam mable
ĠReven ue
ĠRequire ment
ĠMont ana
ĠMair an
ĠMED IUM
ĠMOD ALITY
ĠMAD E
ĠMoh ammed
ĠMetamorph oses
ĠMassachuse tts
Ġapolog ize
Ġstrik ingly
Ġstratag em
Ġconcaten ation
ĠLeg al
ĠLaert ius
ĠLamber t
Ġmetamorph osed
ĠUta h
ĠUndoubted ly
Ġphysiogn omists
Ġaffirmat ives
ĠConsid ered
Ġindustr ious
Ġindulg ent
Ġelangu escence
Ġantip athy
Ġantagon ism
Ġscru ple
Ġscrup ulousness
ĠTHOU GHT
Ġovergr own
Ġoverbal ance
Ġoverfl ow
Ġcoars est
Ġposthum ous
Ġmisfortun es
Ġmiscarr iage
ĠAssoci ation
Ġsuperfici ality
Ġsuperann uated
Ġundemonstr ated
Ġbrigh ter
Ġintrospect ions
ĠAnnihil ate
ĠAnax agoras
ĠUnquestion ably
Ġinsurmount able
Ġcomprehens ive
Ġsurmoun ted
Ġsurveill ance
ĠArithmet ical
Ġpsycholog ist
ĠVau canson
ĠVermon t
ĠVolta ire
Ġgeograp hers
ĠKentuck y
ĠREFL ECTION
Ġdispassion ate
Ġpropaed eutic
Ġfratern al
Ġfrivol ity
Ġdomestic ae
Ġartifici ally
ĠANTIC IPATIONS
Ġirref utable
Ġindissolu bly
Ġadmixt ures
ĠORIGIN ATION
Ġ750 175
Ġguardians hip
Ġverbi age
Ġcalumni ators
Ġextramund anum
Ġderivativ us
Ġprotuber ance
ĠINTU ITION
Ġcounterbal ancing
Ġcurvil inear
Ġhydro chloric
Ġanthropomorphist s
ĠMeiklej ohn
ĠPhysiocr acy
ĠEXPER IENCE
Ġirrevoc ably
ĠNewslet ters
ĠSTAH L
Ġlaboure rs
Ġlabyrin th
Ġanimadvers ions
ĠIllino is
Ġsubterrane an
Ġswift ness
Ġmarionet te
ĠIDEAL ISM
ĠIMMOR TALITY
Ġshipwre ck
Ġmelanch oly
ĠUNDERSTAND ING
ĠOTHERWIS E
Ġturbul ent
Ġmillenni um
ĠPOSTUL ATES
Ġpolysyllogistic a
Ġunwaver ing
ĠSUBSTAN CE
ĠDEFIN ITION
ĠKNOWLED GE
ĠEMPIR ICAL
ĠAMPHIBOL Y
indiscernibil ium
KÃĸNI GSBERG
2 00
o ks
Ã ¢Ä
Ġ ,
Ġ ),
Ġ ertain
Ġ iz
Ġ ivers
Ġ xim
Ġ irect
Ġ icular
Ġ hension
Ġ ensions
Ġ 000
Ġ ÄłÄłÄłÄłÄłÄłÄłÄłÄłÄłÄłÄłÄłÄłÄłÄł
Ġa ther
Ġa use
Ġa cious
Ġo v
Ġo int
Ġo cr
Ġo oks
Ġc tr
Ġc ise
Ġc ious
Ġs ed
Ġs ib
Ġp able
Ġp ort
Ġp ond
Ġp eci
Ġp poses
Ġin ct
Ġin ity
Ġf ers
Ġf fect
Ġf icial
Ġe e
Ġe ch
Ġis on
Ġis ions
Ġit ation
Ġit ions
Ġit ates
Ġit ious
Ġas ion
Ġu le
Ġu ition
Ġu ght
Ġu str
Ġan ged
Ġg h
Ġg ement
Ġor iz
Äł at
Äł es
Äł ut
Äł ess
Äł ide
Äł stand
Äł ord
Äł imit
Äł der
Äł less
Äł av
Äł necess
Äł phenomen
Äł know
Äł subject
Äł dom
Äł connect
Äł some
Äł requ
Äł respect
Äł follow
Äł quant
Äł perfect
Äł ground
Äł think
Äł presu
Äł non
Äł effect
Äł hand
Äł attain
Äł As
Äł legisl
Äł anthrop
Äł affirm
Äł occup
Äł compar
Äł set
Äł enlar
Äł intu
Äł Qu
Äł anticip
Äł eng
Äł cap
Äł ideal
Äł remain
Äł discus
Äł estim
Äł desc
Äł grat
Äł manifest
Äł transgress
Äł attr
Äł contrib
Äł belie
Äł deriv
ĠT I
ĠT IC
Ġal t
Ġat ter
Ġat ives
Ġun te
Ġr i
Ġr ib
Ġem ber
Ġem onstr
Ġv ere
Ġim al
Ġim ental
Ġhe tic
Ġse less
Ġj un
Ġman ence
Ġad ing
Ġle x
Ġle ase
Ġar i
ĠO M
ĠC L
Ġow er
Ġen ing
ĠR O
ĠE C
ĠE NT
ty p
Ġer able
Ġi k
Ġi ans
Ġi ating
Ġi que
ÄłÄł Äł
Ġel s
Ġant ly
Ġut ive
Ġut able
Ġing u
Ġop e
Ġce ed
Äłin j
Äłs k
Äłs ent
Äłs il
Äłs ens
Äłs how
Äłc our
Äłc ogit
Äłc osm
Äłc ultiv
Äłre du
Äłre comm
Äłre vol
Äłf re
Äłf al
Äłf an
Äłf ound
Ġul a
Ġul ties
Äłd ict
Äłd own
Äłm ot
Äłm ar
Äłm ult
Äłun f
Äłp at
Äłp sych
Ġsequ ently
Ġur ity
Äłb u
Äłb re
Äłb ound
Äłh on
Äłh ar
Äłh ard
Äłh ind
Äłh op
Äłh ypothe
Äłt w
Äłt al
Äłt est
Äłt reat
Äłex pect
Äłex hib
ÄłP RO
Äłpr os
Äłv iol
Äłw ond
Äłw rit
Äła str
Äła ffect
ÄłM e
Äłst art
ÄłE m
Äłn umer
Äłsub sum
Ġog n
Ġog ic
Ġog ene
Äłsp e
Äłpro b
ÄłN ew
Ġain ing
Äłar chety
Äłal tern
Äłob st
Äłob sc
Ġced e
Äłdec l
Ġcrib es
Ġcrib ing
Äłinv estig
Ġtern ally
Ġfere n
Äłappro xim
Äłam big
19 9
Ġust om
Ġlect ed
Ġix ed
Ġolog ia
Ġsel ves
Ġffici ent
Äłhy per
Äłhyp ostat
Ġoll ow
Ã¢Ä ¢
e le
Ġ :
Ġ ;
Ġ henomen
Ġ eneral
Ġ ilos
Ġ irst
Ġ ici
Ġ uth
Ġ edu
Ġ ike
Ġ uthor
Ġ iverse
Ġ icip
Ġ icense
Ġ eduction
Ġ ico
Ġ ilities
Ġ veyed
Ġ jected
Ġ ibus
Ġ izable
Ġt t
Ġt on
Ġt ains
Ġt aining
Ġa res
Ġa ment
Ġa ving
Ġa enomen
Ġa iled
Ġo in
Ġo res
Ġo ol
Ġo use
Ġo phy
Ġo du
Ġo my
Ġo ured
Ġw o
Ġw are
Ġc ess
Ġc ies
Ġc ience
Ġc cess
Ġp ic
Ġp or
Ġp pos
Ġp endent
Ġp ens
Ġin ion
Ġin al
Ġin ing
Ġin ci
Ġin ary
Ġb id
Ġb ers
Ġm um
Ġm all
Ġf t
Ġf ter
Ġf ered
Ġn i
Ġn the
Ġe ci
Ġe ad
Ġe lf
Ġe rest
Ġe cul
Ġe cond
Ġis sim
Ġre ction
Ġre nt
Ġit le
Ġit um
Ġh ib
Ġas on
Ġas much
Ġu ality
Ġu man
Ġu ra
Ġu bl
Ġu les
Ġan k
Ġan cy
Ġon str
Ġg ing
Ġwith standing
ĠI L
ĠI TY
Ġor ic
Ġor ies
Äł it
Äł om
Äł ow
Äł id
Äł est
Äł ge
Äł ens
Äł possib
Äł condition
Äł ke
Äł ful
Äł can
Äł ra
Äł lear
Äł synthe
Äł will
Äł every
Äł right
Äł moral
Äł philos
Äł categor
Äł rational
Äł bel
Äł appear
Äł univers
Äł consider
Äł distingu
Äł metaphys
Äł worth
Äł tot
Äł great
Äł discover
Äł truth
Äł natural
Äł conting
Äł On
Äł ST
Äł regress
Äł fortun
Äł observ
Äł establ
Äł preced
Äł require
Äł attrib
Äł imper
Äł anteced
Äł person
Äł abstract
Äł gain
Äł command
Äł method
Äł agree
Äł material
Äł add
Äł sophist
Äł deser
Äł aggreg
Äł let
Äł destr
Äł remark
Äł mean
Äł contempl
Äł seem
Äł geometr
Äł specif
Äł ignor
Äł occasion
Äł allow
Äł princip
Äł care
Äł sensib
Ġare r
Ġare st
Ġare nt
Ġde qu
Ġat ever
Ġat eness
ab it
Ġr op
Ġv ation
Ġv ious
Ġim ents
Ġhe nd
Ġhe res
Ġhe ther
Ġab leness
Ġper ience
Ġus ive
Ġif t
Ġif ice
Ġif ices
Ġse ly
Ġad ed
Ġy m
Ġy ond
Ġpre me
Ġle ctr
Ġar n
Ġar act
Ġar ies
Ġar ium
ĠS E
ĠO G
Ġpl ic
Ġpl oy
ĠC I
ĠC T
Ġow s
Ġpos ing
Ġact ical
Ġen se
Ġen cies
ĠR A
ĠR AN
Ġent ially
Ġhere nce
Ġest y
Ġest ed
Ġres sed
ĠU M
Ġill ion
Ġill ed
Ġer c
Ġer ted
Ġi ol
Ġi ally
Ġi king
Ġi xt
Ġac ity
Ġac ks
Ġes ides
Ġless ness
Ġut y
Ġut onomy
Ġsol ute
Ġher ing
Äłin ex
Äłin fin
Äłin stit
Äłin cre
Äłin cap
Ġet ent
EC T
Äłs l
Äłs w
Äłs ing
Äłs ci
Äłs ust
Äłs us
Äłs pont
Äłs ignific
Äłc at
Äłc ent
Äłc red
Äłc arr
Äłre ject
Äłre pe
Äłre conci
Äłf l
Äłf it
Äłf at
Äłf act
Äłf avour
Äłf ail
Äłf urn
Äłf ruit
Ġul g
Ġul sion
Äłd on
Äłd est
Äłd ivers
Äłd irect
Äłd oubt
Äłm et
Äłm echan
Äłp ay
Äłp ain
Äłp enetr
Ġir med
Äłl ic
Ġur d
Ġur al
Äłde g
Äłde ce
Äłb as
Äłb et
Ġang er
Ġang es
Ġate gor
Äłh old
Äłh abit
Äłt a
Äłcon j
Äłcon fin
Äłcon cern
Äłex ec
ÄłP ers
Ġic ated
ÄłA l
ÄłA pp
Äłdis claim
Ġver s
Ġver se
Äłpr a
Äłpr iv
Äłpr ofess
Äłv it
Äłv is
Äłv an
Äłv ent
Ġmin is
Äłw a
Äłw id
Äłw ant
Äła ut
Äła uthoriz
Äła ugment
ÄłS e
ÄłS p
ÄłS t
ÄłS y
Ġum b
Ġum er
Ġled ge
ÄłD is
ÄłM on
ÄłM is
ÄłM or
Äłe le
Äłst ud
Äłst ead
Äłst reng
ÄłE pic
Äłpre jud
Äłn um
Äłn ull
Äłper i
Äłper su
Äłper form
Ġist ance
Äłsub stit
Äłen joy
Äłen umer
Äłen cour
Ġog it
Äłim part
Äłim prov
Äład du
Äłch ar
Äłan nihil
Äłan alog
Ġru pted
Äłsp o
ÄłI ll
Äłsh ar
Äłbe h
Äłimp ed
Ġou ble
Ġou bted
Ġos sib
Äło be
Äłcom pl
Äłcom pens
Äłal leg
Ġect ed
Ġud gement
Ġoun ces
Ġoun ced
Ġoun cing
Äłconf ess
Äłas c
Äłwe ak
Ġore tical
Ġci ated
Ġec ulative
Äłres ol
Äłunder min
Äłgu arante
ĠÄłÄł Äł
Äłcrit ic
Äłprom ot
Äłpost ul
Äłsim pl
ĠAR T
Ġane ously
Ġyp othe
Ġpir ical
ĠEN CE
Äłcal cul
ĠATION S
Ġoph ical
Äłsch ol
Äłpun ct
Ġpend ence
Äłmain tain
Ġferen ces
Â ´
Ä ¨
Ġ ]
Ġ iori
Ġ endent
Ġ igin
Ġ utenberg
Ġ ).
Ġ ivid
Ġ ilar
Ġ llogism
Ġ ivity
Ġ hensible
Ġ ialectic
Ġ igion
Ġ ilis
Ġ ieve
Ġ icious
Ġ ictions
Ġt ion
Ġt eness
Ġa ult
Ġa gement
Ġo ot
Ġo ul
Ġo um
Ġo ud
Ġo ved
Ġo ted
Ġo mor
Ġo gr
Ġo men
Ġo ined
Ġo ses
Ġo gress
Ġo tt
Ġo vered
Ġthe less
Ġc y
Ġc ient
Ġc iousness
Ġs ess
Ġs cribe
Ġs let
Ġs thetic
Ġp ter
Ġp ute
Ġp oreal
Ġin o
Ġin ction
Ġin ations
Ġin ally
Ġin ently
Ġin ions
Ġin omy
Ġb ed
Ġb ly
Ġb ol
Ġb les
Ġth od
Ġth ics
Ġf old
Ġf ici
Ġn ce
Ġn ect
Ġn ex
Ġe al
Ġe ing
Ġe termin
Ġe ties
Ġis able
Ġis ibility
Ġre pt
Ġre me
Ġre edom
Ġit atis
Ġd ic
as ser
Ġh ood
Ġpr i
Ġas ions
Ġu b
Ġu ent
Ġu ation
Ġu ating
Ġan ation
Ġon y
Ġon um
Ġl able
Ġl ict
Ġl ated
Ġl imin
Ġwe en
Ġsu ous
Ġsu asion
Ġg g
Ġg in
Ġg an
Ġg um
ĠI TION
ĠI ES
Ġor ial
Ġor ily
Äł z
Äł ur
Äł min
Äł now
Äł ign
Äł ast
Äł spect
Äł other
Äł princi
Äł stru
Äł trib
Äł certain
Äł hes
Äł any
Äł regard
Äł strict
Äł giv
Äł consid
Äł call
Äł subst
Äł proc
Äł ru
Äł proper
Äł system
Äł pe
Äł contain
Äł Every
Äł interest
Äł belong
Äł kind
Äł content
Äł correspond
Äł subsist
Äł turn
Äł proceed
Äł maxim
Äł attempt
Äł diffic
Äł proble
Äł IM
Äł import
Äł lead
Äł similar
Äł answ
Äł see
Äł arbitr
Äł result
Äł clos
Äł obtain
Äł grad
Äł demand
Äł opp
Äł esteem
Äł admit
Äł apodeict
Äł educ
Äł accident
Äł argument
Äł class
Äł discern
Äł comprehend
Äł explain
Äł heter
Äł assign
Äł support
Äł process
Äł remo
Äł confirm
Äł appe
Äł accord
Äł occur
Äł extend
Äł artic
Äł plain
Äł distinct
Äł embarrass
Äł Concl
Äł architect
Äł omni
Äł erect
Äł redistrib
Äł strugg
Äł apprehend
Äł imagin
Äł typ
ĠT Y
ĠT ER
con c
Ġal f
Ġal ed
Ġal th
Ġal og
Ġal ogism
Ġha ust
Ġat ir
Ġat ur
Ġat us
ol ong
Ġour se
Ġr s
Ġr or
Ġr og
Ġem per
Ġem ents
Ġem ark
Ġv ity
Ġtr odu
ĠB ook
Ġim es
Ġhe it
Ġab l
Ġab les
Ġab ilis
Ġsy ch
Ġus h
Ġus ory
Ġif e
Ġif ferent
Ġst ant
ĠA C
ĠA CE
ĠA BILITY
Ġad em
Ġad emark
Ġy llogism
Ġle ctive
Ġar um
Ġar ge
ĠS I
Ġph ist
ĠO D
ĠO L
ĠO P
ĠO S
Ġend i
Ġend er
ĠG HT
Ġen cing
Ġen evol
Ġag on
Ġag ing
Ġag ed
ĠE MENT
ha p
Ġter able
Ġam p
Ġam es
Ġam ing
Ġam ples
Ġent al
Ġmat ic
Ġest ic
Ġest ig
Ġap s
Ġstr aint
Ġstr ained
ĠU L
Ġer it
Ġer se
Ġer ity
Ġer ial
Ġer ably
Ġi ar
Ġi pp
Ġi ance
Ġi ology
Ġi ae
Ġac ing
Ġac le
Ġfin itum
ĠTH ER
Ġing dom
Ġmis sible
Ġav ity
Ġav our
Ġund amental
Äłin n
Äłin determin
Äłin cor
Äłin sist
Äłin fer
Äłin struct
Ġet aphys
Ġet ween
Äłs an
Äłs cept
Äłs pr
Äłs edu
Äłs piritual
Äłs hap
Äłc ens
Äłc lear
Äłc oinc
Äłre ce
Äłre ver
Äłre ve
Äłre pro
Äłre fer
Äłre ciproc
Äłre view
Äłre luct
Äłf ut
Äłf ur
Äłf il
Äłf ill
Äłf am
Äłf lu
Äłf lat
Äłf als
Äłf oot
Äłf ri
Ġra de
ĠV E
Ġul ative
Ġul ated
Ġul ates
Ġens es
Äłd am
Äłd raw
Äłd ynam
Äłd imin
ĠÃ Ĥ
Äłm o
Äłm al
Äłm ut
Äłm id
Äłm em
Äłm il
Äłm el
Äłm ast
Äłm ach
Äłm und
Äłm oment
Äłun b
Äłun w
Äłp ot
Äłp ol
Äłp ress
Äłp oint
Äłp ath
Äłp eculiar
Äłp ubl
Äłp oly
Ġir ing
Äłl os
Äłl ur
Äłl oc
Ġur ther
Ġur ality
Äłde tr
Äłde pend
Äłde part
Äłde fici
Äłb or
Äłb od
Äłb old
Äłb orrow
Äłb oast
Ġang ing
Äłh ast
Äłt re
Äłt ur
Äłt end
Äłt ol
Äłt echn
Äłcon ject
Äłcon cept
Äłcon duct
Äłcon ven
Äłex ert
Äłex agger
Äłex erc
ÄłP H
Ġic a
Ġic es
Ġic ate
Ġic ability
ÄłA nt
ÄłA NAL
Äłdis par
Äłdis app
Äłdis pens
Ġren ce
Ġver ted
Äłpr im
Äłpr ud
Äłpr olong
Äłv ac
Äłv ict
Äłv ag
Äłv iew
Äłv irt
Ġstru ction
Äłw is
Äłw ar
Äła ccess
Äła uthor
ÄłS c
ÄłS h
Ġord ing
Ġum ber
Ġum ption
ÄłC ogn
ÄłC ategor
Äłr ig
Äłr ad
Äłr idic
Ġid er
Ġol ly
Ġol iness
Ġol ution
ĠIN G
ÄłD E
ÄłD etermin
ÄłM at
ÄłM etaphys
Äłe as
Äłe ff
Ġast ic
Äłst e
Äłpre p
Äłpre par
Äłpre mis
Äłpre fer
Ġil ed
Ġil ia
Ġies t
Äłsu cceed
Äłsu ffer
Äłper plex
Ġclos ed
Äłsub l
Äłsub ter
Äłsub div
Ġog y
Ġog icians
Äłim pl
Äład or
Äład opt
Äład vers
Äłch o
Äłch ang
Äłch imer
Äłch allen
Äłan al
Ġru pt
Ġiv er
Ġiv ae
Ġiv ocal
Äłg overn
Äłsp ecul
ÄłI D
ÄłI de
ÄłN O
ÄłN e
ÄłN ot
Äłsh ort
Äłsh arp
ÄłÄłÄłÄłÄłÄłÄłÄłÄłÄłÄłÄłÄłÄłÄłÄł ÄłÄłÄłÄł
Äłth orough
ÄłW is
Ġell ing
Ġct ory
Ġos s
Äłind ivid
Ġlu ence
ÄłG er
ÄłO r
ÄłO bject
Äłar gu
Ġound s
Ġound ation
Äłcom pr
Äłcom for
Äłhe av
Ġip se
Äłfor bid
Äłacc ompl
ĠHA T
Äłdec om
Äłdec lar
Äłqu ick
ÄłIn t
Ġsem ble
Äłstr ong
Ġore tic
Ġci ation
Ġci pline
Äłent ertain
Äłinv ent
Ġoc ation
Ġpon ent
Äłel imin
Äłel abor
Äłel ucid
Ġfere nt
Ġort ions
Äłpres um
Äłappro pri
Äłinf ring
Äłref lect
Äłres pon
Äłapp et
Äłunder t
Äłev id
ĠAL ITY
Äłmod er
Äłprop ens
Äłprop ortion
Ġome tr
ÄłEx t
ĠÄ ¢
ĠÄ ī
Äłsol ic
Äłag re
Äłme asure
Ġoy al
Ġfect s
ĠAR K
Ġith met
Ġither to
Ġangu age
Äłsy non
Äłconce al
ÄłPro ble
Äładm ir
Ġck on
Ġpir icism
Ġrit ique
Äłsum mon
Ġurs ive
Äłconv in
Ġounce ment
Äī Äī
Ġode ict
Ġmort ality
Ġaly tic
Äłdif feren
Äłval u
ÄłÃĥ Ä¨
ĠCE P
Ġiter ary
Ġuit ous
Äłop en
Äłabs or
ÄłCh rist
Äłher o
Äłinqu ir
Äłsac r
Äłfig ur
Ġosm ological
Ġanscendent al
Ġctr ine
Ġcise ly
Ġsib ilities
Ġpeci al
Äłdiscus s
Ġunte ers
Ġri ption
Ġjun ctive
ĠENT AL
Äłmult i
Ġogene ous
Äłarchety p
Äłobst in
Ġissim um
Ġubl ic
Ġlectr onic
Ġaract er
Ġplic ity
Ġixt ure
Äłspont ane
Ġoum en
Ġogr am
9 9
K Ãĥ
O K
c ult
t ou
u ble
¸ NI
Â ©
Å Ĥ
Ġ ?
Ġ edom
Ġ iew
Ġ irc
Ġ llig
Ġ ird
Ġ ividual
Ġ idance
Ġ iber
Ġ nderstanding
Ġ uthoriz
Ġ velop
Ġ iberty
Ġ ÄłÄłÄłÄłÄłÄłÄłÄł
Ġ ndered
Ġ ivalent
Ġ ilst
Ġ vey
Ġ ialectical
Ġ ivable
Ġ irtue
Ġ ichael
Ġ igination
Ġ ndeed
Ġ iece
Ġ ibilis
Ġ iversal
Ġ ilege
Ġ irdly
Ġ xious
Ġ xioms
Ġ veloped
Ġ hensibility
Ġ iberum
Ġ hensions
Ġ icipations
Ġ Â¦
Ġt es
Ġt ent
Ġt un
Ġt ellig
Ġt lest
Ġa h
Ġa ves
Ġa ight
Ġa phys
Ġa ved
Ġa ments
Ġa ired
Ġa seless
Ġa pons
Ġo e
Ġo h
Ġo the
Ġo ure
Ġo ple
Ġo very
Ġo ad
Ġo ose
Ġo ment
Ġo mat
Ġo ast
Ġo ke
Ġo lf
Ġo ice
Ġo tle
Ġo des
Ġo ments
Ġo val
Ġo tion
Ġo vere
Ġo sing
Ġo theology
Ġo cks
Ġo soph
Ġo inted
Ġof ess
Ġof old
is he
is pens
Ġc s
Ġc id
Ġc ence
Ġc ell
Ġc ible
Ġc ks
Ġc ceed
Ġc ern
Ġc iate
Ġc ision
Ġc hema
Ġc iences
Ġc overably
Ġs in
Ġs ation
Ġs id
Ġs tain
Ġs ies
Ġs ciousness
Ġs akes
Ġs cribed
Ġp ire
Ġp one
Ġp ite
Ġp el
Ġp ty
Ġp perception
Ġp ared
Ġp posite
Ġp irit
Ġp dated
Ġin y
Ġin ent
Ġin able
Ġin ning
Ġb or
Ġb st
Ġb ation
Ġb ig
Ġb its
Ġb itious
Ġb arrass
Ġb servation
Ġth rop
Ġto logical
Ġm ong
Ġm ise
Ġm unity
Ġf ace
Ġf its
Ġf lection
Ġf fort
Ġn it
Ġn itude
Ġe g
Ġe w
Ġe es
Ġe em
Ġe ous
Ġe tic
Ġe avour
Ġe ared
Ġe ibnitz
Ġe avoured
Ġe ctions
Ġe ometry
Ġe culation
Ġis k
Ġis l
Ġis en
Ġis ter
Ġis tr
Ġis trib
Ġis pensable
Ġis pensably
Ġre w
Ġre es
Ġre am
Ġre ement
Ġre to
Ġre ating
Ġre hension
Ġre ption
Ġre ator
Ġit ect
Ġit im
Ġit ative
Ġit ute
Ġit led
Ġit iz
Ġit ial
Ġit ful
Ġit ted
Ġit ating
Ġit tle
Ġit imate
Ġit les
Ġit hetic
Ġit udes
Ġit eness
Ġand i
Ġand o
Ġand on
Ġand er
Ġand ed
Ġand om
Ġcon ci
Ġd le
Ġd ent
Ġd ated
Ġd uct
Ġbe red
Ġh n
Ġh o
Ġh il
Ġh ort
Ġh io
Ġh ip
Ġpr ight
Ġpr iate
Ġas m
Ġas is
Ġas us
Ġas ant
Ġas ibility
Ġu c
Ġu x
Ġu ly
Ġu um
Ġu ary
Ġu ge
Ġu ated
Ġu el
Ġu ously
Ġu cid
Ġan qu
Ġan ations
Ġan gement
Ġan ced
Ġan cing
Ġan while
Ġan imity
Ġan illa
Ġon ations
Ġon ically
Ġl f
Ġl or
Ġl ain
Ġl ig
Ġl ied
Ġl ude
Ġl timate
Ġsu s
Ġsu al
Ġg y
Ġg ress
Ġg ue
Ġg reg
Ġg ression
Ġg gest
ĠI CT
Ġor i
Ġor ough
Ġor ph
Ġor tun
Ġor tion
Äł i
Äł er
Äł rom
Äł um
Äł our
Äł sequ
Äł old
Äł ell
Äł ang
Äł but
Äł them
Äł aim
Äł up
Äł inte
Äł For
Äł lar
Äł own
Äł sensuous
Äł world
Äł quest
Äł ask
Äł nihil
Äł apt
Äł my
Äł question
Äł should
Äł like
Äł ante
Äł abstr
Äł light
Äł OR
Äł soci
Äł hig
Äł when
Äł struct
Äł claim
Äł air
Äł manif
Äł particular
Äł mind
Äł feel
Äł you
Äł proof
Äł argum
Äł intel
Äł addition
Äł intellectual
Äł common
Äł begin
Äł suffici
Äł transcendent
Äł element
Äł who
Äł With
Äł sole
Äł QU
Äł err
Äł contem
Äł Be
Äł LI
Äł arm
Äł embr
Äł accomp
Äł destroy
Äł meaning
Äł Gr
Äł accur
Äł THE
Äł accompan
Äł endeavour
Äł becom
Äł advance
Äł absurd
Äł answer
Äł maj
Äł Princi
Äł anthropomorph
Äł your
Äł keep
Äł particip
Äł avail
Äł requis
Äł intention
Äł doctr
Äł IND
Äł happen
Äł cast
Äł sensual
Äł attack
Äł seek
Äł inevit
Äł isol
Äł acknowled
Äł fulfil
Äł contempor
Äł esca
Äł blind
Äł tell
Äł apper
Äł oppon
Äł omnipot
Äł escap
Äł indiscern
Äł rap
Äł thank
Äł errone
Äł UNDER
Ġall en
ĠT RODUCTION
ĠT IES
ĠT RIB
ĠT IVE
ĠT ICAL
Ġal id
Ġal ogy
Ġha b
Ġha pter
Ġat i
Ġat s
Ġat en
Ġat iv
Ġat ical
Ġat ure
Ġat ch
Ġat ement
Ġat ible
Ġat icism
Ġat ae
Ġat ivum
Ġun al
Ġun ted
Ġun gl
Ġun ciation
Ġun ciated
Ġour ce
Ġour th
Ġr al
Ġr ist
Ġr ies
Ġr ance
Ġr anscendental
Ġr ong
Ġr ought
Ġr ied
Ġr ase
Ġr ont
Ġr own
Ġem pl
Ġem por
Ġem bered
Ġme ll
Ġme asur
Ġv ered
Ġv erest
Ġv ention
ĠB L
ĠB ERG
ĠB JECTIVE
Ġim er
Ġim ity
Ġim id
Ġim itive
Ġim itable
Ġim ilarly
Ġhe t
Ġhe st
Ġhe tical
Ġab or
Ġab our
Ġab ile
Ġab ilities
Ġno isseurs
Ġk en
Ġk ing
Ġus ality
Ġus iness
Ġus io
Ġus iveness
Ġif ul
Ġif ference
Ġif orm
Ġif icate
ĠF L
ĠF ORE
Ġone y
Ġqu i
Ġqu ire
ĠA D
ĠA T
ĠA BL
Ġgiv er
ac he
Ġad s
Ġad ly
Ġad ict
Ġad ox
Ġad istinction
ĠP L
ĠP TER
ĠP END
ĠP PENDIX
Ġy ers
Ġy right
Ġknow led
Ġpre ted
Ġpre hensible
Ġle y
Ġle ological
Ġle ments
Ġle brated
Ġch ive
Ġch itect
Ġch ievous
Ġar ing
Ġar mon
Ġar ying
Ġar ante
Ġar ched
Ġar ius
ĠS C
ĠS ITION
Ġph old
Ġph iboly
ĠN I
ĠN ITY
ĠO ND
ĠO SE
ĠO REM
ĠO OK
Ġser t
Ġpl ies
Ġpl anation
Ġuse ment
Ġow ers
Ġpos ite
Ġpos itio
Ġfac es
Ġact ly
Ġact ory
Ġact orily
Ġen n
Ġen esis
Ġen forceability
Ġag raph
ĠR IN
ĠR TH
ĠR ECT
ĠE G
ĠE AS
Ġter ly
Ġter onomy
Ġter ior
Ġass ion
Ġam ps
Ġam orph
Ġsim ony
Ġap se
Ġstr um
Ġstr atum
Ġres h
Ġres ent
ĠU C
ĠU D
ĠU RE
ĠU LAR
Ġill ain
Ġer o
Ġer v
Ġer on
Ġer ce
Ġer ation
Ġer ci
Ġer um
Ġer iori
Ġer ke
Ġer ving
Ġer cise
Ġer ms
Ġi qu
Ġi og
Ġi ently
Ġi ological
Ġi ences
Ġi ability
Ġi hil
Ġi atus
Ġi pses
Ġi osity
Ġi angle
Ġple x
Ġarr ow
Ġarr ant
Ġup il
Ġac ent
Ġac her
Ġans as
Ġans ition
Ġel t
Ġchange ably
Ġed ience
Ġed ient
Ġant om
Ġant ity
Ġant age
Ġant ages
Ġes ult
Ġes pect
Ġless ed
ĠTH ING
Ġover ty
Ġmen se
Ġut ic
Ġut or
Ġut um
Ġut ious
Ġut cheson
Ġsol uble
Ġever theless
Ġ2 80
Ġop ing
Ġop her
Ġop ular
Ġop yright
Ġpath y
Ġav a
Ġav en
Ġav id
Ġav ag
Ġav oured
Ġund ity
Ġund red
ĠY STEM
Ġvol ution
Ġign ity
Ġte en
Äłin here
Äłin sp
Äłin comp
Äłin separ
Äłin compre
Äłin valid
Äłin fall
Äłin compar
Äłin contest
Äłin strum
Äłin controvert
Äłin quire
Ġpret ation
Ġet s
Ġet ition
Ġet ch
Ġet us
Ġet ary
Ġet ting
imp ress
Ġask a
[...]
