{"<s>":0,"<pad>":1,"</s>":2,"<unk>":3,"<mask>":4,"!":5,"\"":6,"#":7,"$":8,"%":9,"&":10,"'":11,"(":12,")":13,"*":14,"+":15,",":16,"-":17,".":18,"/":19,"0":20,"1":21,"2":22,"3":23,"4":24,"5":25,"6":26,"7":27,"8":28,"9":29,":":30,";":31,"<":32,"=":33,">":34,"?":35,"@":36,"A":37,"B":38,"C":39,"D":40,"E":41,"F":42,"G":43,"H":44,"I":45,"J":46,"K":47,"L":48,"M":49,"N":50,"O":51,"P":52,"Q":53,"R":54,"S":55,"T":56,"U":57,"V":58,"W":59,"X":60,"Y":61,"Z":62,"[":63,"\\":64,"]":65,"^":66,"_":67,"`":68,"a":69,"b":70,"c":71,"d":72,"e":73,"f":74,"g":75,"h":76,"i":77,"j":78,"k":79,"l":80,"m":81,"n":82,"o":83,"p":84,"q":85,"r":86,"s":87,"t":88,"u":89,"v":90,"w":91,"x":92,"y":93,"z":94,"{":95,"|":96,"}":97,"~":98,"¡":99,"¢":100,"£":101,"¤":102,"¥":103,"¦":104,"§":105,"¨":106,"©":107,"ª":108,"«":109,"¬":110,"®":111,"¯":112,"°":113,"±":114,"²":115,"³":116,"´":117,"µ":118,"¶":119,"·":120,"¸":121,"¹":122,"º":123,"»":124,"¼":125,"½":126,"¾":127,"¿":128,"À":129,"Á":130,"Â":131,"Ã":132,"Ä":133,"Å":134,"Æ":135,"Ç":136,"È":137,"É":138,"Ê":139,"Ë":140,"Ì":141,"Í":142,"Î":143,"Ï":144,"Ð":145,"Ñ":146,"Ò":147,"Ó":148,"Ô":149,"Õ":150,"Ö":151,"×":152,"Ø":153,"Ù":154,"Ú":155,"Û":156,"Ü":157,"Ý":158,"Þ":159,"ß":160,"à":161,"á":162,"â":163,"ã":164,"ä":165,"å":166,"æ":167,"ç":168,"è":169,"é":170,"ê":171,"ë":172,"ì":173,"í":174,"î":175,"ï":176,"ð":177,"ñ":178,"ò":179,"ó":180,"ô":181,"õ":182,"ö":183,"÷":184,"ø":185,"ù":186,"ú":187,"û":188,"ü":189,"ý":190,"þ":191,"ÿ":192,"Ā":193,"ā":194,"Ă":195,"ă":196,"Ą":197,"ą":198,"Ć":199,"ć":200,"Ĉ":201,"ĉ":202,"Ċ":203,"ċ":204,"Č":205,"č":206,"Ď":207,"ď":208,"Đ":209,"đ":210,"Ē":211,"ē":212,"Ĕ":213,"ĕ":214,"Ė":215,"ė":216,"Ę":217,"ę":218,"Ě":219,"ě":220,"Ĝ":221,"ĝ":222,"Ğ":223,"ğ":224,"Ġ":225,"ġ":226,"Ģ":227,"ģ":228,"Ĥ":229,"ĥ":230,"Ħ":231,"ħ":232,"Ĩ":233,"ĩ":234,"Ī":235,"ī":236,"Ĭ":237,"ĭ":238,"Į":239,"į":240,"İ":241,"ı":242,"Ĳ":243,"ĳ":244,"Ĵ":245,"ĵ":246,"Ķ":247,"ķ":248,"ĸ":249,"Ĺ":250,"ĺ":251,"Ļ":252,"ļ":253,"Ľ":254,"ľ":255,"Ŀ":256,"ŀ":257,"Ł":258,"ł":259,"Ń":260,"Ġt":261,"he":262,"Ġa":263,"on":264,"in":265,"Ġo":266,"Ġthe":267,"re":268,"it":269,"Ġof":270,"is":271,"en":272,"at":273,"er":274,"Ġw":275,"Ġc":276,"ion":277,"Ġs":278,"Ġp":279,"al":280,"ic":281,"Ġin":282,"nd":283,"es":284,"Ġb":285,"Ġth":286,"or":287,"Ġto":288,"Ġm":289,"ce":290,"ct":291,"ing":292,"Ġf":293,"an":294,"ed":295,"Ġn":296,"Ġe":297,"se":298,"ou":299,"Ġis":300,"ly":301,"ĠĠ":302,"le":303,"Ġre":304,"Ġit":305,"Ġand":306,"Ġcon":307,"Ġd":308,"Ġbe":309,"st":310,"om":311,"ent":312,"Ġwh":313,"ot":314,"ar":315,"as":316,"ut":317,"ich":318,"ect":319,"Ġh":320,"Ġpr":321,"Ġas":322,"ll":323,"Ġu":324,"Ġwhich":325,"Ġthat":326,"the":327,"iv":328,"im":329,"ition":330,"ation":331,"os":332,"ity":333,"Ġan":334,"Ġex":335,"Ġon":336,"Ġl":337,"ical":338,"Ġnot":339,"ĠĠĠĠ":340,"pt":341,"ject":342,"Ġthis":343,"ess":344,"ow":345,"Ġwe":346,"ith":347,"Ġfor":348,"id":349,"bject":350,"ib":351,"Ġsu":352,"ence":353,"cept":354,"ter":355,"ure":356,"ld":357,"ir":358,"Ġg":359,"Ġwith":360,"th":361,"ur":362,"ci":363,"ver":364,"ĠI":365,"qu":366,"og":367,"ive":368,"res":369,"ist":370,"Ġor":371,"ception":372,"ason":373,"ay":374,"ere":375,"gh":376,"ain":377,"Ġcan":378,"ec":379,"if":380,"Ġby":381,"and":382,"per":383,"sel":384,"âĢ":385,"sib":386,"Äł":387,"ul":388,"Ġall":389,"em":390,"rom":391,"pp":392,"Ġpro":393,"Ġreason":394,"ĠT":395,"Ġobject":396,"Ġare":397,"con":398,"ve":399,"ate":400,"ch":401,"Ġfrom":402,"end":403,"il":404,"Ġde":405,"ust":406,"Ġal":407,"ore":408,"Ġint":409,"ple":410,"act":411,"ther":412,"Ġbut":413,"us":414,"hen":415,"Ġits":416,"ossib":417,"Ġha":418,"Ġconception":419,"ill":420,"Ġat":421,"Ġonly":422,"aw":423,"am":424,"ab":425,"pl":426,"Ġun":427,"ould":428,"dition":429,"nder":430,"de":431,"ough":432,"âĢĶ":433,"self":434,"um":435,"ol":436,"ig":437,"inci":438,"ĠĠĠĠĠĠĠĠ":439,"Ġca":440,"Ġ(":441,"ans":442,"tain":443,"Ġour":444,"Ġthere":445,"min":446,"ies":447,"Ġlaw":448,"termin":449,"tr":450,"Ġmust":451,"Ġsp":452,"Ġcom":453,"not":454,"cc":455,"of":456,"ality":457,"Ġr":458,"est":459,"Ġpossib":460,"Ġprinci":461,"ecess":462,"ous":463,"resent":464,"Ġem":465,"Ġwor":466,"Ġso":467,"ide":468,"Ġpure":469,"Ġexist":470,"Ġother":471,"her":472,"Ġme":473,"Ġunder":474,"ience":475,"Ġhave":476,"perience":477,"Ġdetermin":478,"Ġv":479,"stand":480,"ction":481,"Ġtr":482,"Ġdo":483,"Ġsen":484,"ogn":485,"Ġmere":486,"Ġwill":487,"fore":488,"od":489,"ime":490,"ĠThe":491,"pr":492,"ĠB":493,"use":494,"ary":495,"Ġcondition":496,"very":497,"ge":498,"Ġany":499,"ak":500,"Ġnecess":501,"Ġim":502,"omen":503,"Ġhe":504,"Ġab":505,"Ġitself":506,"ound":507,"ad":508,"Ġmay":509,"Ġper":510,"henomen":511,"ori":512,"Ġform":513,"all":514,"Ġthem":515,"Ġnat":516,"Ġno":517,"ard":518,"Ġthey":519,"standing":520,"su":521,"Ġthing":522,"ame":523,"pir":524,"pos":525,"Ġsy":526,"uition":527,"able":528,"Ġk":529,"ind":530,"ever":531,"Ġtime":532,"Ġreg":533,"Ġus":534,"Ġexperience":535,"ility":536,"ose":537,"iori":538,"pirical":539,"ant":540,"Ġif":541,"ex":542,"ff":543,"ph":544,"Ġsh":545,"ĠF":546,"Ġbeing":547,"art":548,"endent":549,"Ġse":550,"Ġcannot":551,"ace":552,"ations":553,"actical":554,"out":555,"Ġcogn":556,"ome":557,"Ġone":558,"Ġst":559,"Ġhas":560,"ud":561,"Ġqu":562,"Ġide":563,"Ġthese":564,"Ġphenomen":565,"Ġrel":566,"ves":567,"Ġev":568,"ĠBut":569,"ght":570,"Ġpossible":571,"ord":572,"present":573,"wh":574,"ire":575,"Ġmor":576,"ance":577,"Ġpriori":578,"now":579,"Ġcons":580,"ĠA":581,"Ġgiv":582,"our":583,"Ġintuition":584,"ac":585,"Ġj":586,"ative":587,"Ġnature":588,"Ġacc":589,"Ġman":590,"Ġempirical":591,"ult":592,"thing":593,"one":594,"un":595,"ansc":596,"Ġwould":597,"ples":598,"Ãł":599,"Ġtherefore":600,"Ġsuch":601,"ement":602,"Ġapp":603,"Ġunderstanding":604,"Ġtheir":605,"ca":606,"Ġexistence":607,"ite":608,"anscendent":609,"Ġconceptions":610,"sequ":611,"for":612,"Ġad":613,"Ġpractical":614,"ers":615,"Ġcognition":616,"Ġprinciple":617,"pon":618,"ally":619,"ute":620,"Ġsubject":621,"nthe":622,"ĠFor":623,"Ġregard":624,"ĠP":625,"Ġy":626,"to":627,"Ġdis":628,"ĠÃł":629,"selves":630,"position":631,"Ġgiven":632,"),":633,"ently":634,"Ġobjects":635,"so":636,"et":637,"ions":638,"Ġworld":639,"Ġmerely":640,"Ġknow":641,"ight":642,"ict":643,"anscendental":644,"which":645,"str":646,"ong":647,"ment":648,"Ġpre":649,"here":650,"fere":651,"Ġle":652,"cl":653,"te":654,"ĠTh":655,"Ġwithout":656,"feren":657,"Ġch":658,"ener":659,"Ġpart":660,"Ġar":661,"tical":662,"Ġphenomena":663,"Ġrepresent":664,"Ġsame":665,"sp":666,"ertain":667,"Ġsome":668,"Ġmoral":669,"Ġthings":670,"ces":671,"Ġevery":672,"Ġmeans":673,"Ġprinciples":674,"ĠĠĠĠĠĠĠĠĠĠĠĠĠĠĠĠ":675,"tern":676,"ought":677,"gement":678,"ake":679,"ie":680,"Ġsynthe":681,"ise":682,"ĠS":683,"sis":684,"sequently":685,"Ġwhat":686,"Ġhow":687,"atter":688,"Ġunity":689,"hing":690,"ated":691,"Ġph":692,"el":693,"sol":694,"Ġnecessary":695,"ording":696,"ress":697,"ens":698,"pre":699,"Ġeven":700,"Ġmy":701,"led":702,"ays":703,"Ġwho":704,"Ġhis":705,"op":706,"ag":707,"fin":708,"oy":709,"ppos":710,"ĠN":711,"Ġcase":712,"ness":713,"phy":714,"that":715,"cause":716,"udgement":717,"ĠO":718,"ternal":719,"int":720,"Ġsub":721,"though":722,"Ġthan":723,"mat":724,"Ġlaws":725,"eneral":726,"possib":727,"Ġser":728,"imit":729,"Ġmore":730,"Ġidea":731,"Ġfre":732,"Ġrelation":733,"solute":734,"ced":735,"Ġaction":736,"Ġne":737,"Ġma":738,"condition":739,"Ġcontain":740,"ecul":741,"du":742,"iz":743,"nect":744,"Ġbecause":745,"Ġalso":746,"be":747,"Ġfar":748,"Ġdif":749,"Ġdoes":750,"ilos":751,"ber":752,"ĠIn":753,"ledge":754,"ways":755,"Ġpresent":756,"Ġupon":757,"Ġcertain":758,"Ġpl":759,"Ġtranscendental":760,"Ġcaus":761,"Ġend":762,"Ġcomple":763,"Ġconditions":764,"ort":765,"Ġbel":766,"Ġnothing":767,"Ġcont":768,"ĠIt":769,"ogical":770,"ĠG":771,"reat":772,"Ġpossibility":773,"oll":774,"ĠW":775,"ond":776,"hether":777,"Ġinto":778,"ational":779,"Ġjudgement":780,"ollow":781,"cious":782,"ulty":783,"ost":784,"ue":785,"Ġuse":786,"Ġthen":787,"Ġwhen":788,"Ġaccording":789,"ffect":790,"Ġcause":791,"Ġnever":792,"Ġsense":793,"Ġproposition":794,"ploy":795,"ign":796,"Ġgr":797,"gor":798,"me":799,"irst":800,"Ġgeneral":801,"Ġgo":802,"Ġcontr":803,"ategor":804,"rit":805,"The":806,"com":807,"uch":808,"Ġconsequently":809,"ial":810,"Ġalone":811,"ĠC":812,"Ġow":813,"stem":814,"Ġabsolute":815,"ast":816,"ivers":817,"Ġproper":818,"Ġthought":819,"ser":820,"Ġhim":821,"Ġspace":822,"form":823,"ates":824,"ism":825,"Ġlimit":826,"Ġalways":827,"Ġpos":828,"Ġrequ":829,"Ġconnect":830,"Ġob":831,"are":832,"conception":833,"pro":834,"Ġdes":835,"ither":836,"Ġfound":837,"old":838,"Ġthemselves":839,"Ġcomm":840,"Ġdist":841,"Ġown":842,"Ġcould":843,"Ġknowledge":844,"Ġfac":845,"Ġshould":846,"possible":847,"fect":848,"ari":849,"Ġphilos":850,"Ġfollow":851,"Ġemploy":852,"Ġsay":853,"Ġalthough":854,"Ġseries":855,"ici":856,"ro":857,"Ġwas":858,"Ġobjective":859,"Ġcall":860,"spect":861,"Ġfirst":862,"Ġquest":863,"ish":864,"edom":865,"Ġrational":866,"Ġdifferen":867,"Ġrespect":868,"Ġbeen":869,"with":870,"Ġpur":871,"Ġrem":872,"Ġdisc":873,"other":874,"Ġconsid":875,"ied":876,"Ġcomplete":877,"ink":878,"ach":879,"ĠNow":880,"ine":881,"Ġinde":882,"ered":883,"Ġsystem":884,"ĠH":885,"Ġexam":886,"der":887,"Ġact":888,"we":889,"Ġhapp":890,"Ġwhether":891,"Ġthus":892,"âĢľ":893,"âĢĿ":894,"ĠThis":895,"Ġfe":896,"Ġext":897,"uth":898,"Ġbelong":899,"ination":900,"Ġen":901,"Ġfaculty":902,"xim":903,"Ġreality":904,"Ġformer":905,"ree":906,"iness":907,"Ġcategor":908,"Ġag":909,"sess":910,"eculative":911,"over":912,"Ġvery":913,"Ġsynthesis":914,"dic":915,"Ġorder":916,"Ġval":917,"Ġsomething":918,"par":919,"Ġmake":920,"under":921,"Ġlatter":922,"Ġhowever":923,"mit":924,"suous":925,"Ġwere":926,"Ġground":927,"uman":928,"less":929,"med":930,"ciousness":931,"Ġplace":932,"Ġsci":933,"Ġunivers":934,"ĠâĢľ":935,"stit":936,"Ġnecessity":937,"ode":938,"pose":939,"Ġyou":940,"Ġfreedom":941,"Ġgood":942,"Ġfind":943,"ĠR":944,"Ġcausality":945,"ĠE":946,"Ġthose":947,"by":948,"Ġeffect":949,"Ġwhole":950,"ha":951,"ics":952,"adict":953,"ell":954,"Ġter":955,"object":956,"Ġpres":957,"aly":958,"Ġthink":959,"sy":960,"Ġout":961,"ile":962,"preme":963,"ke":964,"Ġdut":965,"ty":966,"Ġexp":967,"wo":968,"Ġquestion":969,"Ġmaxim":970,"Ġsensib":971,"ophy":972,"reason":973,"Ġhuman":974,"Ġpossess":975,"exist":976,"ear":977,"ual":978,"igin":979,"Ġass":980,"Ġam":981,"Ġreal":982,"ove":983,"rough":984,"Ġjust":985,"Ġprodu":986,"Ġappl":987,"Ġpow":988,"Ġmind":989,"av":990,"Ġperfect":991,"uten":992,"Ġent":993,"ĠIf":994,"berg":995,"arily":996,"Ġyet":997,"utenberg":998,"oun":999,"Ġname":1000,"Ġmat":1001,"oint":1002,"man":1003,"sen":1004,"Ġcrit":1005,"this":1006,"phys":1007,"Ġsim":1008,"Ġspeculative":1009,"Ġatt":1010,"Ġdetermined":1011,"ication":1012,"edu":1013,"ible":1014,"Ġsubst":1015,"Ġdifferent":1016,"ogit":1017,"lect":1018,"ks":1019,"erest":1020,"iew":1021,"ceed":1022,"hed":1023,"ince":1024,"lf":1025,"ĠD":1026,"ived":1027,"Ġrepresentation":1028,"Ġsphere":1029,"Ġsynthetical":1030,"ural":1031,"ological":1032,"ass":1033,"Ġgreat":1034,"ident":1035,"ble":1036,"Ġtwo":1037,"Ġbas":1038,").":1039,"ike":1040,"cons":1041,"hemat":1042,"Ġmanif":1043,"ory":1044,"Ġfact":1045,"Ġduty":1046,"Ġsec":1047,"ffici":1048,"ang":1049,"Ġvalid":1050,"Ġideas":1051,"roject":1052,"ule":1053,"Ġsensuous":1054,"determin":1055,"Ġincl":1056,"cogn":1057,"Ġinternal":1058,"rib":1059,"Ġimp":1060,"Ġself":1061,"Ġthrough":1062,"Ġdetermination":1063,"Ġshall":1064,"Ġcalled":1065,"Ġword":1066,"Ġscience":1067,"princi":1068,"Ġperception":1069,"ution":1070,"oo":1071,"aract":1072,"conditioned":1073,"Ġview":1074,"Ġorigin":1075,"yp":1076,"understanding":1077,"ular":1078,"Ġsubjective":1079,"Ġfeel":1080,"ice":1081,"aracter":1082,"ĠWe":1083,"Th":1084,"yond":1085,"Ġconstit":1086,"Ġcor":1087,"ful":1088,"there":1089,"finite":1090,"Ġphilosophy":1091,"ogy":1092,"Ġinv":1093,"Ġhig":1094,"ved":1095,"Ġpoint":1096,"Ġpurpose":1097,"eci":1098,"Ġrule":1099,"Ġhere":1100,"Ġabsolutely":1101,"Ġest":1102,"usion":1103,"necess":1104,"Ġexample":1105,"ted":1106,"Ġnatural":1107,"ents":1108,"Ġconsciousness":1109,"ange":1110,"Ġmode":1111,"oth":1112,"Ġshow":1113,"Ġ_":1114,"Ġwhile":1115,"Ġuniversal":1116,"dis":1117,"Ġinf":1118,"Ġstill":1119,"Ġeach":1120,"Ġimpossible":1121,"Ġhimself":1122,"ern":1123,"iate":1124,"Ġbet":1125,"Ġcogit":1126,"irect":1127,"Ġnecessarily":1128,"Ġphenomenon":1129,"ĠProject":1130,"can":1131,"sion":1132,"Ġexternal":1133,"Ġexpl":1134,"Ġdetermine":1135,"Ġpower":1136,"Ġadmit":1137,"ires":1138,"action":1139,"Ġinterest":1140,"ating":1141,"Ġconnection":1142,"ner":1143,"Ġanother":1144,"Ġsens":1145,"Ġleast":1146,"aphys":1147,"wise":1148,"Ġgive":1149,"Ġactions":1150,"Ġway":1151,"ellig":1152,"Ġbeyond":1153,"Ġintellig":1154,"Ġquite":1155,"Ġrequire":1156,"Ġquant":1157,"ĠGutenberg":1158,"atis":1159,"Ġlike":1160,"Ġwell":1161,"experience":1162,"Ġhappiness":1163,"ĠRe":1164,"Ġnamely":1165,"ĠM":1166,"ys":1167,"Ġkind":1168,"Ġdetermining":1169,"app":1170,"Ġmanifold":1171,"Ġnor":1172,"ught":1173,"Ġeither":1174,"Ġourselves":1175,"ances":1176,"Ġap":1177,"Ġhand":1178,"Ġstr":1179,"Ġcontains":1180,"abl":1181,"Ġcategories":1182,"age":1183,"its":1184,"Ġwhere":1185,"ccess":1186,"Ġindeed":1187,"tic":1188,"Ġconsider":1189,"Ġcharacter":1190,"Ġlimits":1191,"Ġconc":1192,"Ġdem":1193,"ra":1194,"atisf":1195,"Ġappear":1196,"phenomen":1197,"othe":1198,"Ġproceed":1199,"Ġrest":1200,".,":1201,"Ġanaly":1202,"Ġstate":1203,"empt":1204,"ingu":1205,"gin":1206,"ook":1207,"Ġmorality":1208,"ize":1209,"gum":1210,"fficient":1211,"Ġref":1212,"reg":1213,"Ġterm":1214,"Ġdiv":1215,"Ġsum":1216,"pposition":1217,"Ġcommon":1218,"Ġcontrary":1219,"ypothe":1220,"ev":1221,"ark":1222,"ology":1223,"ring":1224,"ious":1225,"Ġnotion":1226,"Ġproof":1227,"much":1228,"Ġcomp":1229,"ished":1230,"Ġadv":1231,"Ġsee":1232,"und":1233,"Ġmatter":1234,"Ġdedu":1235,"ĠThus":1236,"Ġcontradict":1237,"contr":1238,"akes":1239,"ĠL":1240,"Ġfree":1241,"Ġfollows":1242,"Ġassum":1243,"Ġfeeling":1244,"ference":1245,"But":1246,"Ġsupreme":1247,"ER":1248,"existence":1249,"Ġconce":1250,"Ġconcl":1251,"Ġrepresentations":1252,"conceptions":1253,"ably":1254,"ences":1255,"Ġres":1256,"Ġable":1257,"lu":1258,"Ġsecond":1259,"Ġought":1260,"sible":1261,"Ġtrue":1262,"Ġboth":1263,"Ġtruth":1264,"Ġremain":1265,"Ġ1":1266,"pendent":1267,"Ġmost":1268,"Ġhad":1269,"stru":1270,"icism":1271,"mediate":1272,"from":1273,"Ġsince":1274,"Ġdec":1275,"Ġtake":1276,"Ġdistin":1277,"ĠReason":1278,"fter":1279,"ives":1280,"ten":1281,"Ġmet":1282,"Ġparts":1283,"Ġsensibility":1284,"Ġpresu":1285,"ĠU":1286,"icular":1287,"Ġsubstance":1288,"fic":1289,"Ġill":1290,"ween":1291,"irm":1292,"Ġmuch":1293,"lear":1294,"Ġmight":1295,"Ġbegin":1296,"Ġbeings":1297,"Ġmanner":1298,"Ġregards":1299,"acc":1300,"Ġattain":1301,"Ġsupp":1302,"asmuch":1303,"Ġlogical":1304,"Ġpredic":1305,"Ġexpress":1306,"Ġconsist":1307,"Ġwork":1308,"Ġphys":1309,"Ġcontent":1310,"Ġnow":1311,"intuition":1312,"onstr":1313,"Ġregarded":1314,"Ġmade":1315,"In":1316,"ited":1317,"Ġtot":1318,"Ġdirect":1319,"Ġbefore":1320,"Ġfoundation":1321,"ma":1322,"aid":1323,"but":1324,"Ġaim":1325,"represent":1326,"hest":1327,"Ġconf":1328,"Ġmathemat":1329,"pend":1330,"osm":1331,"pposed":1332,"Ġdiscover":1333,"ving":1334,"Ġer":1335,"Ġmot":1336,"Ġaff":1337,"Ġunconditioned":1338,"estig":1339,"Ġargum":1340,"Ġcl":1341,"pond":1342,"sub":1343,"Ġconcept":1344,"tm":1345,"Ġi":1346,"ÄłÄł":1347,"oid":1348,"Ġhypothe":1349,"Ġexists":1350,"Ġconsidered":1351,"ision":1352,"Ġ[":1353,"Ġconditioned":1354,"atic":1355,"respond":1356,"Ġjudgements":1357,"Ġbetween":1358,"Ġquantity":1359,"oub":1360,"son":1361,"rel":1362,"Ġothers":1363,"Ġabove":1364,"ĠAnd":1365,"ene":1366,"lement":1367,"empirical":1368,"Ġproble":1369,"ĠOn":1370,"ĠCon":1371,"ath":1372,"know":1373,"wor":1374,"asure":1375,"ogic":1376,"ward":1377,"red":1378,"Ġsatisf":1379,"Ġthough":1380,"cise":1381,"Ġdeg":1382,"Ġpropositions":1383,"principle":1384,"nat":1385,"pable":1386,"Ġind":1387,"Ġple":1388,"Ġconform":1389,"ĠOf":1390,"ized":1391,"OO":1392,"Ġsuccess":1393,"Ġdefin":1394,"Ġset":1395,"Ġworth":1396,"utes":1397,"ialect":1398,"Ġstand":1399,"only":1400,"ules":1401,"iqu":1402,"EN":1403,"omy":1404,"raph":1405,"sert":1406,"Ġclear":1407,"Ġsimple":1408,"Ġbased":1409,"oretical":1410,"TI":1411,"practical":1412,"Ġarr":1413,"Ġsour":1414,"agraph":1415,"read":1416,"Ġup":1417,"aken":1418,"Ġdesire":1419,"Ġagain":1420,"unction":1421,"ON":1422,"Ġac":1423,"being":1424,"Ġans":1425,"ĠPure":1426,"Ġhighest":1427,"Ġright":1428,"thod":1429,"crib":1430,"ife":1431,"Ġimper":1432,"Ġregress":1433,"Ġemployed":1434,"Ġestabl":1435,"odu":1436,"them":1437,"law":1438,"Ġel":1439,"matical":1440,"Ġocc":1441,"ning":1442,"cont":1443,"Ġmany":1444,"Ġcognitions":1445,"Ġcauses":1446,"Ġextend":1447,"Ġder":1448,"perception":1449,"ep":1450,"Ġobser":1451,"Ġconcern":1452,",âĢĿ":1453,"mon":1454,"ĠGod":1455,"ental":1456,"Ġleg":1457,"opher":1458,"theless":1459,"cognition":1460,"Ġcompletely":1461,"avour":1462,"Ġansw":1463,"Ġinasmuch":1464,"Ġanything":1465,"Ġimag":1466,"Ġchange":1467,"ique":1468,"trib":1469,"certain":1470,"Ġafter":1471,"ignif":1472,"ount":1473,"Ġrules":1474,"Ġpresented":1475,"Ġdistingu":1476,"Ġsole":1477,"Ġinfinite":1478,"Ġconsequ":1479,"Ġexer":1480,"Ġperson":1481,"Ġbelongs":1482,"Ġmaxims":1483,"Ġmetaphys":1484,"tle":1485,"mum":1486,"It":1487,"ude":1488,"Ġemployment":1489,"must":1490,"Ġseem":1491,"Ġparticular":1492,"Ġneed":1493,"Ġrequires":1494,"phenomena":1495,"Ġconnected":1496,"ention":1497,"Ġnum":1498,"irt":1499,"ather":1500,"Ġmod":1501,"Ġfur":1502,"Ġlife":1503,"Ġimmediate":1504,"Ġmyself":1505,"therefore":1506,"necessary":1507,"Ġresult":1508,"mis":1509,"Ġgu":1510,"Ġed":1511,"ection":1512,"Ġends":1513,"onum":1514,"Ġwant":1515,"ordance":1516,"Ġconting":1517,"Ġgrounds":1518,"Ġentire":1519,"hes":1520,"hence":1521,"luence":1522,"Ġfin":1523,"OOK":1524,"Ġindic":1525,"Ġeverything":1526,"ĠĠĠĠĠĠĠĠĠĠĠĠĠĠĠĠĠĠĠĠĠĠĠĠ":1527,"Ġvalidity":1528,"Ġant":1529,"Ġapplication":1530,"cy":1531,"Ġsystematic":1532,"Ġes":1533,"Ġattempt":1534,"Ġreally":1535,"ides":1536,"Ġsc":1537,"mere":1538,"Ġcop":1539,"BOOK":1540,"ourse":1541,"Ġintuitions":1542,"Ġneg":1543,"part":1544,"subject":1545,"pect":1546,"Ġ\"":1547,"oul":1548,"arr":1549,"HA":1550,"possibility":1551,"This":1552,"Ġinvestig":1553,"Ġtotality":1554,"aim":1555,"how":1556,"Ġnew":1557,"oubt":1558,"contradict":1559,"Ġmain":1560,"come":1561,"'s":1562,"Ġelement":1563,"Ġcorrespond":1564,"Ġintelligible":1565,"lig":1566,"Ġread":1567,"duct":1568,"ase":1569,"Ġside":1570,"Ġbod":1571,"do":1572,"itself":1573,"Ġbonum":1574,"Ġassert":1575,"Ġlogic":1576,"Ġmethod":1577,"conditions":1578,"Ġcontained":1579,"Ġcommand":1580,"Ġdegree":1581,"raw":1582,"isl":1583,"ps":1584,"Ġeas":1585,"Ġphysical":1586,");":1587,"Ġrather":1588,"Ġmean":1589,"Ġvirt":1590,"ension":1591,"ov":1592,"AL":1593,"ob":1594,"ctr":1595,"Ġless":1596,"Ġthereby":1597,"Ġphilosopher":1598,"without":1599,"manent":1600,"Ġsenses":1601,"ĠTH":1602,"Ġbelie":1603,"Ġimport":1604,"If":1605,"go":1606,"Ġwords":1607,"ready":1608,"Ġover":1609,"Ġmen":1610,"ogress":1611,"unity":1612,"Ġhence":1613,"bec":1614,"erial":1615,"transcendental":1616,"We":1617,"aking":1618,"ily":1619,"ane":1620,"Ġdog":1621,"ided":1622,"Ġotherwise":1623,"TER":1624,"Ġut":1625,"ities":1626,"Ġsol":1627,"synthe":1628,"Ġerr":1629,"Ġnon":1630,"Ġspeci":1631,"mor":1632,"Ġlong":1633,"paragraph":1634,"Ġdemonstr":1635,"Ġhold":1636,"Ġattrib":1637,"Ġabstr":1638,"Ġrelations":1639,"Ġremains":1640,"Ġanswer":1641,"anation":1642,"Ġequ":1643,"nature":1644,"bit":1645,"Ġ^":1646,"Ġ{":1647,"ises":1648,"Ġing":1649,"Ġsignif":1650,"Ġsoul":1651,"atever":1652,"Ġideal":1653,"Ġindependent":1654,"Ġbasis":1655,"Ġsummum":1656,"Ġco":1657,"Ġperfectly":1658,"dom":1659,"Ġtheoretical":1660,"Ġpost":1661,"Ġexcept":1662,"ĠThere":1663,"Ġformal":1664,"Ġaccordance":1665,"ĠThat":1666,"Ġproblem":1667,"Ġentirely":1668,"CHA":1669,"PTER":1670,"gr":1671,"Ġmem":1672,"ĠPr":1673,"ĠSu":1674,"Ġneither":1675,"uthor":1676,"Ġcontin":1677,"Ġsensible":1678,"comple":1679,"Ġproperly":1680,"Ġinfluence":1681,"eing":1682,"Ġtoo":1683,"ually":1684,"although":1685,"Ġbound":1686,"Ġconduct":1687,"Ġgives":1688,"ĠHence":1689,"Ġthinking":1690,"Ġnumber":1691,"ency":1692,"Ġever":1693,"iar":1694,"Ġinqu":1695,"ause":1696,"Ġher":1697,"rect":1698,"ceive":1699,"Ġbecome":1700,"Ġalready":1701,"Ġexplain":1702,"men":1703,"Ġsufficient":1704,"ases":1705,"osmological":1706,"Ġsaid":1707,"priori":1708,"Ġprev":1709,"Ġdiffic":1710,"CHAPTER":1711,"ail":1712,"mall":1713,"Ġess":1714,"ceived":1715,"ranscendental":1716,"will":1717,"Ġaccount":1718,"ĠOF":1719,"Ġexercise":1720,"Ġvirtue":1721,"any":1722,"Â§":1723,"Ġident":1724,"hension":1725,"Ġpleasure":1726,"dist":1727,"Ġforms":1728,"inations":1729,"Ġdoubt":1730,"Ġdetermines":1731,"Ġdistinction":1732,"Ġ2":1733,"ĠII":1734,"pure":1735,"Ġprov":1736,"Ġinst":1737,"Ġexpect":1738,"Ġtaken":1739,"Ġdialect":1740,"Ġhar":1741,"Ġhop":1742,"cedure":1743,"Ġproduce":1744,"Ġcogitated":1745,"eculiar":1746,"Ġmis":1747,"lectual":1748,"irc":1749,"Ġop":1750,"Ġpass":1751,"Ġprove":1752,"Ġpreced":1753,"Ġdeduction":1754,"Ġargument":1755,"Ġelse":1756,"Ġden":1757,"Ġappre":1758,"Ġmaterial":1759,"Ġabout":1760,"ext":1761,"Ġconstru":1762,"oundation":1763,"ĠAs":1764,"Ġapply":1765,"sensible":1766,"Ġerror":1767,"up":1768,"itive":1769,"Ġrender":1770,"Ġcourse":1771,"Now":1772,"time":1773,"Ġaffect":1774,"Ġmakes":1775,"Ġprogress":1776,"Ġgener":1777,"ulties":1778,"ĠĠĠĠĠĠĠĠĠĠĠĠĠĠĠĠĠĠĠĠĠĠĠĠĠĠĠĠĠĠĠĠĠĠĠĠĠĠĠĠ":1779,"Ġoblig":1780,"Ġremark":1781,"Ġbeginning":1782,"oc":1783,"ties":1784,"Ġlies":1785,"Ġallow":1786,"Ġlimited":1787,"ĠĠĠ":1788,"Ġprom":1789,"Ġdepend":1790,"Ġvari":1791,"objects":1792,"consciousness":1793,"regard":1794,"Ġpredicate":1795,"because":1796,"ability":1797,"antage":1798,"Ġfall":1799,"Ġsuper":1800,"Ġconscious":1801,"Ġapplied":1802,"uted":1803,"consequently":1804,"ĠBeing":1805,"cannot":1806,"Ġassume":1807,"Ġconsists":1808,"Ġimperative":1809,"Ġcopy":1810,"Ġce":1811,"sych":1812,"Ġchang":1813,"Ġcognize":1814,"sim":1815,"Ġaw":1816,"Ġaid":1817,"these":1818,"ppose":1819,"Ġexisting":1820,"pposite":1821,"Ġnevertheless":1822,"Ġquestions":1823,"have":1824,"ne":1825,"**":1826,"Ġlook":1827,"dequ":1828,"dif":1829,"Ġcapable":1830,"bl":1831,"ield":1832,"ĠTHE":1833,"nt":1834,"Ġpeculiar":1835,"they":1836,"Ġshown":1837,"Ġexplanation":1838,"Ġlegisl":1839,"Ġmaintain":1840,"Ġpath":1841,"onic":1842,"ined":1843,"Ġdraw":1844,"hema":1845,"ically":1846,"imate":1847,"Ġdivision":1848,".âĢĿ":1849,"Ġfal":1850,"Ġwhose":1851,"Ġinclinations":1852,"principles":1853,"Ġhigher":1854,"Ġaffirm":1855,"Ġimagination":1856,"Ġsolely":1857,"merely":1858,"ctrine":1859,"inte":1860,"For":1861,"connect":1862,"overed":1863,"Ġunderstand":1864,"disc":1865,"Ġreference":1866,"Ġwhatever":1867,"Ġpurely":1868,"Ġaddition":1869,"Ġfollowing":1870,"Ġdifference":1871,"Ġcontradiction":1872,"absolute":1873,"ogism":1874,"would":1875,"Ġprocedure":1876,"ĠSupreme":1877,"ulative":1878,"strict":1879,"ave":1880,"cor":1881,"objective":1882,"teness":1883,"ont":1884,"their":1885,"Ġadd":1886,"Ġagre":1887,"RE":1888,"Ġwithin":1889,"Ġtermed":1890,"wards":1891,"Ġharmon":1892,"poses":1893,"io":1894,"some":1895,"ia":1896,"ull":1897,"hib":1898,"Ġav":1899,"Ġworks":1900,"_,":1901,"Ġwish":1902,"Ġcirc":1903,"Ġspe":1904,"Ġevident":1905,"Ġyour":1906,"Ġhappens":1907,"Ġillusion":1908,"Ġhypothesis":1909,"Ġsource":1910,"oumen":1911,"eavour":1912,"Ġund":1913,"dequate":1914,"des":1915,"ni":1916,"ĠY":1917,"every":1918,"giv":1919,"onomy":1920,"ĠeB":1921,"Ġdone":1922,"Ġintel":1923,"Ġcertainly":1924,"Ġeffects":1925,"Ġinclination":1926,"Ġanalytical":1927,"Ġdefinition":1928,"Ġcontingent":1929,"Ġfalse":1930,"Ġbr":1931,"orough":1932,"Ġly":1933,"what":1934,"happ":1935,"lectr":1936,"posed":1937,"Ġcogitate":1938,"right":1939,"whether":1940,"Ġsmall":1941,"Ġagainst":1942,"Ġhope":1943,"cing":1944,"lar":1945,"haps":1946,"Ġrelate":1947,"according":1948,"ting":1949,"Ġconj":1950,"Ġdid":1951,"Ġpermanent":1952,"Ġrepresented":1953,"Ġcategory":1954,"Ġfurther":1955,"moral":1956,"philos":1957,"ential":1958,"amental":1959,"Ġcertainty":1960,"sh":1961,"les":1962,"own":1963,"urn":1964,"Ġempirically":1965,"Ġextension":1966,"determination":1967,"Ġdemand":1968,"undamental":1969,"Ġimmediately":1970,"Ġschema":1971,"Ġnegative":1972,"Ġsing":1973,"Ġvol":1974,"ix":1975,"imes":1976,"categor":1977,"etaphys":1978,"proposition":1979,"sist":1980,"ption":1981,"00":1982,"oph":1983,"Ġign":1984,"Ġopposite":1985,"ĠTo":1986,"usions":1987,"ĠThey":1988,"Ġjustif":1989,"Ġsubstances":1990,"Ġsensation":1991,"Ġmathematics":1992,"relation":1993,"Ġintellectual":1994,"consid":1995,"Ġjud":1996,"Ġte":1997,"Ġfut":1998,"ivid":1999,"idence":2000,"Äłin":2001,"ply":2002,"Ġtreat":2003,"Ġbring":2004,"ĠTranscendental":2005,"ritique":2006,"Ġperfection":2007,"Ġconclusion":2008,"Ġdistinct":2009,"Ġconsequence":2010,"Ġinquir":2011,"erse":2012,"Ġclaim":2013,"br":2014,"ck":2015,"complete":2016,"Ġoper":2017,"Ġspring":2018,"Ġadvantage":2019,"yn":2020,"Ġintr":2021,"ĠAn":2022,"pposes":2023,"Ġendeavour":2024,"Ġproperties":2025,"Ġperceptions":2026,"knowledge":2027,"Ġconformity":2028,"fer":2029,"ses":2030,"oment":2031,"Ġconv":2032,"Ġserve":2033,"judgement":2034,"ised":2035,"even":2036,"Ġcorrect":2037,"ead":2038,"pres":2039,"ittle":2040,"Ġthree":2041,"Ġthorough":2042,"such":2043,"ĠAll":2044,"Ġaccordingly":2045,"ared":2046,"Ġbelonging":2047,"representations":2048,"Ġseems":2049,"limit":2050,"Ġful":2051,"llig":2052,"call":2053,"tog":2054,"inde":2055,"imal":2056,"Ġpret":2057,"RA":2058,"Ġrelates":2059,"Ġdistrib":2060,"Ġvalue":2061,"Ġrests":2062,"toge":2063,"ishes":2064,"Ġfunction":2065,"Ġanal":2066,"Ġlie":2067,"ird":2068,"ogene":2069,"Ġdeterminations":2070,"Ġabs":2071,"things":2072,"Ġdisposition":2073,"Ġcho":2074,"Ġproperty":2075,"Ġpossesses":2076,"Ġamong":2077,"themselves":2078,"Ġeasily":2079,"lectronic":2080,"together":2081,"sensuous":2082,"Ġpar":2083,"asion":2084,"Ġbody":2085,"Ġapprehension":2086,"Ġet":2087,"odeict":2088,"ÄłÄłÄłÄł":2089,"Ġagreement":2090,"hat":2091,"Ġobtain":2092,"Ġdiscovered":2093,"ĠHe":2094,"Ġextent":2095,"Ġcriter":2096,"Ġconceive":2097,"ĠĠĠĠĠĠĠĠĠĠĠĠĠĠĠĠĠĠĠĠĠĠĠĠĠĠĠĠĠĠĠĠĠĠĠĠĠĠĠĠĠ":2098,"EC":2099,"gan":2100,"All":2101,"ior":2102,"lection":2103,"Ġknown":2104,"exam":2105,"Ġpowers":2106,"Ġinvol":2107,"ap":2108,"where":2109,"Ġcases":2110,"always":2111,"Ġthereof":2112,"ĠFoundation":2113,"uded":2114,"Ġevent":2115,"ack":2116,"Ġcriticism":2117,"Ġinfer":2118,"Ġapperception":2119,"ĠConsequently":2120,"Ġchanges":2121,"Ġfuture":2122,"no":2123,"hil":2124,"requ":2125,"leg":2126,"Ġproved":2127,"ood":2128,"ĠÂ§":2129,"ech":2130,"Ġdeterminate":2131,"Ġcritical":2132,"Ġignor":2133,"Ġauthor":2134,"Ġmed":2135,"ilar":2136,"Ġintu":2137,"Ġactual":2138,"Ġterms":2139,"bitr":2140,"rem":2141,"ynam":2142,"subst":2143,"world":2144,"pens":2145,"peci":2146,"Ġlead":2147,"comm":2148,"Ġstrict":2149,"proc":2150,"Ġcontinu":2151,".[":2152,"pur":2153,"Ġnoumen":2154,"Ġlittle":2155,"Ġdoctrine":2156,"Ġexpression":2157,"Ġmathematical":2158,"Ġderived":2159,"Ġinvestigation":2160,"given":2161,"iverse":2162,"ower":2163,"ividual":2164,"Ġconceived":2165,"Ġcompar":2166,"intellig":2167,"AR":2168,"Ġante":2169,"fe":2170,"may":2171,"esides":2172,"Ġmoment":2173,"Ġnay":2174,"Ġdynam":2175,"Ġsupposed":2176,"Ġhaving":2177,"Ġregulative":2178,"ensive":2179,"Ġconstitutes":2180,"ĠUn":2181,"Ġelements":2182,"does":2183,"Ġmember":2184,"IS":2185,"rational":2186,"imp":2187,"ferent":2188,"bel":2189,"Ġask":2190,"just":2191,"hend":2192,"Äłs":2193,"TION":2194,"atement":2195,"llogism":2196,"Ġsupport":2197,"reedom":2198,"Ġinfin":2199,"ended":2200,"ĠThese":2201,"sufficient":2202,"aces":2203,"Ġanalysis":2204,"Ġsuccession":2205,"Ġestablished":2206,"Ġdifficulty":2207,"dem":2208,"nit":2209,"Ġsolution":2210,"Ġcompleteness":2211,"Ġsch":2212,"Ġfield":2213,"Ġexhib":2214,"Ġtrans":2215,"ordin":2216,"Ġarises":2217,"ĠEx":2218,"Ġrequired":2219,"Ġseek":2220,"Ġaims":2221,"Ġmotive":2222,"Ġarguments":2223,"Ġestablish":2224,"Ġdistinguish":2225,"Ġmetaphysics":2226,"however":2227,"Ġcorresponding":2228,"att":2229,"Äłc":2230,"caus":2231,"Ġins":2232,"ety":2233,"ole":2234,"Ġrecogn":2235,"Ġprof":2236,"Ġpain":2237,"Ġexcl":2238,"Ġspont":2239,"Ġcomb":2240,"Ġvain":2241,"Ġrequis":2242,"Ġdiscus":2243,"Ġapart":2244,"Ġdirectly":2245,"Ġsources":2246,"Ġdogmatical":2247,"Ġprevious":2248,"Ġsingle":2249,"Ġspontane":2250,"Ġ3":2251,"iving":2252,"quest":2253,"ru":2254,"never":2255,"Ġregarding":2256,"Ġcognized":2257,"inomy":2258,"Ġonce":2259,"Ġsupposition":2260,"Ġhel":2261,"Ġperhaps":2262,"ĠĠĠĠĠĠĠĠĠĠĠĠĠĠĠĠĠĠĠĠ":2263,"ĠCritique":2264,"Ġdesign":2265,"Ġenough":2266,"Ġuniversality":2267,"Ġgreatest":2268,"Thus":2269,"Ġintelligence":2270,"Ġobserv":2271,"Ġanteced":2272,"row":2273,"istic":2274,"Ġtoge":2275,"arn":2276,"synthetical":2277,"Ġtogether":2278,"most":2279,"Ġtakes":2280,"ingdom":2281,"Ġbecom":2282,"Ġevil":2283,"Ġsatisfaction":2284,"ophical":2285,"inion":2286,"Ġcosmological":2287,"ĠIde":2288,"Ġtranscendent":2289,"ĠSuch":2290,"eculation":2291,"Ġpresents":2292,"Ġfaculties":2293,"Ġcategorical":2294,"Ġlikewise":2295,"representation":2296,"Ġsuccessive":2297,"Ġabstract":2298,"Ġsupersensible":2299,"Ġdynamical":2300,"ask":2301,"Äłre":2302,"Ġcome":2303,"comp":2304,"appl":2305,"ising":2306,"respect":2307,"Ġcompre":2308,"IN":2309,"name":2310,"Ġ5":2311,"follow":2312,"general":2313,"nothing":2314,"Ġke":2315,"elled":2316,"Section":2317,"igh":2318,"incl":2319,"Ġbl":2320,"Ġthird":2321,"Ġdon":2322,"Ġsur":2323,"vel":2324,"Ġaltogether":2325,"ĠAr":2326,"proper":2327,"Ġpursu":2328,"Ġproduced":2329,"Ġconstitution":2330,"Ġbetter":2331,"Ġsuppose":2332,"Ġoccup":2333,"Ġmeaning":2334,"Ġdialectical":2335,"Ġpreceding":2336,"ivity":2337,"ense":2338,"icable":2339,"Ġfore":2340,"separ":2341,"oriz":2342,"appear":2343,"nihil":2344,"ft":2345,"abour":2346,"Ġey":2347,"Ġrestrict":2348,"ific":2349,"atively":2350,"system":2351,"Ġoften":2352,"Ġpsych":2353,"Ġelectronic":2354,"Äłf":2355,"Ġdel":2356,"Ġra":2357,"capable":2358,"Ġdestr":2359,"Ġhumanity":2360,"sense":2361,"Ġcritique":2362,"Ġapodeict":2363,"Ġpredicates":2364,"Ġconstruct":2365,"Ġharmony":2366,"Ġintrodu":2367,"called":2368,"produ":2369,"ensions":2370,"II":2371,"itum":2372,"Ġappro":2373,"ogeneous":2374,"ines":2375,"consist":2376,"Ġappearance":2377,"ium":2378,"Ġ*":2379,"Ġopposition":2380,"Ġfull":2381,"uting":2382,"Ġexact":2383,"Ġunless":2384,"Ġkingdom":2385,"Ġstates":2386,"uding":2387,"Ġprecept":2388,"Ġarise":2389,"Ġmanifest":2390,"Ġrefer":2391,"Ġadvance":2392,"Ġimportance":2393,"Ġaffected":2394,"Ġrequisite":2395,"ĠV":2396,"ctive":2397,"icip":2398,"Ġul":2399,"conf":2400,"sum":2401,"Ġche":2402,"ometr":2403,"ments":2404,"ES":2405,"thought":2406,"Ġessential":2407,"has":2408,"ubl":2409,"Ġsort":2410,"Ġlast":2411,"Ġvoid":2412,"space":2413,"ĠSp":2414,"Ġobjectively":2415,"Ġsimply":2416,"Ġdecl":2417,"contradiction":2418,"Ġreader":2419,"Ġattribute":2420,"Ġbounds":2421,"something":2422,"Ġcircum":2423,"Ġcriterion":2424,"pecially":2425,"Ġhelp":2426,"ison":2427,"employ":2428,"cre":2429,"inv":2430,"Ġear":2431,"univers":2432,"iction":2433,"consider":2434,"idance":2435,"quant":2436,"ccording":2437,"Ġlet":2438,"Ġagree":2439,"Ġfinite":2440,"bers":2441,"Ġadequate":2442,"Ġorgan":2443,"Ġappears":2444,"Ġbelief":2445,"alone":2446,"utonomy":2447,"Ġro":2448,"Ġsoon":2449,"Ġleave":2450,"Ġarbitr":2451,"Ġmoreover":2452,"means":2453,"formation":2454,"Ġactually":2455,"determined":2456,"Ġconstitute":2457,"Ġadmitted":2458,"Ġconcepts":2459,"Ġindividual":2460,"laws":2461,"Ġabstraction":2462,"Ġsignific":2463,"Ġpostul":2464,"ĠPrinci":2465,"Ġaway":2466,"namely":2467,"perfect":2468,"place":2469,"pe":2470,"ying":2471,"ĠJ":2472,"Ġens":2473,"ENT":2474,"distingu":2475,"TH":2476,"then":2477,"Ġline":2478,"cribe":2479,"Ġavoid":2480,"latter":2481,"atum":2482,"Ġge":2483,"RO":2484,"div":2485,"sc":2486,"constit":2487,"ooks":2488,"echan":2489,"love":2490,"reality":2491,"Ġinev":2492,"Ġfundamental":2493,"urd":2494,"ciproc":2495,"ceptions":2496,"contain":2497,"Ġuniverse":2498,"ĠBy":2499,"ĠSection":2500,"mathemat":2501,"Ġpositive":2502,"Ġplaced":2503,"Ġgreater":2504,"Ġoriginal":2505,"necessity":2506,"Ġpresuppose":2507,"known":2508,"Ġfurn":2509,"Ġconjunction":2510,"Ġvolition":2511,"Ġinevit":2512,"ĠK":2513,"metaphys":2514,"Ġ4":2515,"ĠRE":2516,"iter":2517,"Ġsepar":2518,"ages":2519,"RAN":2520,"ae":2521,"ool":2522,"Ġtest":2523,"utive":2524,"speculative":2525,"worth":2526,"Ġcreat":2527,"ote":2528,"pty":2529,"olly":2530,"Ġcare":2531,"Ġdeser":2532,"alytic":2533,"Ġconcre":2534,"phenomenon":2535,"Ġphilosophers":2536,"Ġidentical":2537,"Ġvarious":2538,"phist":2539,"ip":2540,"ren":2541,"There":2542,"apt":2543,"sibility":2544,"ffort":2545,"CE":2546,"Ġoff":2547,"Ġposition":2548,"Ġimportant":2549,"Ġutter":2550,"ground":2551,"Ġetc":2552,"freedom":2553,"ins":2554,"itle":2555,"Ġwit":2556,"cience":2557,"Äłd":2558,"possess":2559,"Ġevents":2560,"Ġdisp":2561,"Ġuseful":2562,"Ġfounded":2563,"Ġexamination":2564,"mitted":2565,"Ġdeduced":2566,"Ġmotives":2567,"Ġclearly":2568,"Ġdistinguished":2569,"Ġindicates":2570,"synthesis":2571,"Ġbrought":2572,"happiness":2573,"categories":2574,"my":2575,"iber":2576,"hetic":2577,"Ġcarr":2578,"Ġscept":2579,"Ġfa":2580,"arch":2581,"ures":2582,"Ġclaims":2583,"cogit":2584,"upon":2585,"Ġtask":2586,"Ġwis":2587,"Ġunable":2588,"Ġspeculation":2589,"Ġperceive":2590,"Ġstatement":2591,"ourselves":2592,"Ġlearn":2593,"Ġleft":2594,"Ġacting":2595,"Ġsciences":2596,"Ġpossession":2597,"Ġattention":2598,"Ġconsideration":2599,"Ġhypothetical":2600,"Ġaccept":2601,"Ġacqu":2602,"Ġresults":2603,"Ġcopyright":2604,"Ġspeak":2605,"ĠeBook":2606,"Ġeyes":2607,"Every":2608,"gg":2609,"Ġput":2610,"urs":2611,"speci":2612,"etermin":2613,"opt":2614,"val":2615,"Ġcre":2616,"ven":2617,"fac":2618,"him":2619,"ublic":2620,"Ġsuffici":2621,"Ġgen":2622,"Ġdeterminable":2623,"tun":2624,"ĠÃ":2625,"Ġtheology":2626,"Ġwhom":2627,"Ġwholly":2628,"ends":2629,"ously":2630,"Ġadopt":2631,"Ġmorals":2632,"Ġinterests":2633,"Ġpresupposes":2634,"Ġdirected":2635,"Ġstands":2636,"Ġconsequences":2637,"Ġantinomy":2638,"connection":2639,"Ġbecomes":2640,"gu":2641,"lict":2642,"tot":2643,"think":2644,"Äłm":2645,"Äłun":2646,"presu":2647,"change":2648,"Ġstep":2649,"arks":2650,"Ġgain":2651,"Ġsimilar":2652,"Ġdrawn":2653,"pic":2654,"Ġopp":2655,"Ġmental":2656,"Ġfavour":2657,"Ġlight":2658,"Ġforce":2659,"ending":2660,"his":2661,"xi":2662,"ishing":2663,"Ġcosm":2664,"Äłp":2665,"Ġempty":2666,"unconditioned":2667,"ĠSt":2668,"ortion":2669,"Ġlimitation":2670,"Ġdesires":2671,"Ġexamples":2672,"Ġenable":2673,"Ġmotion":2674,"Ġproblematical":2675,"mission":2676,"Ġguidance":2677,"Ġindicate":2678,"Ġespecially":2679,"Ġattempts":2680,"Ġbodies":2681,"Ġlegislation":2682,"absolutely":2683,"question":2684,"Ġapodeictic":2685,"Ġcircumst":2686,"Ġsignificance":2687,"Ġconcreto":2688,"izing":2689,"Ġfig":2690,"ively":2691,"nderstanding":2692,"posite":2693,"cribed":2694,"more":2695,"atives":2696,"stood":2697,"Ġprop":2698,"ume":2699,"Ġaccom":2700,"?âĢĿ":2701,"Ġopposed":2702,"Ġsure":2703,"Ġdefinite":2704,"series":2705,"Ġpurposes":2706,"pendence":2707,"Ġoccasion":2708,"Ġconcerns":2709,"Ġcommands":2710,"Ġdogmat":2711,"Ġinstead":2712,"Ġobliged":2713,"Ġdepends":2714,"ĠYou":2715,"philosophy":2716,"Ġjustified":2717,"Ġjudge":2718,"Ġschool":2719,"Ġinsight":2720,"Ġarbitrary":2721,"IT":2722,"rop":2723,"satisf":2724,"inction":2725,"analy":2726,"ured":2727,"aint":2728,"interest":2729,"Ġold":2730,"origin":2731,"oly":2732,"arent":2733,"avoid":2734,"END":2735,"IC":2736,"conform":2737,"used":2738,"Ġphilosophical":2739,"When":2740,"into":2741,"Ġreach":2742,"Ġdat":2743,"Ġwhy":2744,"Ġhigh":2745,"Ġforth":2746,"Ġsyllogism":2747,"Ġphenomenal":2748,"ached":2749,"predic":2750,"ĠWhen":2751,"Ġcommunity":2752,"Ġhappen":2753,"manence":2754,"Ġsubjectively":2755,"Ġmodes":2756,"contradictory":2757,"Ġassertions":2758,"Ġeasy":2759,"Ġbelieve":2760,"Ġchoice":2761,"belong":2762,"Ġdestroy":2763,"Ġgeometr":2764,"iterary":2765,"Ġwisdom":2766,"kind":2767,"Ġta":2768,"icense":2769,"demonstr":2770,"Ġtimes":2771,"Ġinter":2772,"pline":2773,"should":2774,"timate":2775,"iment":2776,"ibility":2777,"ately":2778,"udes":2779,"free":2780,"ms":2781,"Ġwise":2782,"Ġsought":2783,"angement":2784,"Ġconver":2785,"Ġsubtle":2786,"good":2787,"Gutenberg":2788,"To":2789,"either":2790,"ged":2791,"same":2792,"Ġfr":2793,"Ġeffort":2794,"Ġprior":2795,"impossible":2796,"cipline":2797,"chive":2798,"pposing":2799,"Ġrespecting":2800,"Ġuniversally":2801,"Ġfinds":2802,"eduction":2803,"Ġwhereby":2804,"Ġreflection":2805,"Ġextended":2806,"Ġderive":2807,"Ġidentity":2808,"Ġopinion":2809,"Ġconstruction":2810,"Ġgenerally":2811,"different":2812,"causality":2813,"Ġkeep":2814,"Ġinevitably":2815,"faculty":2816,"iding":2817,"success":2818,"jud":2819,"sens":2820,"Ġdom":2821,"asing":2822,"than":2823,"cess":2824,"imin":2825,"emark":2826,"Ġation":2827,"prov":2828,"Ġfully":2829,"Ġcoun":2830,"character":2831,"purpose":2832,"Ġpe":2833,"Ġmag":2834,"adv":2835,"Ġart":2836,"ENTAL":2837,"could":2838,"Ġautonomy":2839,"real":2840,"Ġcol":2841,"also":2842,"Ġincapable":2843,"Ġbesides":2844,"Ġmaking":2845,"Ġmechan":2846,"cede":2847,"Ġprimal":2848,"Ġannihil":2849,"Ġlay":2850,"ĠĠĠĠĠĠĠ":2851,"those":2852,"Ġexisted":2853,"Ġregion":2854,"whole":2855,"case":2856,"Ġpractically":2857,"Ġeveryone":2858,"Ġsubordin":2859,"Ġproduces":2860,"Ġcompelled":2861,"Ġassumed":2862,"Ġconclusions":2863,"Ġmetaphysic":2864,"Ġcontingency":2865,"Ġfinally":2866,"Ġindependently":2867,"Ġinquiry":2868,"ĠAnalytic":2869,"Ġcomparison":2870,"intelligible":2871,"Ġutterly":2872,"etermined":2873,"path":2874,"ĠAN":2875,"content":2876,"Ġir":2877,"like":2878,"itable":2879,"conce":2880,"expl":2881,"Re":2882,"mort":2883,"arge":2884,"ante":2885,"ief":2886,"struction":2887,"enetr":2888,"UT":2889,"greg":2890,"Ġtable":2891,"Ġhon":2892,"hensible":2893,"Ġattained":2894,"Project":2895,"occ":2896,"internal":2897,"Ġtheory":2898,"Ġredu":2899,"Ġdown":2900,"Ġexper":2901,"Ġlabour":2902,"Ġnotions":2903,"usory":2904,"Ġuncondition":2905,"idea":2906,"Ġtransc":2907,"Ġimpl":2908,"Ġheter":2909,"anted":2910,"stratum":2911,"ferences":2912,"Ġduties":2913,"sensibility":2914,"fully":2915,"Ġpoints":2916,"Ġcontradictory":2917,"contrary":2918,"Ġconflict":2919,"Ġarrive":2920,"Ġmembers":2921,"Ġfunctions":2922,"substance":2923,"Ġinfinity":2924,"Ġdonations":2925,"Ġcosmical":2926,"non":2927,"abstr":2928,"SC":2929,"Ġ9":2930,"ists":2931,"ification":2932,"compre":2933,"ckon":2934,"ret":2935,"erit":2936,"acy":2937,"great":2938,"iang":2939,"Ġsequ":2940,"ounce":2941,"Ġsecure":2942,"anger":2943,"discover":2944,"crit":2945,"far":2946,"light":2947,"matter":2948,"ww":2949,"ings":2950,"ars":2951,"irection":2952,"Ġgiving":2953,"Ġaccess":2954,"former":2955,"aight":2956,"oin":2957,"science":2958,"eriori":2959,"Ġsake":2960,"Ġindis":2961,"Ġtowards":2962,"Ġfill":2963,"Ġdirection":2964,"omogeneous":2965,"Ġcanon":2966,"Ġdef":2967,"Ġdependent":2968,"actions":2969,"Ġtherein":2970,"Ġmeet":2971,"piricism":2972,"Ġmorally":2973,"Ġadm":2974,"been":2975,"ĠWith":2976,"ĠWhat":2977,"itherto":2978,"ĠHow":2979,"necessarily":2980,"Ġkinds":2981,"ĠLiterary":2982,"Ġpresupposed":2983,"Ġarrangement":2984,"obser":2985,"Ġspecial":2986,"ĠPractical":2987,"ĠIII":2988,"Ġdialectic":2989,"correspond":2990,"Ġoperations":2991,"Ġsufficiently":2992,"OR":2993,"soci":2994,"hig":2995,"vol":2996,"ash":2997,"ian":2998,"when":2999,"orrow":3000,"How":3001,"press":3002,"alent":3003,"lev":3004,"Ġprud":3005,"immediate":3006,"elf":3007,"universal":3008,"first":3009,"isible":3010,"Ġprob":3011,"Ġperceived":3012,"ND":3013,"Su":3014,"effect":3015,"times":3016,"Ġfan":3017,"Ġnone":3018,"Ġreciproc":3019,"Ġpriv":3020,"Ġexposition":3021,"Ġlos":3022,"urally":3023,"oretic":3024,"usiness":3025,"Ġcomposite":3026,"Ġrise":3027,"external":3028,"Ġevidence":3029,"Ġaccident":3030,"Ġmaj":3031,"Ġplain":3032,"Ġpurity":3033,"Ġfear":3034,"Ġproduct":3035,"determining":3036,"Ġstraight":3037,"Ġwhereas":3038,"Ġtotal":3039,"Ġclass":3040,"Ġequal":3041,"ĠTherefore":3042,"Ġdeny":3043,"Ġobligation":3044,"ĠeBooks":3045,"limited":3046,"Ġpretensions":3047,"Ġanalogy":3048,"Ġignorance":3049,"Ġspontaneity":3050,"Ġcomprehend":3051,"ĠArchive":3052,"Ġpsychology":3053,"ĠPrinciples":3054,"Ġcarry":3055,"xiom":3056,"subsist":3057,"investig":3058,"contin":3059,"ixed":3060,"eem":3061,"org":3062,"pensable":3063,"den":3064,"point":3065,"since":3066,"Ġom":3067,"eness":3068,"Ġsever":3069,"Äłl":3070,"Ġunited":3071,"struct":3072,"Pr":3073,"What":3074,"side":3075,"vious":3076,"Ġfail":3077,"Ġreceived":3078,"Ġdivers":3079,"asant":3080,"Ġassoci":3081,"Ġlove":3082,"ifice":3083,"Ġreasoning":3084,"Ġdefect":3085,"Ġsophist":3086,"ĠAccording":3087,"sphere":3088,"Ġsubstratum":3089,"Ġcontaining":3090,"existent":3091,"That":3092,"Ġfeelings":3093,"ĠConceptions":3094,"Ġimperatives":3095,"Ġobserve":3096,"Ġattributes":3097,"Ġsignification":3098,"Ġprevent":3099,"Ġprovided":3100,"Ġopen":3101,"Ġanalog":3102,"Ġnoumenon":3103,"Ġultimate":3104,"reng":3105,"mortality":3106,"iangle":3107,"AS":3108,"cceed":3109,"hand":3110,"ibnit":3111,"uthoriz":3112,"ibnitz":3113,"lat":3114,"itude":3115,"ired":3116,"eibnitz":3117,"ites":3118,"ator":3119,"attain":3120,"Ġur":3121,"ula":3122,"claim":3123,"velop":3124,"pter":3125,"ĠOR":3126,"missible":3127,"Ġspecies":3128,"power":3129,"Ġsk":3130,"Ġpublic":3131,"amed":3132,"Ġused":3133,"ization":3134,"Ġpresence":3135,"Wh":3136,"air":3137,"ild":3138,"ially":3139,"Ġtitle":3140,"Ġshe":3141,"Ġback":3142,"Ġfour":3143,"sthetic":3144,"uty":3145,"ĠIm":3146,"Ġdet":3147,"ĠFrom":3148,"ĠPro":3149,"Ġplan":3150,"Ġcontem":3151,"ĠGeneral":3152,"withstanding":3153,"Ġassign":3154,"manif":3155,"ĠUnderstanding":3156,"Ġstandard":3157,"certainty":3158,"Ġassertion":3159,"Ġlonger":3160,"Ġdemonstrate":3161,"Ġcease":3162,"Ġlegislative":3163,"Ġundetermined":3164,"propositions":3165,"Ġthoroughly":3166,"Ġabsurd":3167,"Ġparagraph":3168,"Ġnoumena":3169,"Ġpreviously":3170,"ĠSpace":3171,"Ġoppon":3172,"Ġcircumstances":3173,"Ġschools":3174,"avoidable":3175,"Ġseveral":3176,"Äłde":3177,"angu":3178,"OU":3179,"Äłb":3180,"opular":3181,"particular":3182,"valid":3183,"uous":3184,"throp":3185,"Ġworthy":3186,"aff":3187,"joy":3188,"Ġpract":3189,"Ġang":3190,"through":3191,"izes":3192,"iberty":3193,"Ġsight":3194,"Ġrec":3195,"Ġhum":3196,"ustr":3197,"truth":3198,"Ġjustice":3199,")âĢĶ":3200,"turn":3201,"iting":3202,"Ġwrit":3203,"Ġpast":3204,"Ġindu":3205,"Ġinformation":3206,"Ġmention":3207,"Ġrece":3208,"Ġconfin":3209,"Ġhitherto":3210,"Ġasc":3211,"irmed":3212,"Ġprocess":3213,"Ġunknown":3214,"Ġvent":3215,"ounded":3216,"ademark":3217,"Ġnaturally":3218,"Ġquality":3219,"Ġrelatively":3220,"ĠAt":3221,"Ġchain":3222,"Ġpartly":3223,"ignity":3224,"proceed":3225,"Ġenlar":3226,"hapter":3227,"Ġminds":3228,"Ġproceeds":3229,"Ġdecide":3230,"Ġdefined":3231,"Ġmetaphysical":3232,"Ġprovide":3233,"Ġdemands":3234,"Ġintuited":3235,"ĠUnited":3236,"Ġdiscuss":3237,"Ġobservation":3238,"Ġfurnish":3239,"mot":3240,"natural":3241,"***":3242,"ater":3243,"ED":3244,"adequate":3245,"Ġ=":3246,"Ġturn":3247,"rest":3248,"issim":3249,"Ġsa":3250,"theoretical":3251,"Ġate":3252,"well":3253,"post":3254,"tion":3255,"inf":3256,"Ġheld":3257,"Ġsatisfied":3258,"cribes":3259,"Ġconcerned":3260,"ts":3261,"Ġsent":3262,"als":3263,"Ġinsepar":3264,"Ġbene":3265,"Ġborrow":3266,"Ġbusiness":3267,"Ġfirm":3268,"Ġelev":3269,"Ġweight":3270,"Ġsucceed":3271,"Ġcomposition":3272,"Ġpermanence":3273,"Ġstud":3274,"aches":3275,"ĠSo":3276,"ĠSy":3277,"ĠOur":3278,"Ġcontrib":3279,"Ġobst":3280,"Ġobsc":3281,"Ġdiscern":3282,"âĢĿ;":3283,"Ġadmitting":3284,"Ġquantities":3285,"Ġafford":3286,"relate":3287,"Ġwants":3288,"Ġdemonstration":3289,"Ġholds":3290,"Ġproblems":3291,"Ġdenied":3292,"Ġvariety":3293,"everything":3294,"Ġsprings":3295,"example":3296,"Ġignorant":3297,"Ġauthority":3298,"Ġdiscussion":3299,"Ġantecedent":3300,"Ġforeign":3301,"Ġexactly":3302,"quantity":3303,"Ġscepticism":3304,"Ġdomain":3305,"Ġmajor":3306,"ug":3307,"Äłh":3308,"play":3309,"maxim":3310,"TIC":3311,"look":3312,"nex":3313,"Ġmist":3314,"seless":3315,"Äłt":3316,"super":3317,"ialectic":3318,"neg":3319,"vere":3320,"ert":3321,"before":3322,"conting":3323,"ÄłÄłÄłÄłÄłÄłÄłÄł":3324,"distinguish":3325,"ENDENTAL":3326,"SCENDENTAL":3327,"say":3328,"Ġpun":3329,"uring":3330,"ified":3331,"Äłcon":3332,"Ġunderstood":3333,"indic":3334,"Ġproduction":3335,"Ġexpected":3336,"Ġadded":3337,"By":3338,"ople":3339,"Ġaxiom":3340,"rees":3341,"itled":3342,"least":3343,"Ġdest":3344,"Ġdanger":3345,"entific":3346,"Ġlost":3347,"Ġlower":3348,"ceptivity":3349,"Äłex":3350,"oliness":3351,"ĠĠĠĠĠĠĠĠĠ":3352,"Ġpossibly":3353,"Ġimmortality":3354,"Ġperform":3355,"Ġapparent":3356,"ĠPh":3357,"aged":3358,"Ġscientific":3359,"Ġpreser":3360,"Ġapplies":3361,"ĠDe":3362,"Ġimpul":3363,"Ġconstitutive":3364,"Ġadmits":3365,"Ġpresupposition":3366,"Ġillusory":3367,"Ġindif":3368,"Ġafterwards":3369,"Ġantit":3370,"Ġ200":3371,"Ġinstance":3372,"connected":3373,"Ġspeaking":3374,"Ġinquiries":3375,"Ġabsence":3376,"attempt":3377,"Ġearth":3378,"RANSCENDENTAL":3379,"Ġdata":3380,"Ġefforts":3381,"issimum":3382,"Con":3383,"On":3384,"draw":3385,"gl":3386,"ico":3387,"cies":3388,"gress":3389,"psych":3390,"stant":3391,"mind":3392,"oubted":3393,"Ġgl":3394,"igion":3395,"Ġcap":3396,"Ġseen":3397,"Ġeng":3398,"ggest":3399,"after":3400,"Ġtry":3401,"physical":3402,"appre":3403,"urity":3404,"Ġintention":3405,"actory":3406,"Ġimage":3407,"Ġqual":3408,"arer":3409,"Ġapplicable":3410,"As":3411,"Ġpay":3412,"Ġinference":3413,"Ġmark":3414,"edience":3415,"Ġeth":3416,"Ġreckon":3417,"Ġdignity":3418,"utation":3419,"Ġproves":3420,"Ġtriangle":3421,"Ġnecessit":3422,"Ġstreng":3423,"oney":3424,"ĠNay":3425,"Ġsubsum":3426,"ĠCosmological":3427,"Ġremo":3428,"Ġexamine":3429,"Ġoriginate":3430,"Ġdivided":3431,"Ġdeduce":3432,"Ġconclude":3433,"Ġsecondly":3434,"Ġindirect":3435,"beings":3436,"Ġdemonstrated":3437,"Ġequally":3438,"Ġrenders":3439,"Ġsmallest":3440,"completely":3441,"Ġendeavours":3442,"Ġconviction":3443,"Ġexhibit":3444,"Ġraised":3445,"mathematics":3446,"worthy":3447,"Ġlearned":3448,"Ġdiversity":3449,"ST":3450,"Ġfit":3451,"ÄłP":3452,"consequ":3453,"umer":3454,"JEC":3455,"expect":3456,"express":3457,"icians":3458,"cul":3459,"oper":3460,"Ġ7":3461,"Ġauthoriz":3462,"Ġcr":3463,"Ġanci":3464,"irit":3465,"pri":3466,"again":3467,"legisl":3468,"Ġfigure":3469,".)":3470,"_.":3471,"lies":3472,"Ġestim":3473,"subjective":3474,"independent":3475,"Ġproportion":3476,"manifold":3477,",\"":3478,"Transcendental":3479,"ges":3480,"gutenberg":3481,"overy":3482,"take":3483,"Ġic":3484,"inasmuch":3485,"Ġbest":3486,"Ġmerit":3487,"Ġmoney":3488,"another":3489,"Ġreceive":3490,"Ġforces":3491,"thus":3492,"Ġdevelop":3493,"Ġspirit":3494,"Ġempiricism":3495,"orious":3496,"ĠPU":3497,"ĠPRO":3498,"Ġrepresents":3499,"ĠĠĠĠĠĠĠĠĠĠĠĠĠĠĠĠĠĠ":3500,"ĠNo":3501,"Ġsubl":3502,"imitive":3503,"Ġdifferences":3504,"ĠHere":3505,"Ġaggreg":3506,"Ġproceeding":3507,"Ġanalytic":3508,"Ġreflect":3509,"regress":3510,"Ġbegins":3511,"Ġexpressions":3512,"Ġhypotheses":3513,"cisely":3514,"Ġdegrees":3515,"Ġesca":3516,"Ġinvestigations":3517,"going":3518,"Ġposteriori":3519,"Ġerrors":3520,"Ġinvolves":3521,"Ġinferred":3522,"feel":3523,"nitude":3524,"Ġprofess":3525,"Ġpostulate":3526,"himself":3527,"ĠStates":3528,"ITY":3529,"Ġprivate":3530,"Ġloss":3531,"subsistent":3532,"anguage":3533,"cern":3534,"imag":3535,"ains":3536,"you":3537,"ify":3538,"ERG":3539,"jun":3540,"oined":3541,"por":3542,"vice":3543,"step":3544,"Ġformed":3545,"proof":3546,"BERG":3547,"logical":3548,"Ġ6":3549,"Ġusu":3550,"ÄłA":3551,"cond":3552,"while":3553,"Ġconsistent":3554,"Ġguard":3555,"Ġcontinue":3556,"Ġallowed":3557,"ares":3558,"Ġpopular":3559,"Ġrep":3560,"argum":3561,"ased":3562,"assert":3563,"Ġont":3564,"Ġones":3565,"Äłdis":3566,"Ġhabit":3567,"notion":3568,"Ġobserved":3569,"Ġinvolved":3570,"Ġleads":3571,"Ġaccomp":3572,"Hence":3573,"ik":3574,"two":3575,"Ġtheoretic":3576,"Ġwishes":3577,"Ġsign":3578,"Ġincre":3579,"ouble":3580,"Ġren":3581,"Ġreturn":3582,"entially":3583,"Ġholiness":3584,"Ġascribe":3585,"Ġanimal":3586,"Ġexc":3587,"Ġnotwithstanding":3588,"ĠTime":3589,"Ġobjections":3590,"Ġcomes":3591,"ideas":3592,"Ġanyone":3593,"Ġforming":3594,"Ġshort":3595,"Ġsubjects":3596,"Ġdisappear":3597,"ternally":3598,"Ġserves":3599,"Ġplaces":3600,"Ġfollowed":3601,"Ġremarks":3602,"ĠHume":3603,"Ġactivity":3604,"Ġfew":3605,"Ġextensive":3606,"Ġthinks":3607,"Ġrealissimum":3608,"Ġenter":3609,"determine":3610,"Ġincluded":3611,"Ġshows":3612,"Ġrequirement":3613,"Ġappearances":3614,"Ġproofs":3615,"ficial":3616,"Ġexpresses":3617,"Ġsatisfy":3618,"Ġnegation":3619,"Ġcoexistence":3620,"Ġinquire":3621,"Ġprecedes":3622,"Ġpromise":3623,"ĠYOU":3624,"ĠIdeas":3625,"Ġcheck":3626,"employment":3627,"cogitate":3628,"ĠÃ¦":3629,"Ġpeople":3630,"Reason":3631,"Ġindispensable":3632,"tt":3633,"Ġver":3634,"ref":3635,"Äłpr":3636,"supp":3637,"fortun":3638,"oblig":3639,"bid":3640,"ained":3641,"andon":3642,"ember":3643,"Ġsearch":3644,"pret":3645,"equ":3646,"hypothe":3647,"Ġways":3648,"ultiv":3649,"ician":3650,"conscious":3651,"human":3652,"itimate":3653,"Ġexception":3654,"plic":3655,".\"":3656,"SE":3657,"itect":3658,"Ġmo":3659,"sely":3660,"From":3661,"til":3662,"Ġcal":3663,"Ġsays":3664,"Ġbad":3665,"Ġbold":3666,"Ġmult":3667,"lease":3668,"Ġbeh":3669,"Ġhomogeneous":3670,"Ġpros":3671,"Ġexec":3672,"Ġextr":3673,"Ġliberty":3674,"istance":3675,"âĢĻ":3676,"Ġdev":3677,"olution":3678,"Ġviz":3679,"Ġimmanent":3680,"Ġpersu":3681,"Ġpermission":3682,"evertheless":3683,"Ġdiscipline":3684,"Ġdisplay":3685,"Ġprecede":3686,"finitum":3687,"Ġcausal":3688,"Ġendless":3689,"ĠGUT":3690,"ĠCh":3691,"Ġobedience":3692,"ishment":3693,"Ġrespects":3694,"Ġdiscovery":3695,"Ġfee":3696,"Ġenjoy":3697,"ĠEm":3698,"Ġentitled":3699,"Ġattend":3700,"ĠDo":3701,"ĠDiv":3702,"determines":3703,"Ġstrong":3704,"Ġconsiderations":3705,"Ġrefund":3706,"Ġcommonly":3707,"Ġcomply":3708,"ĠLeibnitz":3709,"Ġassumption":3710,"ENBERG":3711,"Ġoccur":3712,"Ġpersons":3713,"Ġguide":3714,"Ġschemat":3715,"Ġcopies":3716,"morality":3717,"Ġcoexistent":3718,"Ġpromot":3719,"regards":3720,"diffic":3721,"Ġavail":3722,"Ġfulf":3723,"Ġchoose":3724,"Ġcontinuous":3725,"Ġinfinitum":3726,"inclination":3727,"Ġblind":3728,"Ġconstructed":3729,"Ġintroduce":3730,"consistent":3731,"Ġprecepts":3732,"Ġseparate":3733,"Ġcreature":3734,"Ġstatements":3735,"Ġgenu":3736,"Ġgeometry":3737,"conceit":3738,"Ġunconditional":3739,"Ġassociated":3740,"Ġsophistical":3741,"Ġopponent":3742,"JECT":3743,"ĠGUTENBERG":3744,"che":3745,"inct":3746,"Äłv":3747,"PL":3748,"dog":3749,"unte":3750,"Ġmediate":3751,"ient":3752,"iol":3753,"Ġmin":3754,"ank":3755,"conci":3756,"concern":3757,"ustom":3758,"defin":3759,"exer":3760,"proble":3761,"Ġstru":3762,"found":3763,"line":3764,"depend":3765,"Ġplay":3766,"Ġangles":3767,"Ġ0":3768,"infinite":3769,"atio":3770,"Ġholy":3771,"Ġprim":3772,"Äłw":3773,"pleasure":3774,"order":3775,"Ġaccur":3776,"Ġlea":3777,"anged":3778,"observ":3779,"Ġsafe":3780,"influence":3781,"contingent":3782,"foundation":3783,"pass":3784,"were":3785,"Ġtw":3786,"hesis":3787,"inqu":3788,"inary":3789,"Ġwond":3790,"Ġcost":3791,"Ġpaid":3792,"Ġinferences":3793,"Ġbu":3794,"ors":3795,"leological":3796,"Ġreceptivity":3797,"Ġity":3798,"Ġconstant":3799,"Ġhist":3800,"imer":3801,"owed":3802,"Ġsuggest":3803,"Äła":3804,"Ġreasons":3805,"Ġunavoidable":3806,"trans":3807,"Ġimpossibility":3808,"Ġheav":3809,"Ġreligion":3810,"Ġaccord":3811,"nthetical":3812,"Ġknows":3813,"straint":3814,"Ġparty":3815,"ĠSolution":3816,"solution":3817,"Ġgoes":3818,"aching":3819,"ĠEpic":3820,"exists":3821,"Ġconstituted":3822,"ĠMor":3823,"Ġcommonest":3824,"ĠLicense":3825,"Ġassuming":3826,"accordance":3827,"Ġattainment":3828,"Ġdefine":3829,"Ġderiv":3830,"cognitions":3831,"Ġimagine":3832,"Ġcorresponds":3833,"Ġutility":3834,"Ġspecif":3835,"Ġidealism":3836,"Ġremarkable":3837,"regarded":3838,"Ġfalls":3839,"judgements":3840,"Ġmedium":3841,"ART":3842,"nevertheless":3843,"application":3844,"follows":3845,"Ġadvanced":3846,"metaphysics":3847,"ursive":3848,"totality":3849,"Ġtax":3850,"Ġmagnitude":3851,"Ġmechanism":3852,"Ġhonest":3853,"Ġexperiment":3854,"Ġimplies":3855,"corresponding":3856,"investigation":3857,"Ġstudy":3858,"Ġantithesis":3859,"plicity":3860,"view":3861,"inter":3862,"appro":3863,"intel":3864,"ruit":3865,"EM":3866,"OG":3867,"oured":3868,"ÄłS":3869,"addition":3870,"Ġusing":3871,"IR":3872,"scept":3873,"signif":3874,"alogism":3875,"second":3876,"Ġord":3877,"deg":3878,"establ":3879,"intellectual":3880,"IL":3881,"PR":3882,"find":3883,"ndered":3884,"Ġum":3885,"Ġforward":3886,"concept":3887,"olog":3888,"ĠNO":3889,"Ġacts":3890,"Ġaware":3891,"brated":3892,"nor":3893,"pot":3894,"Ġtal":3895,"inst":3896,"conv":3897,"ili":3898,"trodu":3899,"Ġappe":3900,"Ġcharge":3901,"preced":3902,"Ġgrad":3903,"Ġhappy":3904,"ables":3905,"Ġphysics":3906,"Ġconvin":3907,"inions":3908,"lebrated":3909,"Ġaside":3910,"Ġlist":3911,"Ġlanguage":3912,"Ġweak":3913,"Ġproposed":3914,"Ġreasonable":3915,"ĠTO":3916,"Ġuntil":3917,"ĠĠĠĠĠĠĠĠĠĠĠĠ":3918,"Ġtrademark":3919,"Ġdoctr":3920,"Ġhead":3921,"Ġpermit":3922,"Ġformula":3923,"presented":3924,"Ġadapt":3925,"etent":3926,"Ġarising":3927,"Ġsometimes":3928,"ĠNat":3929,"ĠNot":3930,"Ġsubsist":3931,"Ġfrequ":3932,"beyond":3933,"These":3934,"Ġlimitations":3935,"Ġsaying":3936,"ĠEvery":3937,"ĠEven":3938,"Ġattached":3939,"ĠDeduction":3940,"Ġsecret":3941,"Ġesteem":3942,"Ġconcluded":3943,"Ġillustr":3944,"Ġconfess":3945,"Ġaffirmed":3946,"Ġdesired":3947,"Ġfinal":3948,"Ġdifficult":3949,"Ġessentially":3950,"Ġmaterials":3951,"Ġpromote":3952,"Ġcircle":3953,"considered":3954,"Ġdistribution":3955,"require":3956,"substances":3957,"Ġtransgress":3958,"Ġcombination":3959,"Ġoccupied":3960,"systematic":3961,"division":3962,"satisfaction":3963,"Ġsyllogisms":3964,"Ġsubordinate":3965,"highest":3966,"immediately":3967,"Ġrecourse":3968,"Ġventure":3969,"Ġinseparably":3970,"Ġaxioms":3971,"Ġengaged":3972,"junctive":3973,"Ġontological":3974,"ĠÃ¦sthetic":3975,"Ġleaves":3976,"Ex":3977,"Ġion":3978,"Ġfortun":3979,"ÄłC":3980,"Ġimit":3981,"oyal":3982,"Ġled":3983,"Äłr":3984,"dedu":3985,"fact":3986,"show":3987,"tal":3988,"Ġid":3989,"common":3990,"IM":3991,"ream":3992,"ened":3993,"attrib":3994,"ceasing":3995,"ivalent":3996,"ilst":3997,"Ġability":3998,"positive":3999,"mention":4000,"Ġ15":4001,"distinction":4002,"philosopher":4003,"orizon":4004,"unteers":4005,"ling":4006,"Ġprot":4007,"imper":4008,"Ġlines":4009,"ĠIV":4010,"ulate":4011,"vey":4012,"Ġvan":4013,"Ġprep":4014,"ĠDI":4015,"Ġ20":4016,"rupt":4017,"Ġprudence":4018,"Ġskill":4019,"Of":4020,"duty":4021,"fall":4022,"fundamental":4023,"give":4024,"rong":4025,"rule":4026,"yet":4027,"inity":4028,"Ġobe":4029,"itas":4030,"Ġwide":4031,"Ġsac":4032,"Ġinsufficient":4033,"ingly":4034,"Ġhind":4035,"Ġprimitive":4036,"Ġascribed":4037,"Ġsuitable":4038,"Ġget":4039,"urious":4040,"Ġunlimited":4041,"Ġcompl":4042,"Ġmeasure":4043,"Ġimposes":4044,"Ġheart":4045,"Ġperi":4046,"acity":4047,"Ġaddu":4048,"Ġchapt":4049,"ĠSEC":4050,"ressions":4051,"ĠInt":4052,"Ġcomplex":4053,"ĠIts":4054,"ĠWh":4055,"ĠWhether":4056,"Ġgoal":4057,"Ġgover":4058,"serted":4059,"Ġemploying":4060,"ĠHis":4061,"Ġprescribes":4062,"Ġsubstant":4063,"ĠDis":4064,"determinations":4065,"Ġincluding":4066,"Ġcharacteristic":4067,"Ġdeclar":4068,"Ġconfirm":4069,"Ġdiscovering":4070,"OOF":4071,"Ġmoder":4072,"Ġwanting":4073,"Ġanticip":4074,"parts":4075,"Ġinvestigate":4076,"Ġexplained":4077,"Ġgenera":4078,"Ġfalla":4079,"Ġpathological":4080,"Ġaffirmative":4081,"Ġadditional":4082,"Ġdefinitions":4083,"Ġjustify":4084,"indeed":4085,"Ġobtained":4086,"examination":4087,"requires":4088,"Ġschol":4089,"Ġprofound":4090,"Ġantecedes":4091,"applied":4092,"properly":4093,"Ġpsychological":4094,"Ġreferred":4095,"Ġdeclared":4096,"Ġorganized":4097,"Ġroot":4098,"ĠKant":4099,"Ġcarefully":4100,"Ġcreation":4101,"total":4102,"comprehensible":4103,"Ġreciprocal":4104,"Ġdefective":4105,"ASON":4106,"lato":4107,"Ġcontempl":4108,"Ġpractice":4109,"apprehension":4110,"ĠPROJECT":4111,"Ġsigns":4112,"Ġgenuine":4113,"PROOF":4114,"direct":4115,"sing":4116,"restrict":4117,"begin":4118,"import":4119,"doubt":4120,"main":4121,"nce":4122,"Ġol":4123,"itious":4124,"ery":4125,"suffici":4126,"ACE":4127,"theology":4128,"vers":4129,"ĠIN":4130,"transcendent":4131,"anteced":4132,"PRE":4133,"dec":4134,"element":4135,"iences":4136,"uel":4137,"Ġpat":4138,"anthrop":4139,"entire":4140,"ÄłD":4141,"among":4142,"except":4143,"who":4144,"Ġclose":4145,"work":4146,"ixt":4147,"analytical":4148,"advantage":4149,"//":4150,"According":4151,"labour":4152,"reme":4153,"Ġfruit":4154,"Ġefficient":4155,"Ġdur":4156,"person":4157,"chitect":4158,"posing":4159,"ants":4160,"unal":4161,"ARK":4162,"abstract":4163,"://":4164,"And":4165,"ATION":4166,"CT":4167,"big":4168,"ging":4169,"mode":4170,"ox":4171,"opposition":4172,"Ġtre":4173,"Ġtill":4174,"Ġair":4175,"really":4176,"enomen":4177,"Ġwar":4178,"Ġsound":4179,"alog":4180,"ick":4181,"Ġinj":4182,"Ġinstruction":4183,"orical":4184,"lead":4185,"Ġreject":4186,"Ġwhilst":4187,"aries":4188,"Ġhyp":4189,"iments":4190,"Ġforbid":4191,"Ġsuff":4192,"Ġattr":4193,"Ġations":4194,"Ġspaces":4195,"Ġtrouble":4196,"ĠBesides":4197,"Ġabandon":4198,"Ġpermitted":4199,"Ġsym":4200,"antages":4201,"Ġstart":4202,"Ġrelated":4203,"Ġevid":4204,"acing":4205,"ĠPhenomen":4206,"soever":4207,"Ġprejud":4208,"ĠĠĠĠĠĠĠĠĠĠĠĠĠĠĠĠĠĠĠ":4209,"Ġthence":4210,"Ġwhence":4211,"Ġgranted":4212,"ĠCON":4213,"Ġconnects":4214,"Ġobvious":4215,"Ġdesc":4216,"Ġcommence":4217,"Ġcommun":4218,"Ġremove":4219,"otherwise":4220,"Ġindependence":4221,"ĠEgo":4222,"existing":4223,"ĠDialectic":4224,"Ġinclude":4225,"cognize":4226,"Ġsensations":4227,"Ġrequirements":4228,"Ġdivine":4229,"Ġcontradictions":4230,"Ġsupply":4231,"Ġexpressed":4232,"intuitions":4233,"made":4234,"Ġconfidence":4235,"Ġconfused":4236,"ĠOnly":4237,"Ġacute":4238,"Ġattributed":4239,"Ġherself":4240,"Ġdifficulties":4241,"Ġdoubts":4242,"Ġcelebrated":4243,"Ġaffirmation":4244,"objectively":4245,"Ġlying":4246,"Ġsmaller":4247,"Ġteleological":4248,"Ġoperation":4249,"Ġcombined":4250,"ĠIdea":4251,"following":4252,"Ġoccupies":4253,"Ġraise":4254,"perfectly":4255,"ĠJudgement":4256,"ĠREM":4257,"ĠREASON":4258,"Ġdeserves":4259,"Everything":4260,"species":4261,"Ġgenus":4262,"changeable":4263,"Ġaccompl":4264,"conformity":4265,"Ġconversely":4266,"Ġsubordinated":4267,"Ġreduce":4268,"Ġheteronomy":4269,"abstraction":4270,"Ġsequence":4271,"Ġadmir":4272,"ĠWithout":4273,"Ġomni":4274,"ĠSynthetical":4275,"Ġdestination":4276,"Ġimpulses":4277,"Ġaggregate":4278,"Ġescape":4279,"Ġoneself":4280,"Ġschemata":4281,"Ġminor":4282,"Ġperiod":4283,"gener":4284,"Ġ8":4285,"Ġated":4286,"correct":4287,"AM":4288,"RI":4289,"ibly":4290,"ÄłM":4291,"Äłe":4292,"similar":4293,"affirm":4294,"ugment":4295,"An":4296,"With":4297,"iable":4298,"itio":4299,"itions":4300,"pleasant":4301,"Ġtrib":4302,"assum":4303,"occup":4304,"maintain":4305,"aps":4306,"aenomen":4307,"bod":4308,"atus":4309,"statement":4310,"Ġspect":4311,"acher":4312,"Ġadmissible":4313,"compar":4314,"ialectical":4315,"iance":4316,"Ġical":4317,"Ġve":4318,"Ġage":4319,"Ġcultiv":4320,"Ġsection":4321,"set":4322,"urality":4323,"econd":4324,"concl":4325,"Ġalter":4326,"abs":4327,"Ġrid":4328,"supposition":4329,"Ġmortal":4330,"Ġ10":4331,"relations":4332,"Ġsatisfactory":4333,"Ġsett":4334,"Ġlegitimate":4335,"Ġcounter":4336,"both":4337,"each":4338,"face":4339,"gain":4340,"make":4341,"Ġtast":4342,"Ġtyp":4343,"isable":4344,"isibility":4345,"Ġwrong":4346,"Ġcur":4347,"Ġsides":4348,"Ġslight":4349,"Ġfive":4350,"sec":4351,"ouse":4352,"Ġisol":4353,"Ġrendered":4354,"Ġdict":4355,"state":4356,"omp":4357,"utions":4358,"ected":4359,"Ġhy":4360,"Ġasserted":4361,"theological":4362,"Ġexposed":4363,"Ġlose":4364,"Ġloc":4365,"Ġsusp":4366,"quite":4367,"Ġpropose":4368,"Ġobjection":4369,"Ġdeep":4370,"Ġalong":4371,"above":4372,"Ġunceasing":4373,"umber":4374,"true":4375,"Ġrank":4376,"Ġmeant":4377,"Ġimposed":4378,"Ġseat":4379,"Ġstated":4380,"Ġrelating":4381,"ĠPlato":4382,"Ġdisjunctive":4383,"Ġpremis":4384,"Ġprecisely":4385,"Ġchimer":4386,"Ġparties":4387,"ĠSince":4388,"ĠNe":4389,"ĠNevertheless":4390,"ĠObject":4391,"Ġservice":4392,"Ġpresenting":4393,"comb":4394,"astic":4395,"Ġgoodness":4396,"Ġoutside":4397,"Ġpossessed":4398,"ounces":4399,"Ġimpart":4400,"ĠMat":4401,"ĠMetaphys":4402,"Ġcompare":4403,"Ġadvantages":4404,"Ġillusions":4405,"Ġrightly":4406,"Ġextending":4407,"Ġconcerning":4408,"certainly":4409,"Ġmodality":4410,"Ġedifice":4411,"Ġutmost":4412,"Ġequivalent":4413,"Ġsignifies":4414,"completeness":4415,"simple":4416,"Ġharmonize":4417,"Ġundoubted":4418,"Ġconjoined":4419,"Ġtreats":4420,"Ġdistribute":4421,"Ġdistributing":4422,"Ġcriteria":4423,"command":4424,"Ġstrictly":4425,"Ġexhibits":4426,"Ġexcluded":4427,"Ġblame":4428,"Ġpursue":4429,"Ġforegoing":4430,"Ġdelusion":4431,"Ġapproxim":4432,"summum":4433,"ĠSpeculative":4434,"consideration":4435,"ĠPrinciple":4436,"contains":4437,"contained":4438,"grounds":4439,"Ġadopted":4440,"thinking":4441,"predicates":4442,"belonging":4443,"succession":4444,"sensation":4445,"Ġannihilated":4446,"explanation":4447,"Ġsequel":4448,"ĠAccordingly":4449,"Ġconfine":4450,"Ġborrowed":4451,"Ġobstac":4452,"Ġpreserve":4453,"Ġstrength":4454,"ttp":4455,"hypothesis":4456,"Ġbehind":4457,"exercise":4458,"degree":4459,"Ġgovern":4460,"ixture":4461,"Ġduration":4462,"VE":4463,"ger":4464,"ier":4465,"oot":4466,"¢Ä":4467,"orm":4468,"enlar":4469,"alt":4470,"sole":4471,"intu":4472,"distrib":4473,"QU":4474,"clear":4475,"sour":4476,"orph":4477,"iform":4478,"ilis":4479,"answ":4480,"progress":4481,"Ġpleasant":4482,"need":4483,"ARRAN":4484,"author":4485,"col":4486,"cks":4487,"ee":4488,"fit":4489,"mod":4490,"ri":4491,"Ġmon":4492,"see":4493,"ott":4494,"pright":4495,"prop":4496,"uncondition":4497,"avoured":4498,"aneous":4499,"ogeneity":4500,"inquir":4501,"Here":4502,"deduction":4503,"prom":4504,"Ġtaking":4505,"icion":4506,"Ġbre":4507,"Ġness":4508,"utable":4509,"Ġlink":4510,"construction":4511,"Ġunion":4512,"ope":4513,"method":4514,"Ġcogitating":4515,"Ġattempted":4516,"ashion":4517,"expected":4518,"Chapter":4519,"God":4520,"Let":4521,"co":4522,"dialectical":4523,"might":4524,"nay":4525,"Ġtend":4526,"Ġtell":4527,"Ġthesis":4528,"reference":4529,"itate":4530,"Ġcle":4531,"Ġpenetr":4532,"Ġinward":4533,"Ġfict":4534,"Ġresol":4535,"Ġrecomm":4536,"Ġreplace":4537,"Ġconstraint":4538,"Ġdr":4539,"Ġdim":4540,"Ġdream":4541,"Ġbear":4542,"arbitr":4543,"Ġhid":4544,"Ġhard":4545,"Ġlaid":4546,"result":4547,"ĠTRANSCENDENTAL":4548,"conceived":4549,"Ġdepr":4550,"Ġintended":4551,"usive":4552,"illusion":4553,"Ġunworthy":4554,"Ġthereto":4555,"ofold":4556,"Ġundert":4557,"Ġwills":4558,"Ġanywhere":4559,"Ġformat":4560,"Ġstop":4561,"ĠAuthor":4562,"unless":4563,"Ġsubjected":4564,"ĠPer":4565,"Ġdisclaim":4566,"Ġprefer":4567,"clos":4568,"Ġarchitect":4569,"ternity":4570,"ĠSto":4571,"Ġwhatsoever":4572,"ĠON":4573,"Ġnearer":4574,"Ġcompletion":4575,"Ġgrant":4576,"ĠCategor":4577,"ĠChapter":4578,"Ġthoughts":4579,"serve":4580,"Ġconsiders":4581,"Ġenables":4582,"ĠEBOOK":4583,"Ġpresum":4584,"Ġambig":4585,"manner":4586,"manuel":4587,"Ġoriginated":4588,"ĠMy":4589,"evident":4590,"Ġcompared":4591,"ĠLogic":4592,"Ġattaining":4593,"Ġbeforehand":4594,"empirically":4595,"ĠConception":4596,"Ġsets":4597,"Ġdistinguishing":4598,"Ġpersonal":4599,"Ġnumer":4600,"aneously":4601,"ailed":4602,"anything":4603,"Ġexpectation":4604,"Ġopinions":4605,"Ġapprehend":4606,"extension":4607,"Ġallowable":4608,"Ġpromises":4609,"Ġdependence":4610,"regarding":4611,"difference":4612,"Ġmaintained":4613,"Ġteach":4614,"Ġteaches":4615,"Ġbringing":4616,"Ġcorrectness":4617,"limits":4618,"Ġasked":4619,"Ġseeking":4620,"Ġrecognize":4621,"Ġrecognized":4622,"Ġspontaneous":4623,"ĠĠĠĠĠĠĠĠĠĠĠĠĠĠĠĠĠĠĠĠĠĠĠ":4624,"ĠIdeal":4625,"including":4626,"Ġroom":4627,"ĠJust":4628,"distinguished":4629,"mathematical":4630,"insic":4631,"presupposes":4632,"predicate":4633,"Ġannihilate":4634,"Ġhonour":4635,"Ġtranscend":4636,"Ġheterogeneous":4637,"Ġprobably":4638,"Ġanalogies":4639,"ĠImmanuel":4640,"validity":4641,"Ġmentioned":4642,"Ġreceiving":4643,"drawn":4644,"Ġethics":4645,"Ġremoved":4646,"Ġindirectly":4647,"against":4648,"ĠPURE":4649,"Ġcalcul":4650,"Ġfulfil":4651,"depends":4652,"Ġdoctrines":4653,"Ġadapted":4654,"Ġchapter":4655,"ĠJudgements":4656,"Ġtaste":4657,"Ġhyper":4658,"Ġsuspicion":4659,"Qu":4660,"SI":4661,"Ġive":4662,"ilities":4663,"RIN":4664,"rist":4665,"Ġast":4666,"anim":4667,"ivable":4668,"Äłst":4669,"anticip":4670,"obtain":4671,"grad":4672,"ock":4673,"continu":4674,"OM":4675,"ched":4676,"ius":4677,"reciproc":4678,"err":4679,"erable":4680,"ÄłE":4681,"els":4682,"AN":4683,"af":4684,"inc":4685,"render":4686,"eng":4687,"Äłpre":4688,"Ġproving":4689,"orily":4690,"Ġjoin":4691,"Ġactive":4692,"Ġready":4693,"Ġcomprehensible":4694,"PH":4695,"iating":4696,"long":4697,"alth":4698,"Ġann":4699,"iring":4700,"urther":4701,"ulae":4702,"Ġpropri":4703,"else":4704,"undred":4705,"metaphysic":4706,"negative":4707,"Ġaccompan":4708,"Ġfortune":4709,"imperative":4710,"78":4711,"FACE":4712,"cosmological":4713,"electronic":4714,"fers":4715,"iology":4716,"lied":4717,"member":4718,"number":4719,"opposite":4720,"was":4721,"Ġil":4722,"Ġies":4723,"Ġtalent":4724,"Ġaugment":4725,"Ġtheological":4726,"isions":4727,"aticism":4728,"Ġcent":4729,"Ġinadequate":4730,"Ġfashion":4731,"anations":4732,"Ġeternity":4733,"Ġreve":4734,"Ġrepro":4735,"Ġreached":4736,"Ġdam":4737,"Ġdays":4738,"Ġdimin":4739,"Ġhorizon":4740,"Ġpra":4741,"Ġlarge":4742,"Ġwelf":4743,"Ġforced":4744,"urus":4745,"istics":4746,"Äłn":4747,"ĠTr":4748,"Ġdeath":4749,"Ġdepart":4750,"Ġalleg":4751,"Ġalmost":4752,"oreover":4753,"illed":4754,"Ġuncertain":4755,"Ġspite":4756,"esty":4757,"Ġembr":4758,"Ġdoll":4759,"ĠBoth":4760,"admissible":4761,"Ġshap":4762,"ĠFirst":4763,"ĠFreedom":4764,"Ġideality":4765,"Ġrelative":4766,"Ġchance":4767,"Ġsomewhat":4768,"agree":4769,"ĠOr":4770,"material":4771,"ĠCom":4772,"Ġemploys":4773,"Ġdiscursive":4774,"Ġindetermin":4775,"Ġindefinite":4776,"ĠHim":4777,"Ġextreme":4778,"Ġenounce":4779,"understood":4780,"Ġoutward":4781,"Ġassured":4782,"Ġproducing":4783,"Ġsynthetically":4784,"Ġincludes":4785,"Ġimply":4786,"Ġviewed":4787,"Ġcorrelate":4788,"Ġestimate":4789,"Ġpowerful":4790,"Ġseeks":4791,"ĠLet":4792,"Ġdecided":4793,"ĠUse":4794,"Ġclearness":4795,"Ġrights":4796,"cribing":4797,"Ġextends":4798,"Ġanswered":4799,"Ġexerc":4800,"Ġreadily":4801,"Ġcommanded":4802,"Ġvirtuous":4803,"ĠTHIS":4804,"Ġoverstep":4805,"Ġerrone":4806,"Ġholding":4807,"Ġdoubtful":4808,"purely":4809,"Ġpasses":4810,"Ġpreceded":4811,"Ġprogression":4812,"neither":4813,"Ġpeculiarity":4814,"Ġdrawing":4815,"discovered":4816,"Ġanalytically":4817,"categorical":4818,"Ġteacher":4819,"independence":4820,"Ġparalogism":4821,"Ġmomenta":4822,"ĠExperience":4823,"Ġestablishment":4824,"causes":4825,"ĠĠĠĠĠĠĠĠĠĠĠĠĠĠĠĠĠĠĠĠĠ":4826,"ĠĠĠĠĠĠĠĠĠĠĠĠĠĠĠĠĠĠĠĠĠĠ":4827,"Ġdestru":4828,"ĠVII":4829,"Ġchecks":4830,"Ġdeclares":4831,"Ġorganon":4832,"constitute":4833,"constitutive":4834,"Ġdeserve":4835,"Ġdispute":4836,"Ġdisputes":4837,"myself":4838,"Ġsceptical":4839,"Ġfaith":4840,"special":4841,"Ġcreated":4842,"Ġgained":4843,"Ġdogmatic":4844,"Ġhighly":4845,"senses":4846,"Ġmagn":4847,"Ġcolour":4848,"ĠANY":4849,"Ġreduced":4850,"Ġunconditionally":4851,"critical":4852,"ĠHowever":4853,"higher":4854,"Supreme":4855,"Ġaccidental":4856,"Ġfirmly":4857,"Ġobscurity":4858,"nexion":4859,"Ġindifference":4860,"Ġindifferent":4861,"psychology":4862,"legislation":4863,"Ġdisappears":4864,"Ġenjoyment":4865,"Ġavailable":4866,"definition":4867,"observation":4868,"Ġwonder":4869,"Ġbuild":4870,"Ġhistory":4871,"ĠNature":4872,"mentioned":4873,"important":4874,"PREFACE":4875,"Accordingly":4876,"Ġtreated":4877,"Ġwarning":4878,"ĠPhenomena":4879,"ĠREMARK":4880,"Ġtribunal":4881,"aenomenon":4882,"Ġslightest":4883,"Ġwelfare":4884,"UC":4885,"affect":4886,"cop":4887,"coun":4888,"mo":4889,"vari":4890,"Ġ-":4891,"arante":4892,"Äłsu":4893,"ostat":4894,"demand":4895,"chety":4896,"au":4897,"flu":4898,"opp":4899,"Ġinc":4900,"Äłper":4901,"Äłtr":4902,"cap":4903,"AB":4904,"CI":4905,"cid":4906,"iality":4907,"uity":4908,"cell":4909,"search":4910,"armon":4911,"oreal":4912,"esteem":4913,"add":4914,"indis":4915,"contem":4916,"ken":4917,"noumen":4918,"oad":4919,"small":4920,"Ġinner":4921,"Ġment":4922,"entia":4923,"term":4924,"ciation":4925,"construct":4926,"individual":4927,"understand":4928,"Ġchangeable":4929,"irtue":4930,"Ġchanged":4931,"vereign":4932,"Ġusual":4933,"problematical":4934,"?\"":4935,"ned":4936,"word":4937,"Ġions":4938,"Ġinstruct":4939,"Ġfl":4940,"anc":4941,"Ġday":4942,"asis":4943,"imental":4944,"Ġanthrop":4945,"conduct":4946,"Ġration":4947,"sophist":4948,"evol":4949,"arrass":4950,"Ġ50":4951,"successive":4952,"pathological":4953,"feeling":4954,"ILITY":4955,"\";":4956,"CL":4957,"TY":4958,"TRANSCENDENTAL":4959,"UL":4960,"cour":4961,"cases":4962,"homogeneous":4963,"oice":4964,"pet":4965,"poreal":4966,"viz":4967,"way":4968,"Ġence":4969,"inally":4970,"Ġwa":4971,"Ġwid":4972,"Ġwater":4973,"Ġcred":4974,"alf":4975,"Ġinhere":4976,"Ġinstit":4977,"Ġbase":4978,"Ġthy":4979,"Ġthreat":4980,"Ġmut":4981,"Ġmund":4982,"Ġfile":4983,"Ġfoot":4984,"Ġnull":4985,"Ġerect":4986,"Ġrepe":4987,"Ġconject":4988,"still":4989,"Ġhundred":4990,"Ġpride":4991,"Ġuseless":4992,"Ġupright":4993,"Ġexpose":4994,"Ġsuscept":4995,"Ġgif":4996,"ainted":4997,"Ġpropens":4998,"ĠTot":4999,"Ġintensive":5000,"abled":5001,"Ġunb":5002,"Ġunnecessary":5003,"Ġuniform":5004,"Ġrange":5005,"Ġprincip":5006,"Ġexistences":5007,"Ġviol":5008,"prof":5009,"Ġimprov":5010,"Ġhear":5011,"supreme":5012,"ĠFOR":5013,"Ġquar":5014,"nowledge":5015,"ĠAl":5016,"ĠApp":5017,"ĠAnt":5018,"acks":5019,"Ġyear":5020,"etween":5021,"Ġarchety":5022,"Ġsynthetic":5023,"ĠSelf":5024,"Ġsubmit":5025,"Ġplurality":5026,"Ġendowed":5027,"ortunity":5028,"proved":5029,"procedure":5030,"Ġremote":5031,"Ġsystems":5032,"Ġexamined":5033,"Ġenabled":5034,"Ġyouth":5035,"Ġentered":5036,"Ġattack":5037,"lective":5038,"cognized":5039,"Ġoriginally":5040,"Ġshowing":5041,"Ġquantum":5042,"ĠMe":5043,"Ġconsidering":5044,"Ġdivisible":5045,"Ġadvisable":5046,"Ġmatters":5047,"Ġconceal":5048,"luences":5049,"Ġremaining":5050,"Ġdecom":5051,"Ġdecision":5052,"Ġpresupposing":5053,"Ġconfusion":5054,"Ġaffinity":5055,"Ġplease":5056,"Ġconforms":5057,"Ġsetting":5058,"Ġarranged":5059,"Ġimperfect":5060,"Ġregressive":5061,"Ġelaps":5062,"Ġexert":5063,"Ġpersonality":5064,"Ġseemed":5065,"Ġindicating":5066,"doctrine":5067,"Ġconducted":5068,"Ġessence":5069,"Ġfallacy":5070,"Ġsuperior":5071,"happens":5072,"Ġsingular":5073,"Ġvolunteers":5074,"Ġtreatise":5075,"Ġbrings":5076,"limitation":5077,"Ġdistributed":5078,"apperception":5079,"Ġintuitive":5080,"pecial":5081,"Ġcontinued":5082,"intelligence":5083,"ĠUnity":5084,"Ġexhibited":5085,"ordinated":5086,"ĠExposition":5087,"questions":5088,"Ġdesignate":5089,"Ġobservations":5090,"synthetically":5091,"Ġbecoming":5092,"Ġsurface":5093,"Ġsorts":5094,"Ġroad":5095,"Ġpostulates":5096,"ĠKnowledge":5097,"Ġoffice":5098,"cogitated":5099,"Ġacquainted":5100,"ĠÃĨ":5101,"Ġgeometrical":5102,"demonstration":5103,"Ġpeace":5104,"Ġcollection":5105,"Ġmechanical":5106,"www":5107,"Ġdirections":5108,"Ġprudent":5109,"Ġaccidents":5110,"Ġproducts":5111,"Ġanalogous":5112,"ĠProof":5113,"ĠProble":5114,"Ġcontempor":5115,"Ġassigned":5116,"Ġhumili":5117,"Ġobstin":5118,"supersensible":5119,"ertitude":5120,"Ġpunishment":5121,"ĠPhilos":5122,"ĠPhys":5123,"Ġcapacity":5124,"consequences":5125,"Ġancient":5126,"Ġancients":5127,"Ġdevelopment":5128,"Ġsublime":5129,"imagination":5130,"arguments":5131,"obligation":5132,"Ġmultitude":5133,"Ġprospect":5134,"ĠDivision":5135,"Ġtwofold":5136,"Ġheaven":5137,"ĠEpicurus":5138,"IRST":5139,"Ġappeal":5140,"Ġgradually":5141,"ĠĠĠĠĠĠĠĠĠĠĠĠĠ":5142,"Ġvanity":5143,"Ġsacr":5144,"Ġcompliance":5145,"ĠIntuition":5146,"ĠDiscipline":5147,"sufficiency":5148,"entirely":5149,"Ġhypostat":5150,"Ġadmiration":5151,"body":5152,"econdly":5153,"Ġsettled":5154,"Ġisolated":5155,"Ġdollars":5156,"Ġelapsed":5157,"80":5158,"barrass":5159,"Ġz":5160,"sem":5161,"Ġist":5162,"admit":5163,"unt":5164,"Ġclos":5165,"000":5166,"apodeict":5167,"68":5168,"AG":5169,"Be":5170,"fig":5171,"oast":5172,"Ġaf":5173,"omorph":5174,"Ġance":5175,"plex":5176,"abor":5177,"new":5178,"ING":5179,"LI":5180,"po":5181,"ativ":5182,"Äłsub":5183,"ulg":5184,"Ġating":5185,"echn":5186,"ael":5187,"limin":5188,"ores":5189,"icated":5190,"arm":5191,"ichael":5192,"imity":5193,"istinction":5194,"Äłen":5195,"solu":5196,"ression":5197,"formal":5198,"syllogism":5199,"educ":5200,"Ġcogitable":5201,"deser":5202,"commun":5203,"ITED":5204,"AMAG":5205,"Being":5206,"inal":5207,"Ġog":5208,"alid":5209,"espect":5210,"Ġmov":5211,"Ġfix":5212,"Ġreconci":5213,"istence":5214,"ifies":5215,"Äłim":5216,"etch":5217,"aggreg":5218,"Ġposited":5219,"Ġamount":5220,"Ġproductive":5221,"lected":5222,"determinate":5223,"Ġselfish":5224,"apply":5225,"account":5226,"works":5227,"desire":5228,"Ġrestricted":5229,"antecedent":5230,"fluous":5231,",[":5232,";_":5233,"Book":5234,"OL":5235,"Our":5236,"based":5237,"basis":5238,"circ":5239,"eavoured":5240,"gives":5241,"junction":5242,"virtue":5243,"wish":5244,"Ġers":5245,"Ġtechn":5246,"Ġsite":5247,"icial":5248,"Ġinconsistent":5249,"Ġbott":5250,"ories":5251,"Ġmid":5252,"Ġfiction":5253,"Ġflatter":5254,"Ġrevol":5255,"Ġdue":5256,"Ġbea":5257,"omogeneity":5258,"otle":5259,"Ġhouse":5260,"Ġprint":5261,"osen":5262,"Ġonline":5263,"owers":5264,"Ġsupposing":5265,"ury":5266,"verse":5267,"perhaps":5268,"Äład":5269,"embr":5270,"Ġdeal":5271,"Ġunchangeable":5272,"âĢĶâĢľ":5273,"ĠĠĠĠĠĠĠĠĠĠĠ":5274,"ĠĠĠĠĠĠĠĠĠĠĠĠĠĠĠ":5275,"Ġ(Â§":5276,"Ġtherewith":5277,"try":5278,"Ġrad":5279,"Ġrash":5280,"Ġroyal":5281,"Ġsovereign":5282,"ideal":5283,"Ġvis":5284,"Ġwilling":5285,"ĠBe":5286,"adistinction":5287,"Ġformation":5288,"Ġnoble":5289,"Ġshar":5290,"Ġshare":5291,"ements":5292,"Ġadmission":5293,"ĠPossib":5294,"Ġworlds":5295,"fered":5296,"Ġchosen":5297,"speculation":5298,"ĠĠĠĠĠĠĠĠĠĠĠĠĠĠĠĠĠĠĠĠĠĠĠĠĠĠĠĠĠĠĠĠ":5299,"Ġmach":5300,"Ġfarther":5301,"Ġcompleted":5302,"Ġbelow":5303,"Ġcontact":5304,"ĠGree":5305,"ĠWARRAN":5306,"Ġgrow":5307,"Ġgrand":5308,"Ġcontrast":5309,"arest":5310,"Ġdesp":5311,"ĠHart":5312,"Ġfees":5313,"Ġenumer":5314,"Ġagent":5315,"Ġgrounded":5316,"ĠEX":5317,"Ġmaximum":5318,"Ġpossessing":5319,"aving":5320,"Ġsimplicity":5321,"Ġattended":5322,"anges":5323,"Ġimpressions":5324,"Ġfeels":5325,"thereby":5326,"Ġmodel":5327,"Ġinfall":5328,"Ġexplanations":5329,"ĠMan":5330,"Ġwherein":5331,"Ġproceeded":5332,"regulative":5333,"Ġcomput":5334,"Ġcompens":5335,"Ġseeing":5336,"Ġfreely":5337,"Ġ12":5338,"Ġsupplied":5339,"Ġphysico":5340,"Ġdirects":5341,"Ġarrange":5342,"Ġarriving":5343,"OND":5344,"Ġoccurs":5345,"perceptions":5346,"Ġanswers":5347,"Ġimaginary":5348,"Ġparticularly":5349,"Ġguarante":5350,"Ġindicated":5351,"contradictions":5352,"Ġmethods":5353,"Ġbelieves":5354,"Ġoverlook":5355,"Ġequip":5356,"Ġtheoretically":5357,"Ġposted":5358,"Ġboundaries":5359,"Ġexplaining":5360,"Ġmisunderstanding":5361,"Ġapplying":5362,"Ġlooking":5363,"Ġlooked":5364,"Ġmaintains":5365,"Ġadditions":5366,"Ġfalsely":5367,"philosophical":5368,"brought":5369,"Ġdispositions":5370,"Ġobtaining":5371,"remains":5372,"Ġtransition":5373,"Ġrecognizes":5374,"Ġexclude":5375,"Ġ30":5376,"applicable":5377,"Ġpursuit":5378,"Ġpursues":5379,"produce":5380,"produced":5381,"Ġadvancement":5382,"confidence":5383,"universality":5384,"Ġpostulated":5385,"perfection":5386,"Ġpositively":5387,"Ġwitness":5388,"possesses":5389,"Ġfault":5390,"Ġaccepted":5391,"Ġcircumstance":5392,"Ġdogmatism":5393,"Ġdatur":5394,"Ġhappened":5395,"Ġkeeping":5396,"pathy":5397,"Ġirre":5398,"enetrability":5399,"Ġlabours":5400,"Ġconflicting":5401,"effects":5402,"Ġfanaticism":5403,"Ġreciprocally":5404,"points":5405,"While":5406,"Ġascending":5407,"motive":5408,"Ġelevated":5409,"ĠSystem":5410,"Ġobscure":5411,"Ġaffords":5412,"Ġdangerous":5413,"Consequently":5414,"Ġmarked":5415,"Ġethical":5416,"independently":5417,"Ġsublimity":5418,"Ġusually":5419,"Ġincrease":5420,"Ġexecution":5421,"Ġpersuasion":5422,"ĠChrist":5423,"ĠEmpirical":5424,"difficulties":5425,"dogmat":5426,"ustomed":5427,"Ġstrugg":5428,"Ġaccurately":5429,"OGY":5430,"Ġtalents":5431,"Ġconvinced":5432,"Ġfrequent":5433,"IMITED":5434,"Ġfallacious":5435,"Ġscholastic":5436,"Ġevidently":5437,"Ġcommencement":5438,"Ġomnipot":5439,"Ġspectator":5440,"Ġpremisses":5441,"ĠNew":5442,"Ġundoubtedly":5443,"Ġbreak":5444,"Ġhidden":5445,"closed":5446,"Ġreproach":5447,"Ġshape":5448,"Ġindeterminate":5449,"Ġerroneous":5450,"ĠTotality":5451,"Ġquarter":5452,"Ġcontemporaneously":5453,"Ġbottom":5454,"Ġous":5455,"rept":5456,"lex":5457,"Ġred":5458,"ĠST":5459,"accident":5460,"remain":5461,"pursu":5462,"furn":5463,"sus":5464,"Ġten":5465,"Ġpo":5466,"Ġpress":5467,"let":5468,"qual":5469,"Äłch":5470,"emonstr":5471,"pract":5472,"accomp":5473,"veyed":5474,"AC":5475,"OD":5476,"ORE":5477,"ault":5478,"don":5479,"ihil":5480,"mist":5481,"mechan":5482,"rog":5483,"rust":5484,"uct":5485,"erci":5486,"Ġure":5487,"throw":5488,"resist":5489,"Äłan":5490,"ament":5491,"Ġvice":5492,"ieve":5493,"arrow":5494,"destr":5495,"argument":5496,"bound":5497,"mong":5498,"sed":5499,"yright":5500,"inom":5501,"insepar":5502,"rent":5503,"ata":5504,"Ġcour":5505,"Ġmixed":5506,"ters":5507,"ÄłF":5508,"Ġates":5509,"olf":5510,"tains":5511,"Ġru":5512,"exper":5513,"phism":5514,"pons":5515,"ALEC":5516,"Ġconven":5517,"remark":5518,"olem":5519,"ESIS":5520,"THESIS":5521,"Ġauthorized":5522,"SIS":5523,"aper":5524,"pgl":5525,"want":5526,"Ġiv":5527,"ati":5528,"atory":5529,"Ġnamed":5530,"utter":5531,"Ġascertain":5532,"irth":5533,"Äłg":5534,"ulation":5535,"Ġaltern":5536,"Ġrun":5537,"Ġqua":5538,"mean":5539,"disposition":5540,"ableness":5541,"Ġpassing":5542,"upil":5543,"Ġsupported":5544,"Ġearly":5545,"TICAL":5546,"psychological":5547,"Ġaccurate":5548,"ologia":5549,"beginning":5550,"No":5551,"Understanding":5552,"UND":5553,"Whether":5554,"],":5555,"apons":5556,"critique":5557,"hood":5558,"hope":5559,"pperception":5560,"public":5561,"powers":5562,"rance":5563,"rather":5564,"uly":5565,"onically":5566,"itation":5567,"itative":5568,"itles":5569,"Ġofficial":5570,"isen":5571,"Ġwww":5572,"Ġpaper":5573,"icability":5574,"Ġincomplete":5575,"Ġincomp":5576,"Ġbook":5577,"Ġboast":5578,"Ġtouch":5579,"Ġmarks":5580,"ancing":5581,"Ġnext":5582,"Ġeternal":5583,"Ġego":5584,"seen":5585,"Ġconnexion":5586,"Ġdate":5587,"stead":5588,"oted":5589,"Ġannex":5590,"Ġexempt":5591,"Ġexceptions":5592,"Ġexcell":5593,"Ġlic":5594,"Ġlur":5595,"Ġliving":5596,"Ġlater":5597,"Ġnotice":5598,"ĠĠĠĠĠĠ":5599,"Ġsun":5600,"Ġsuit":5601,"thics":5602,"ogicians":5603,"ulates":5604,"Ġdetr":5605,"acting":5606,"usively":5607,"about":5608,"Ġunf":5609,"taining":5610,"Ġours":5611,"Ġspo":5612,"notions":5613,"Ġsophism":5614,"Ġvac":5615,"Ġtried":5616,"aded":5617,"Ġformulae":5618,"suppose":5619,"Ġsees":5620,"Ġcognizing":5621,"Ġmankind":5622,"unavoidable":5623,"Ġsubjecting":5624,"ĠPRIN":5625,"Ġeverywhere":5626,"ĠĠĠĠĠĠĠĠĠĠĠĠĠĠĠĠĠ":5627,"ĠSome":5628,"Ġphaenomenon":5629,"enses":5630,"ĠNor":5631,"Ġsubstit":5632,"ĠInformation":5633,"Ġpresently":5634,"Ġcontempt":5635,"forms":5636,"formed":5637,"Ġlimiting":5638,"Ġrequiring":5639,"Ġowner":5640,"Ġphilosoph":5641,"within":5642,"others":5643,"Ġindefinitum":5644,"âĢĿâĢĶ":5645,"Ġextinction":5646,"Ġenounces":5647,"Ġformerly":5648,"Ġgroundless":5649,"ĠEither":5650,"Ġeffected":5651,"Ġassent":5652,"Ġassure":5653,"Ġrealization":5654,"Ġjustly":5655,"avid":5656,"Ġentertain":5657,"Ġentitle":5658,"many":5659,"physico":5660,"Ġoriginating":5661,"ĠWeb":5662,"fulness":5663,"Ġinvalid":5664,"Ġinfluences":5665,"Ġcogitates":5666,"ĠMoreover":5667,"yss":5668,"rase":5669,"phenomenal":5670,"Ġdivide":5671,"Ġdivisibility":5672,"Ġcompetent":5673,"Ġ19":5674,"Ġpredicated":5675,"Ġconformed":5676,"Ġconformably":5677,"TITHESIS":5678,"Ġarrived":5679,"Ġregressus":5680,"Ġelabor":5681,"Ġinfinitely":5682,"Ġneeds":5683,"Ġmodern":5684,"Ġresulting":5685,"Ġindication":5686,"Ġantinom":5687,"HAT":5688,"Ġelementary":5689,"Ġreaders":5690,"become":5691,"Ġsolic":5692,"Ġsolid":5693,"Ġsolve":5694,"Ġspecific":5695,"Ġholder":5696,"Ġcoinc":5697,"Ġprovince":5698,"Ġinstinct":5699,"Ġharm":5700,"Ġelsewhere":5701,"Ġdenom":5702,"extent":5703,"Ġgenerated":5704,"ĠTHESIS":5705,"Ġmaintaining":5706,"Ġpaths":5707,"Ġadds":5708,"Ġconjoin":5709,"category":5710,"Ġjudged":5711,"Ġjudging":5712,"Ġtreating":5713,"Ġtreatment":5714,"Ġoperating":5715,"Ġintrinsic":5716,"Ġcorrectly":5717,"Ġpretended":5718,"Ġamongst":5719,"required":5720,"Ġintuite":5721,"Ġcontinuity":5722,"Ġcomparative":5723,"Ġmomentum":5724,"justice":5725,"Ġexcludes":5726,"Ġexclusively":5727,"Ġcombat":5728,"Ġspontaneously":5729,"Ġkey":5730,"inclinations":5731,"appears":5732,"appearance":5733,"Ġapodeictically":5734,"consistency":5735,"employed":5736,"Ġavoided":5737,"Ġinevitable":5738,"Ġseparated":5739,"Ġacquired":5740,"presupposed":5741,"Ġopportunity":5742,"ĠStill":5743,"Ġdogmatist":5744,"satisfactory":5745,"analysis":5746,"Ġtaught":5747,"ĠANAL":5748,"Ġexperiences":5749,"Ġimplied":5750,"Ġ90":5751,"greater":5752,"criticism":5753,"Ġdefend":5754,"Ġassociation":5755,"attainable":5756,"Ġfourth":5757,"Ġwriting":5758,"Ġreceives":5759,"Ġconfined":5760,"Ġenlargement":5761,"Ġdiscussions":5762,"motion":5763,"rests":5764,"posteriori":5765,"maxims":5766,"indicate":5767,"Ġimpulse":5768,"Ġreckoned":5769,"Ġsubsumption":5770,"Ġauthorize":5771,"Ġspiritual":5772,"assertions":5773,"Ġaccompany":5774,"ikes":5775,"Ġmoon":5776,"Ġmoving":5777,"Ġmulti":5778,"ĠDivine":5779,"Ġmediately":5780,"concerned":5781,"Ġprimary":5782,"Ġcosts":5783,"Ġconstantly":5784,"ĠMorality":5785,"Ġderivative":5786,"signification":5787,"preceding":5788,"ĠNothing":5789,"deduced":5790,"philosophers":5791,"Ġprepare":5792,"ĠDIALEC":5793,"ĠSECTION":5794,"Ġsubstantial":5795,"Ġconfirmation":5796,"Ġmoderate":5797,"elements":5798,"Ġinjurious":5799,"Ġtype":5800,"Ġlocated":5801,"ĠMathemat":5802,"solely":5803,"source":5804,"Ġlinks":5805,"Ġreplacement":5806,"ĠCategories":5807,"Ġpresumption":5808,"ength":5809,"Ġwonderful":5810,"Ġflow":5811,"Ġrationis":5812,"Ġdecomposition":5813,"ĠÃĨsthetic":5814,"ĠPhilosophy":5815,"Ġheavenly":5816,"Ġsacrifice":5817,"liminary":5818,"soluble":5819,"ĠGreek":5820,"Ġequipment":5821,"ĠChristian":5822,"pglaf":5823,"Per":5824,"Tr":5825,"Ġism":5826,"utic":5827,"Äłsp":5828,"emper":5829,"excl":5830,"class":5831,"inev":5832,"ocr":5833,"discern":5834,"design":5835,"comprehend":5836,"destroy":5837,"ony":5838,"organ":5839,"cil":5840,"Äłpro":5841,"dev":5842,"sual":5843,"DUC":5844,"Leibnitz":5845,"Sp":5846,"St":5847,"Un":5848,"rection":5849,"ÄłI":5850,"ÄłN":5851,"Äłsh":5852,"Ġally":5853,"Ġality":5854,"get":5855,"Ġhes":5856,"Ġgoing":5857,"sym":5858,"invol":5859,"explain":5860,"ÄłÄłÄłÄłÄłÄłÄłÄłÄłÄłÄłÄłÄłÄłÄłÄł":5861,"PLES":5862,"ATIONS":5863,"contempl":5864,"meaning":5865,"41":5866,"EAS":5867,"Metaphys":5868,"SEC":5869,"harmon":5870,"treat":5871,"ym":5872,"Ġ***":5873,"infin":5874,"enevol":5875,"annihil":5876,"istrib":5877,"ifferent":5878,"Äłth":5879,"Äłbe":5880,"defect":5881,"definite":5882,"igination":5883,"adox":5884,"Ġstead":5885,"haust":5886,"evil":5887,"ĠVI":5888,"RODUC":5889,"ORAL":5890,"convin":5891,"RODUCTION":5892,"ry":5893,"soul":5894,"reement":5895,"Ġfat":5896,"Ġfixed":5897,"ancy":5898,"essential":5899,"urean":5900,"tray":5901,"exposition":5902,"pont":5903,"previous":5904,"Ġserved":5905,"mell":5906,"Ġconsiderable":5907,"Ġchanging":5908,"discus":5909,"production":5910,"Ġfair":5911,"Ġsufficiency":5912,"Ġsteps":5913,"ICT":5914,"dogmatical":5915,"secure":5916,"CIPLES":5917,"!\"":5918,"Pure":5919,"Please":5920,"PART":5921,"Such":5922,"Secondly":5923,"TRODUCTION":5924,"ade":5925,"aseless":5926,"came":5927,"further":5928,"iability":5929,"logic":5930,"life":5931,"makes":5932,"pute":5933,"rules":5934,"uality":5935,"Ã¦":5936,"Ġtitles":5937,"heres":5938,"Ġomit":5939,"Ġoppose":5940,"receive":5941,"itates":5942,"Ġoffer":5943,"Ġsil":5944,"Ġportion":5945,"Ġpupil":5946,"Ġinex":5947,"Ġinability":5948,"Ġinternally":5949,"Ġinadmissible":5950,"Ġinsoluble":5951,"especially":5952,"Ġband":5953,"Ġbind":5954,"Ġbirth":5955,"Ġtopic":5956,"anci":5957,"Ġnarrow":5958,"Ġelectr":5959,"seem":5960,"Ġreaction":5961,"Ġbears":5962,"Ġbetray":5963,"Ġbecame":5964,"stone":5965,"utility":5966,"Ġhttp":5967,"Ġhalf":5968,"Ġhomogeneity":5969,"Ġprime":5970,"theoretic":5971,"impossibility":5972,"oses":5973,"Ġexternally":5974,"Ġexposing":5975,"Ġlot":5976,"Ġlab":5977,"Ġlicense":5978,"Ġlength":5979,"Ġweal":5980,"termed":5981,"Ġgave":5982,"three":5983,"ura":5984,"ĠIs":5985,"istotle":5986,"ifying":5987,"permanent":5988,"ÄłH":5989,"ÄłW":5990,"Ġproposes":5991,"ĠTake":5992,"ender":5993,"Ġdece":5994,"uses":5995,"Ġative":5996,"Ġunfortun":5997,"Ġtherefrom":5998,"trademark":5999,"Ġspurious":6000,"ecessity":6001,"hering":6002,"Ġves":6003,"Ġvoice":6004,"Ġtrust":6005,"Ġtrack":6006,"Ġtrying":6007,"geometr":6008,"Ġimpose":6009,"Ġheight":6010,"Ġabide":6011,"adly":6012,"admitted":6013,"Ġperplex":6014,"ĠFIRST":6015,"Ġstatus":6016,"whose":6017,"ĠAb":6018,"Ġaccustomed":6019,"ulture":6020,"ultaneous":6021,"universe":6022,"ĠPart":6023,"Ġdissimilar":6024,"Ġknowing":6025,"Ġpreliminary":6026,"Ġchild":6027,"Ġparticip":6028,"Ġarisen":6029,"Ġrepresenting":6030,"Ġmyst":6031,"finally":6032,"Ġdiffer":6033,"ortions":6034,"composition":6035,"Ġlimitative":6036,"Ġconnecting":6037,"prove":6038,"Ġdistance":6039,"Ġrationalis":6040,"ĠHuman":6041,"Ġfell":6042,"Ġenclosed":6043,"lessness":6044,"Ġprescribed":6045,"alytical":6046,"Ġthinker":6047,"Ġthinkers":6048,"Ġassist":6049,"Ġassistance":6050,"Ġrealized":6051,"ounced":6052,"ĠDIS":6053,"ĠDAMAG":6054,"ĠDavid":6055,"Ġgreatly":6056,"Ġimped":6057,"Ġviews":6058,"Ġconstituting":6059,"thereof":6060,"Ġinvisible":6061,"Ġshowed":6062,"Ġintelligent":6063,"Ġintelligences":6064,"ĠMichael":6065,"ĠMORAL":6066,"Ġstrange":6067,"Ġcharacteristics":6068,"Ġcompass":6069,"Ġadvancing":6070,"Ġdeducing":6071,"Ġreside":6072,"Ġattains":6073,"Ġphysiology":6074,"Ġcontentment":6075,"Ġdirecting":6076,"ĠConcl":6077,"Ġconformable":6078,"Ġsettle":6079,"ENCE":6080,"Ġestablishes":6081,"Ġlegal":6082,"Ġdistinguishes":6083,"Ġnumbers":6084,"Ġmodific":6085,"Ġreadable":6086,"Ġsolved":6087,"Ġdemonstrations":6088,"Ġ25":6089,"Ġproviding":6090,"Ġpassed":6091,"Ġrendering":6092,"simply":6093,"Ġawaken":6094,"bles":6095,"Ġlegislating":6096,"Ġagrees":6097,"examples":6098,"Ġinferring":6099,"Ġmediating":6100,"Ġintuiting":6101,"Ġstrictest":6102,"Ġcomparing":6103,"belief":6104,"ĠExistence":6105,"Ġobservance":6106,"Ġantecedently":6107,"Ġabstracted":6108,"ĠAristotle":6109,"property":6110,"Ġpursued":6111,"Ġeye":6112,"Ġrestriction":6113,"Ġrestrictions":6114,"Ġdeliber":6115,"Ġintroduction":6116,"Ġintroducing":6117,"Ġdeclare":6118,"considerations":6119,"schema":6120,"Ġfurnished":6121,"metaphysical":6122,"Ġdeserving":6123,"Ġoffers":6124,"specif":6125,"presupposition":6126,"Ġfavourable":6127,"Ġfigures":6128,"interests":6129,"original":6130,"belongs":6131,"freely":6132,"Ġframe":6133,"Ġframed":6134,"Ġcountry":6135,"Ġirresist":6136,"likewise":6137,"Ġtranscends":6138,"Ġadmixture":6139,"observed":6140,"corresponds":6141,"However":6142,"Ġprobability":6143,"Ġfancy":6144,"Ġclasses":6145,"Ġcomprehends":6146,"powerful":6147,"Ġsketch":6148,"Whatever":6149,"Ġparagraphs":6150,"Ġopponents":6151,"Ġwritten":6152,"Ġindubit":6153,"Ġascend":6154,"Ġenlarge":6155,"Ġinseparable":6156,"Ġbenefit":6157,"Ġcontribute":6158,"Ġcontributes":6159,"distinguishable":6160,"ĠDeity":6161,"Ġ2002":6162,"Ġqualities":6163,"Ġqualitative":6164,"Ġpaying":6165,"Ġnecessitated":6166,"Ġsubsumed":6167,"expression":6168,"Ġdeveloped":6169,"iking":6170,"Ġrenounce":6171,"pretensions":6172,"Ġexecuted":6173,"Ġdisplaying":6174,"ĠDoctrine":6175,"established":6176,"instead":6177,"Ġfrequently":6178,"Ġtransgression":6179,"shown":6180,"Ġobey":6181,"Ġadduced":6182,"ĠSECOND":6183,"Ġpatient":6184,"Ġclosely":6185,"leads":6186,"Ġforbids":6187,"Ġsuffer":6188,"Ġattraction":6189,"Ġsympathy":6190,"Ġcultivation":6191,"Ġridic":6192,"Ġapproximate":6193,"Ġobstacle":6194,"ription":6195,"Ġdreams":6196,"Ġarchitectonic":6197,"ĠStoics":6198,"Ġpropriety":6199,"Ġalleged":6200,"Ġembrace":6201,"Ġdestruction":6202,"Ġbuilding":6203,"Ġconjecture":6204,"Ġgifts":6205,"Ġpropensity":6206,"Ġimprovement":6207,"Ġyears":6208,"Ġhumiliation":6209,"Ġcloser":6210,"apodeictic":6211,"figure":6212,"ativum":6213,"oresaid":6214,"Ġmovements":6215,"Ġtechnical":6216,"Ġradical":6217,"utterly":6218,"Ġelectronically":6219,"ĠDAMAGES":6220,"Ġmodifications":6221,"15":6222,"Gr":6223,"yllogism":6224,"heter":6225,"Ġain":6226,"Ġell":6227,"Äłimp":6228,"icious":6229,"assign":6230,"accur":6231,"Ġmission":6232,"THE":6233,"support":6234,"accompan":6235,"..":6236,"UD":6237,"ax":6238,"hab":6239,"ipp":6240,"Ġou":6241,"Ġct":6242,"alle":6243,"ices":6244,"jected":6245,"aining":6246,"ÄłT":6247,"endeavour":6248,"oft":6249,"adm":6250,"exc":6251,"prev":6252,"arrant":6253,"becom":6254,"process":6255,"advance":6256,"Ar":6257,"De":6258,"ION":6259,"bal":6260,"bol":6261,"cosm":6262,"hon":6263,"ii":6264,"king":6265,"spont":6266,"Ġach":6267,"incre":6268,"introdu":6269,"Ġost":6270,"Ġnihil":6271,"Ġish":6272,"deutic":6273,"umb":6274,"transc":6275,"posit":6276,"exhib":6277,"Ġyield":6278,"agger":6279,"prob":6280,"Ġentity":6281,"corrupt":6282,"CEP":6283,"EMENT":6284,"absurd":6285,"ETH":6286,"GRE":6287,"He":6288,"METH":6289,"Not":6290,"access":6291,"dated":6292,"eed":6293,"ians":6294,"merit":6295,"peculiar":6296,"uit":6297,"Ġted":6298,"reckon":6299,"erity":6300,"icate":6301,"ndeed":6302,"ivil":6303,"Ġanim":6304,"Ġlest":6305,"ciated":6306,"que":6307,"Ġsoever":6308,"exception":6309,"forth":6310,"spe":6311,"iece":6312,"Ġconceivable":6313,"aneity":6314,"*****":6315,"pensably":6316,"guard":6317,"Produ":6318,"declar":6319,"answer":6320,"proportion":6321,"PHY":6322,"did":6323,"effort":6324,"moment":6325,"sight":6326,"ton":6327,"text":6328,"uary":6329,"uge":6330,"ĠQu":6331,"Ġtext":6332,"Ġos":6333,"refer":6334,"ening":6335,"ero":6336,"ale":6337,"Ġmine":6338,"Ġfil":6339,"Ġease":6340,"sect":6341,"section":6342,"Ġrestr":6343,"oss":6344,"Ġweb":6345,"thorough":6346,"uries":6347,"cient":6348,"ogant":6349,"Äłab":6350,"Äłind":6351,"ush":6352,"Ġcast":6353,"estim":6354,"Ġtrace":6355,"arying":6356,"antly":6357,"Ġchief":6358,"Ġary":6359,"elt":6360,"Ġgrat":6361,"arium":6362,"lucid":6363,"Ġconsistency":6364,"Ġworthiness":6365,"TIQU":6366,"Ġequality":6367,"extensive":6368,"ocation":6369,"desc":6370,"Ġprobable":6371,"OGIC":6372,"establish":6373,"Ġconvincing":6374,"Ġfruitful":6375,"icked":6376,"RITIQU":6377,"Ġaccompanied":6378,"ODOL":6379,"METHODOL":6380,"16":6381,"CTICAL":6382,"IES":6383,"So":6384,"Since":6385,"You":6386,"autonomy":6387,"bits":6388,"bonum":6389,"cision":6390,"course":6391,"day":6392,"done":6393,"dialectic":6394,"gulative":6395,"http":6396,"liberty":6397,"met":6398,"mixed":6399,"na":6400,"sur":6401,"sch":6402,"said":6403,"ĉĉ":6404,"Ġax":6405,"onations":6406,"infinitum":6407,"Ġtheories":6408,"encies":6409,"Ġwished":6410,"Ġcat":6411,"Ġsize":6412,"Ġpolem":6413,"aled":6414,"already":6415,"Ġinn":6416,"Ġinsist":6417,"Ġincomprehensible":6418,"Ġinconsistency":6419,"Ġbon":6420,"Ġburd":6421,"Ġthou":6422,"orn":6423,"ctory":6424,"Ġfate":6425,"Ġelective":6426,"Ġretain":6427,"Ġreview":6428,"Ġdark":6429,"Ġbegan":6430,"oments":6431,"arise":6432,"Ġprag":6433,"Ġexagger":6434,"Ġlu":6435,"Ġlate":6436,"ptions":6437,"Ġsust":6438,"Ġsupposes":6439,"ĠIll":6440,"ifference":6441,"perceive":6442,"ÄłG":6443,"ÄłL":6444,"ÄłO":6445,"Äło":6446,"uler":6447,"empiricism":6448,"ĠThen":6449,"Ġarena":6450,"conceive":6451,"conjunction":6452,"chain":6453,"Ġdeceived":6454,"active":6455,"actual":6456,"using":6457,"illion":6458,"away":6459,"ames":6460,"Ġunit":6461,"Ġunexpected":6462,"Ġcompr":6463,"Ġcomposed":6464,"Ġround":6465,"Ġrace":6466,"Ġratio":6467,"Ġruler":6468,"Ġemail":6469,"Ġembarrass":6470,"Ġdeterminative":6471,"Ġvit":6472,"Ġvict":6473,"Ġvag":6474,"Ġdoing":6475,"Ġconditional":6476,"Ġconditionally":6477,"Ġhealth":6478,"Ġably":6479,"Ġabyss":6480,"Ġperce":6481,"Ġsynon":6482,"Ġuser":6483,"ĠFundamental":6484,"Ġseven":6485,"Ġsevere":6486,"Ġste":6487,"presentation":6488,"whatever":6489,"ĠAfter":6490,"ĠASC":6491,"ĠApperception":6492,"ĠAGRE":6493,"unable":6494,"unknown":6495,"unciation":6496,"poned":6497,"ponent":6498,"ĠPRA":6499,"Ġdispens":6500,"Ġdisgu":6501,"ets":6502,"etary":6503,"herence":6504,"Ġleaving":6505,"Ġchar":6506,"Ġaround":6507,"Ġarose":6508,"Ġphrase":6509,"ressed":6510,"oping":6511,"opinion":6512,"agreement":6513,"Ġsubter":6514,"Ġnear":6515,"Ġmast":6516,"ĠIntrodu":6517,"Ġplacing":6518,"Ġendeavoured":6519,"ĠGr":6520,"ĠGer":6521,"ĠGood":6522,"ĠWill":6523,"ĠWhere":6524,"ignor":6525,"Ġcontrover":6526,"ritical":6527,"composite":6528,"ĠCRITIQU":6529,"serves":6530,"Ġrequest":6531,"Ġdescribe":6532,"Ġdistant":6533,"Ġdistress":6534,"Ġcalls":6535,"Ġcalling":6536,"Ġencour":6537,"ĠRational":6538,"ĠEnd":6539,"Ġprescribe":6540,"Ġsensibly":6541,"Ġrealize":6542,"Ġcritic":6543,"Ġattach":6544,"Ġattacks":6545,"ĠDes":6546,"Ġsensuously":6547,"Ġcorporeal":6548,"Ġquanta":6549,"ĠRegulative":6550,"ĠMis":6551,"Ġstrike":6552,"Ġstrives":6553,"Ġanalysing":6554,"Ġrefuse":6555,"Ġrefers":6556,"Ġdiverse":6557,"Ġcompels":6558,"Ġadvances":6559,"Ġcontradicts":6560,"ĠLogical":6561,"ĠLIMITED":6562,"ĠLOGIC":6563,"Ġconceiving":6564,"Ġconcluding":6565,"Ġresistance":6566,"Ġremained":6567,"Ġ178":6568,"Ġdecides":6569,"Ġlogically":6570,"maj":6571,"Ġdiscoverable":6572,"knows":6573,"Ġsatisfies":6574,"TIES":6575,"practically":6576,"Ġacknowledge":6577,"Ġobserving":6578,"Ġseemingly":6579,"Ġmodest":6580,"Ġedition":6581,"Ġeditions":6582,"ĠĠĠĠĠĠĠĠĠĠĠĠĠĠĠĠĠĠĠĠĠĠĠĠĠĠ":6583,"ĠĠĠĠĠĠĠĠĠĠĠĠĠĠĠĠĠĠĠĠĠĠĠĠĠĠĠĠĠĠĠ":6584,"Ġespecial":6585,"Ġattempting":6586,"Ġneglect":6587,"subjectively":6588,"aims":6589,"Ġbelieved":6590,"Ġspecially":6591,"Ġideals":6592,"ĠPrint":6593,"Ġcontinually":6594,"Ġtook":6595,"Ġessay":6596,"Ġinstances":6597,"Ġexpectations":6598,"Ġpassive":6599,"Ġdenies":6600,"Ġaffects":6601,"ocin":6602,"ocke":6603,"Ġallows":6604,"Ġsuperfluous":6605,"Ġcopying":6606,"Ġyourself":6607,"giving":6608,"accordingly":6609,"shall":6610,"Ġjustifies":6611,"Ġinquiring":6612,"ĠAnalytical":6613,"Ġconvince":6614,"Ġthoroughness":6615,"Ġpretend":6616,"Ġobtains":6617,"Ġinvolve":6618,"Ġinvolving":6619,"purposes":6620,"impenetrability":6621,"justified":6622,"attention":6623,"Ġrecognise":6624,"Ġabstracto":6625,"compelled":6626,"Ġdonate":6627,"Ġsurpr":6628,"Ġoccupation":6629,"separate":6630,"Ġdelusive":6631,"Ġconstructing":6632,"productive":6633,"Ġapproach":6634,"consists":6635,"Ġmanifestations":6636,"Ġdecline":6637,"Ġletter":6638,"Ġadequately":6639,"Ġorganization":6640,"constitution":6641,"Ġcreator":6642,"Ġcreating":6643,"Ġcreatures":6644,"Therefore":6645,"grounded":6646,"insight":6647,"Ġacquire":6648,"Ġacquaint":6649,"guidance":6650,"Ġproblematically":6651,"Ġfigur":6652,"moreover":6653,"Ġdefinitely":6654,"Ġfri":6655,"Ġcounsel":6656,"realization":6657,"occasion":6658,"greatest":6659,"Ġsecurely":6660,"Ġfilling":6661,"Ġfilled":6662,"Ġdefence":6663,"Ġdefici":6664,"Ġmeets":6665,"Suppose":6666,"Ġfancies":6667,"Ġfailed":6668,"Ġultimately":6669,"ators":6670,"attained":6671,"Ġurged":6672,"ĠImpossibility":6673,"Ġdetected":6674,"Ġdetailed":6675,"Ġwritings":6676,"Ġinduce":6677,"Ġascent":6678,"Ġsentiment":6679,"Ġsentiments":6680,"Ġbeneficial":6681,"Ġsucceeded":6682,"Ġmistakes":6683,"Ġmistaken":6684,"Ġpunct":6685,"Ġperforms":6686,"Ġ2001":6687,"Ġpayments":6688,"Ġstrengthen":6689,"Ġfitness":6690,"consequence":6691,"operation":6692,"Ġestimated":6693,"Ġestimating":6694,"Ġmeritorious":6695,"Ġescap":6696,"reflection":6697,"supply":6698,"fortune":6699,"Ġdevoted":6700,"Ġdisplayed":6701,"Ġcomplying":6702,"Ġpromotion":6703,"Ġpromoting":6704,"difficulty":6705,"Ġfulfilled":6706,"Ġprimarily":6707,"Ġhistorical":6708,"transition":6709,"Ġheavy":6710,"Ġaccords":6711,"Ġderivation":6712,"Ġspecified":6713,"concepts":6714,"ĠNOT":6715,"Ġtalk":6716,"precedes":6717,"Ġweakness":6718,"Ġsubsists":6719,"Ġesteemed":6720,"Ġimitated":6721,"attribute":6722,"Ġobeying":6723,"Ġwidely":6724,"Ġhinder":6725,"Ġhindrance":6726,"Ġanticipate":6727,"Ġfallacies":6728,"Ġcontemplation":6729,"Ġaccomplish":6730,"Ġaccomplished":6731,"generally":6732,"RIB":6733,"Analytic":6734,"Without":6735,"occupied":6736,"statements":6737,"Ġalteration":6738,"Ġdeeply":6739,"ĠObjects":6740,"Ġserviceable":6741,"Ġimpartial":6742,"ĠMetaphysic":6743,"Ġobstacles":6744,"Ġgovernment":6745,"¢Ä¢Ä":6746,"authority":6747,"unconditional":6748,"unconditionally":6749,"inquiry":6750,"inquiries":6751,"Ġtendency":6752,"Ġfictions":6753,"Ġfictitious":6754,"Ġdimensions":6755,"Ġdeprive":6756,"Ġundertaking":6757,"Ġambiguity":6758,"Ġaston":6759,"Ġpraise":6760,"ausible":6761,"ABILITY":6762,"indispensable":6763,"Ġwidest":6764,"Ġmundus":6765,"Ġrepeated":6766,"Ġuprightness":6767,"Ġsusceptible":6768,"Ġprincipal":6769,"ĠAlthough":6770,"ĠAntinomy":6771,"ĠMethod":6772,"Ġexertions":6773,"Before":6774,"Ġaforesaid":6775,"aggregate":6776,"embracing":6777,"ĠĠĠĠĠĠĠĠĠĠĠĠĠĠĠĠĠĠĠĠĠĠĠĠĠĠĠĠĠĠĠĠĠĠĠĠĠĠĠĠĠĠĠĠĠĠĠĠĠĠ":6778,"ĠWARRANTY":6779,"Ġcomputer":6780,"mechanism":6781,"rogative":6782,"inseparably":6783,"experiences":6784,"atiocin":6785,"Ġincompetent":6786,"Ġexcellent":6787,"Ġsophisms":6788,"ĠPRINCIPLES":6789,"Ġantinomies":6790,"Ġdenomin":6791,"Ġmultiplicity":6792,"ĠDIALECTIC":6793,"Metaphysic":6794,"infinity":6795,"enevolence":6796,"Ġfatal":6797,"Ã¦deutic":6798,"Ġdeceit":6799,"Ġirresistible":6800,"METHODOLOGY":6801,"Ġpolemic":6802,"ĠASCII":6803,"ĠPRACTICAL":6804,"ĠCRITIQUE":6805,"Ph":6806,"analog":6807,"Äłar":6808,"allow":6809,"remo":6810,"confirm":6811,"Ide":6812,"OS":6813,"TRIB":6814,"bar":6815,"Ġay":6816,"Ġound":6817,"revol":6818,"itiz":6819,"enjoy":6820,"iboly":6821,"Äłcom":6822,"Äłmis":6823,"del":6824,"det":6825,"piric":6826,"agon":6827,"Ġposit":6828,"ĠEND":6829,"avag":6830,"appe":6831,"accord":6832,"contest":6833,"occur":6834,"Princi":6835,"anthropomorph":6836,"22":6837,"50":6838,"TRA":6839,"creat":6840,"mag":6841,"rown":6842,"test":6843,"vation":6844,"your":6845,"yield":6846,"Ġot":6847,"recogn":6848,"Äłhe":6849,"Äłal":6850,"minis":6851,"duc":6852,"keep":6853,"grat":6854,"extend":6855,"substant":6856,"Ġstruct":6857,"Em":6858,"FL":6859,"OSE":6860,"PRO":6861,"bed":6862,"bring":6863,"eous":6864,"last":6865,"nis":6866,"ram":6867,"spr":6868,"slet":6869,"Ġrom":6870,"Ġeduc":6871,"intr":6872,"atir":6873,"Ġtol":6874,"Ġmal":6875,"Ġect":6876,"oud":6877,"ibilis":6878,"ogram":6879,"iful":6880,"ÄłB":6881,"illa":6882,"amp":6883,"prud":6884,"artes":6885,"acqu":6886,"too":6887,"soon":6888,"close":6889,"Ġended":6890,"iversal":6891,"formula":6892,"ilege":6893,"Ġ13":6894,"Ġip":6895,"TIVE":6896,"Ġceasing":6897,"bling":6898,"irdly":6899,"THER":6900,"profess":6901,"allel":6902,"prevent":6903,"71":6904,"APHY":6905,"ET":6906,"Respect":6907,"SIC":6908,"VIS":6909,"dut":6910,"fici":6911,"fund":6912,"favour":6913,"load":6914,"net":6915,"oe":6916,"oose":6917,"popular":6918,"tent":6919,"Ġaut":6920,"itus":6921,"itory":6922,"itted":6923,"isk":6924,"encing":6925,"Ġsw":6926,"Ġpol":6927,"ctible":6928,"entity":6929,"Ġud":6930,"osing":6931,"ibus":6932,"version":6933,"ĠIND":6934,"ogmat":6935,"resh":6936,"Äłse":6937,"Äłfor":6938,"Äłob":6939,"ulous":6940,"ulsion":6941,"pping":6942,"dependent":6943,"Ġric":6944,"phiboly":6945,"Ġseld":6946,"tellig":6947,"Ġard":6948,"precept":6949,"matic":6950,"Ġpresentation":6951,"roken":6952,"Ġsecurity":6953,"mail":6954,"Ġpleases":6955,"RECT":6956,"legitimate":6957,"Ġ45":6958,"oinc":6959,"volition":6960,"hypothetical":6961,"Ġprepared":6962,"rupted":6963,"error":6964,"?âĢĶ":6965,"At":6966,"Both":6967,"General":6968,"Nevertheless":6969,"Some":6970,"Small":6971,"See":6972,"_âĢĶ":6973,"acious":6974,"bation":6975,"between":6976,"cr":6977,"certitude":6978,"dle":6979,"ees":6980,"ego":6981,"fil":6982,"field":6983,"founded":6984,"fuge":6985,"had":6986,"joined":6987,"lain":6988,"lable":6989,"little":6990,"lines":6991,"ltimate":6992,"making":6993,"ng":6994,"ries":6995,"sort":6996,"uent":6997,"uum":6998,"van":6999,"void":7000,"varying":7001,"ware":7002,"Ġastr":7003,"ining":7004,"inently":7005,"insufficient":7006,"Ġtheore":7007,"receptivity":7008,"isive":7009,"enough":7010,"enable":7011,"erms":7012,"Ġwarn":7013,"Ġwicked":7014,"Ġced":7015,"Ġcens":7016,"Ġcertitude":7017,"Ġsl":7018,"Ġsaw":7019,"Ġsave":7020,"Ġsalt":7021,"Ġpubl":7022,"Ġparent":7023,"altogether":7024,"Ġine":7025,"Ġinsp":7026,"Ġincor":7027,"Ġbenevolence":7028,"Ġmar":7029,"Ġmass":7030,"Ġfelt":7031,"anilla":7032,"Ġep":7033,"Ġissu":7034,"Ġrefin":7035,"Ġreply":7036,"Ġrevel":7037,"Ġreferences":7038,"Ġrelease":7039,"Ġredistrib":7040,"Ġreserve":7041,"Ġdas":7042,"Ġdatum":7043,"asions":7044,"Ġaspect":7045,"Ġanxi":7046,"Ġlow":7047,"Ġlime":7048,"Ġlays":7049,"Ġlogicians":7050,"Ġliability":7051,"Ġweaken":7052,"Ġweapons":7053,"irable":7054,"Ġgot":7055,"Ġwithdraw":7056,"third":7057,"ĠID":7058,"ĠIF":7059,"ĠIndeed":7060,"istered":7061,"Ġorigination":7062,"permitted":7063,"permanence":7064,"Äłacc":7065,"Äłdes":7066,"ulated":7067,"Ġprohib":7068,"Ġprolong":7069,"concre":7070,"changes":7071,"Ġdead":7072,"actually":7073,"actorily":7074,"amples":7075,"Ġunite":7076,"Ġunits":7077,"Ġunavoid":7078,"Ġunsuccess":7079,"Ġuncertainty":7080,"Ġunpleasant":7081,"Ġunattainable":7082,"dependence":7083,"ansition":7084,"triangle":7085,"Ġspecul":7086,"Ġrig":7087,"Ġrare":7088,"Ġratiocin":7089,"Ġundertake":7090,"Ġdeterminability":7091,"Ġvision":7092,"Ġvisible":7093,"Ġtruly":7094,"priate":7095,"primitive":7096,"ĠBE":7097,"ĠBRE":7098,"Ġheat":7099,"ading":7100,"Ġperpet":7101,"suasion":7102,"Ġregular":7103,"Ġregistered":7104,"antinomy":7105,"Ġselect":7106,"Ġcognitive":7107,"Ġstake":7108,"Ġstage":7109,"Ġquoad":7110,"Ġreluct":7111,"presents":7112,"Ġconsult":7113,"ĠAgain":7114,"ĠAmong":7115,"acities":7116,"Ġappell":7117,"Ġsubjection":7118,"ĠPsych":7119,"Ġdissatisfaction":7120,"),âĢĿ":7121,"Ġprepar":7122,"Ġprecise":7123,"Ġprecision":7124,"Ġprerogative":7125,"Ġlevel":7126,"teaches":7127,"Ġpartial":7128,"Ġarms":7129,"ĠSe":7130,"ĠScience":7131,"precisely":7132,"agogic":7133,"ĠNeither":7134,"Ġsubdiv":7135,"Ġsubdivision":7136,"ĠInstead":7137,"ĠWolf":7138,"Ġgroping":7139,"Ġcontrol":7140,"Ġcontradistinction":7141,"ĠCan":7142,"ĠCogn":7143,"Ġcommerci":7144,"Ġowns":7145,"fects":7146,"ishments":7147,"derived":7148,"Ġfeet":7149,"Ġcategorically":7150,"Ġvalu":7151,"Ġyoung":7152,"Ġfinding":7153,"ĠRel":7154,"ĠRoyal":7155,"ĠEach":7156,"elling":7157,"objections":7158,"Ġprescribing":7159,"Ġexpense":7160,"Ġexpenses":7161,"reasons":7162,"Ġrealities":7163,"Ġrealizing":7164,"aved":7165,"avity":7166,"physics":7167,"Ġsimpl":7168,"Ġsimultaneous":7169,"ĠDetermin":7170,"ĠDonations":7171,"Ġsecuring":7172,"anging":7173,"Ġimpression":7174,"Ġthroughout":7175,"Ġviewing":7176,"Ġoriginates":7177,"therein":7178,"Ġinvent":7179,"Ġhereafter":7180,"Ġinfring":7181,"ĠMon":7182,"ĠMET":7183,"Ġapagogic":7184,"Ġstrikes":7185,"Ġanalyse":7186,"evidence":7187,"Ġcompares":7188,"undetermined":7189,"ĠLaw":7190,"Ġconceit":7191,"Ġconcede":7192,"Ġrespon":7193,"Ġdeciding":7194,"Ġdecisive":7195,"tenance":7196,"ĠUSE":7197,"ĠUltimate":7198,"Ġsupplies":7199,"Ġnowhere":7200,"Ġtotally":7201,"Ġmathematicians":7202,"Ġmathematician":7203,"Ġclue":7204,"relatively":7205,"Ġsatisfying":7206,"Ġsuccessful":7207,"Ġdefines":7208,"Ġarrives":7209,"Ġestablishing":7210,"Ġderives":7211,"Ġlegality":7212,"Ġconsequent":7213,"Ġseeming":7214,"Ġmodi":7215,"Ġmodification":7216,"misunderstanding":7217,"Ġcontingently":7218,"Ġfinality":7219,"party":7220,"particip":7221,"Ġcorrespondence":7222,"Ġdemonstrating":7223,"Ġsignify":7224,"Ġsouls":7225,"Ġpostponed":7226,"granted":7227,"ĠSubject":7228,"completed":7229,"Ġconducts":7230,"Ġexplains":7231,"Ġhopes":7232,"Ġmisconception":7233,"Ġmisunderstood":7234,"Ġprogressus":7235,"Ġgeneration":7236,"ĠĠĠĠĠĠĠĠĠĠĠĠĠĠĠĠĠĠĠĠĠĠĠĠĠĠĠĠĠĠĠĠĠĠĠĠĠĠĠĠĠĠ":7237,"Ġoblige":7238,"Ġremarked":7239,"Ġdepending":7240,"Ġfallen":7241,"Ġaffirmations":7242,"discursive":7243,"Ġaddress":7244,"Ġharmonious":7245,"desires":7246,"giver":7247,"Ġfalsehood":7248,"happy":7249,"Ġdemanding":7250,"Ġdemanded":7251,"Ġnegatively":7252,"Ġjustification":7253,"Ġjudges":7254,"Ġteaching":7255,"Ġthoroughgoing":7256,"Ġpretension":7257,"Ġabsent":7258,"Ġchooses":7259,"Ġparadox":7260,"whereas":7261,"Ġleading":7262,"Ġstrictness":7263,"impressions":7264,"Ġtransitory":7265,"Ġdistinguishable":7266,"Ġprofit":7267,"Ġrequisites":7268,"Ġ35":7269,"Ġsuppositions":7270,"Ġhelps":7271,"Ġdesignation":7272,"Ġobservable":7273,"compared":7274,"properties":7275,"Ġpursuing":7276,"Ġoccupy":7277,"appearances":7278,"Ġrestricting":7279,"Ġrestrictive":7280,"ifices":7281,"Ġintroduces":7282,"Ġintroduced":7283,"produces":7284,"III":7285,"Ġappropri":7286,"Ġexactness":7287,"Ġmanifests":7288,"Ġchem":7289,"Ġlasting":7290,"Ġlastly":7291,"quantities":7292,"Ġsooner":7293,"Ġarbitrarily":7294,"constitutes":7295,"Ġfurnishes":7296,"ipse":7297,"rence":7298,"Ġoffender":7299,"Ġdispense":7300,"Ġfacil":7301,"Ġaccepting":7302,"Ġputting":7303,"presuppose":7304,"Ġsimilarity":7305,"picion":7306,"satisfied":7307,"interested":7308,"Ġtaut":7309,"demonstrated":7310,"Ġdominion":7311,"provided":7312,"Ġirrational":7313,"conceivable":7314,"Ġdownload":7315,"Ġconflicts":7316,"ouncement":7317,"discoverable":7318,"Ġaccession":7319,"Ġfills":7320,"Ġarrangements":7321,"Ġlosing":7322,"investigations":7323,"Ġomnis":7324,"Practical":7325,"Ġprevented":7326,"claims":7327,"Why":7328,"Ġdetach":7329,"Ġhumbles":7330,"proceeds":7331,"proceeding":7332,"Ġenlarged":7333,"Ġdiscussing":7334,"Ġdiscussed":7335,"motives":7336,"theoretically":7337,"postulates":7338,"Ġsentence":7339,"Ġbenefic":7340,"Ġelevation":7341,"Ġcontributions":7342,"Ġdiscerned":7343,"indicates":7344,"Ġperforming":7345,"Ġantithetic":7346,"attempts":7347,"Ġearths":7348,"Ġgladly":7349,"Ġcapacities":7350,"Ġnecessitation":7351,"Ġremoving":7352,"Ġcrime":7353,"Ġcrude":7354,"legislative":7355,"Ġestimation":7356,"feelings":7357,"Ġprofessed":7358,"Ġ60":7359,"assertion":7360,"Ġincreased":7361,"Ġexcite":7362,"obliged":7363,"Ġpromotive":7364,"problems":7365,"Ġsafely":7366,"passing":7367,"ĠEpicurean":7368,"ĠMoral":7369,"Ġspecification":7370,"Ġspecifically":7371,"IRD":7372,"conviction":7373,"Ġgradual":7374,"ĠNatural":7375,"requirements":7376,"Ġprotected":7377,"ĠDIVIS":7378,"Ġsacred":7379,"Ġadduce":7380,"Ġdeclaring":7381,"Ġdeclaration":7382,"Ġdeclarations":7383,"Ġconfirms":7384,"Ġmoderation":7385,"Ġfruitless":7386,"Ġforbidden":7387,"Ġprejudice":7388,"Ġprejudicial":7389,"Ġobviously":7390,"Ġdescending":7391,"Ġcurrent":7392,"Ġunceasingly":7393,"Ġchimera":7394,"ĠObjective":7395,"combination":7396,"combined":7397,"methods":7398,"Ġpenetration":7399,"Ġpenetrate":7400,"Ġrecommend":7401,"arbitrary":7402,"ĠStoic":7403,"Ġnumerous":7404,"Ġhyperphysical":7405,"obtained":7406,"reciprocal":7407,"ANTITHESIS":7408,"Ġaccompanies":7409,"Ġcenturies":7410,"Ġreveals":7411,"Ġdamages":7412,"Ġdiminish":7413,"Ġdiminished":7414,"Ġdepartment":7415,"Ġextremely":7416,"Ġexercises":7417,"Ġexercised":7418,"Ġteachers":7419,"ĠVIII":7420,"affected":7421,"counter":7422,"demanded":7423,"added":7424,"noumena":7425,"noumenon":7426,"sophistical":7427,"Ġwaver":7428,"Ġcredit":7429,"Ġmutually":7430,"Ġunbounded":7431,"Ġarchetyp":7432,"Ġarchetype":7433,"Ġzero":7434,"semble":7435,"ulgence":7436,"Ġreconciled":7437,"Ġrevolution":7438,"Ġbeauty":7439,"Ġprinted":7440,"Ġrashly":7441,"ĠPossibility":7442,"Ġmachine":7443,"Ġinfallibly":7444,"Ġoverlooked":7445,"Ġstruggle":7446,"Ġomnipotent":7447,"suspicion":7448,"emonstrable":7449,"ACH":7450,"OREM":7451,"donate":7452,"Ġannexed":7453,"Ġ199":7454,"Ġsolicit":7455,"States":7456,"harmony":7457,"ymous":7458,"hausted":7459,"convinced":7460,"discussion":7461,"Ġbinding":7462,"Ġunfortunately":7463,"Ġchildren":7464,"ĠMORALS":7465,"becomes":7466,"Ġaxis":7467,"Ġcatalog":7468,"Ġburden":7469,"Ġdispensed":7470,"Ġsubterfuge":7471,"Ġcontroversy":7472,"Ġacquaintance":7473,"APHYSIC":7474,"duties":7475,"Ġseldom":7476,"telligence":7477,"Ġsaltus":7478,"concreto":7479,"Ġunavoidably":7480,"Ġunsuccessful":7481,"ĠBREACH":7482,"ĠMETAPHYSIC":7483,"ĠDIVISION":7484,"HT":7485,"NAL":7486,"Ġll":7487,"Ġoun":7488,"ouch":7489,"Ġise":7490,"Ġition":7491,"ĠIM":7492,"Äłthe":7493,"hens":7494,"artic":7495,"ĠHA":7496,"avail":7497,"requis":7498,"BL":7499,"PEND":7500,"ban":7501,"coinc":7502,"dict":7503,"fl":7504,"numer":7505,"pat":7506,"pun":7507,"ta":7508,"ub":7509,"uc":7510,"athemat":7511,"Ġward":7512,"Ġpot":7513,"anqu":7514,"Ġanc":7515,"Ġlar":7516,"ogistic":7517,"ÄłR":7518,"Äłcomp":7519,"Äłconf":7520,"iled":7521,"plain":7522,"Ġved":7523,"allen":7524,"ponder":7525,"intention":7526,"izable":7527,"Ġacted":7528,"overt":7529,"knowled":7530,"Ġstanding":7531,"doctr":7532,"Ġmiss":7533,"Äłdec":7534,"circum":7535,"NI":7536,"UM":7537,"authoriz":7538,"bene":7539,"cultiv":7540,"fr":7541,"fal":7542,"ration":7543,"sk":7544,"sent":7545,"reconci":7546,"Ġpet":7547,"indu":7548,"Ġexperienced":7549,"force":7550,"ictions":7551,"strum":7552,"medi":7553,"distinct":7554,"IND":7555,"exerc":7556,"signific":7557,"Philos":7558,"13":7559,"17":7560,"18":7561,"Al":7562,"Ca":7563,"EG":7564,"GHT":7565,"ITION":7566,"Mathemat":7567,"NITY":7568,"Sy":7569,"bst":7570,"bour":7571,"bered":7572,"divers":7573,"eal":7574,"fill":7575,"lest":7576,"mem":7577,"mast":7578,"ngl":7579,"tow":7580,"tered":7581,"tempt":7582,"uating":7583,"writ":7584,"xious":7585,"Ġig":7586,"Ġute":7587,"Ġied":7588,"Ġible":7589,"ones":7590,"itim":7591,"isy":7592,"oric":7593,"Ġflu":7594,"edistrib":7595,"streng":7596,"llogistic":7597,"ibr":7598,"uris":7599,"ander":7600,"perform":7601,"Äłas":7602,"Äłqu":7603,"Äłwe":7604,"chief":7605,"abandon":7606,"Ġsoci":7607,"priv":7608,"indifferent":7609,"Ġship":7610,"fort":7611,"Ġending":7612,"undity":7613,"ĠUND":7614,"Ġattainable":7615,"miss":7616,"pses":7617,"obsc":7618,"happen":7619,"impul":7620,"conflict":7621,"Ġ40":7622,"myst":7623,"xioms":7624,"Ġology":7625,"comparison":7626,"SITION":7627,"Ġconvenience":7628,"UDING":7629,"Ideal":7630,"TRIBUT":7631,"AD":7632,"Again":7633,"BS":7634,"Happ":7635,"NT":7636,"NOM":7637,"OF":7638,"OBS":7639,"VI":7640,"VATIONS":7641,"aordin":7642,"bet":7643,"danger":7644,"ey":7645,"fut":7646,"function":7647,"fixed":7648,"horizon":7649,"ipt":7650,"iant":7651,"lie":7652,"lated":7653,"pel":7654,"parent":7655,"rain":7656,"run":7657,"smell":7658,"wit":7659,"Ġics":7660,"Ġically":7661,"hetical":7662,"Ġaught":7663,"infer":7664,"iss":7665,"Ġcrib":7666,"Ġcivil":7667,"Ġpair":7668,"Ġbes":7669,"Ġthrown":7670,"Ġmer":7671,"Ġmoun":7672,"cely":7673,"sett":7674,"Ġities":7675,"Ġdrop":7676,"iver":7677,"imb":7678,"ÄłIn":7679,"Ġrob":7680,"Ġsensual":7681,"ĠBOOK":7682,"ades":7683,"adow":7684,"orial":7685,"pirit":7686,"antom":7687,"ĠFUND":7688,"ourth":7689,"Ġadvers":7690,"Ġartic":7691,"Ġcontest":7692,"rade":7693,"TINOM":7694,"Äłsur":7695,"rowd":7696,"Ġraising":7697,"critic":7698,"manifest":7699,"Ġsaf":7700,"Ġappeared":7701,"Ġimitation":7702,"habit":7703,"CEPTION":7704,"toward":7705,"'t":7706,")(":7707,"):":7708,"--":7709,".âĢĶ":7710,"280":7711,"40":7712,"Act":7713,"Author":7714,"Besides":7715,"BILITY":7716,"Critique":7717,"Foundation":7718,"Finally":7719,"Hume":7720,"IV":7721,"Is":7722,"Necessity":7723,"Plain":7724,"Time":7725,"VEN":7726,"YTIC":7727,"agement":7728,"aught":7729,"bra":7730,"business":7731,"ethics":7732,"fold":7733,"fits":7734,"gue":7735,"holy":7736,"iatus":7737,"lp":7738,"lication":7739,"license":7740,"lier":7741,"losing":7742,"mutable":7743,"pone":7744,"pite":7745,"pared":7746,"pdated":7747,"rs":7748,"sation":7749,"sciousness":7750,"scribe":7751,"takes":7752,"taken":7753,"vention":7754,"Ġight":7755,"Ġtone":7756,"Ġtemper":7757,"held":7758,"help":7759,"once":7760,"onical":7761,"inner":7762,"incapable":7763,"inferences":7764,"inconsistent":7765,"incomprehensible":7766,"Ġod":7767,"Ġomitted":7768,"itute":7769,"ithetic":7770,"isition":7771,"ateness":7772,"eral":7773,"erably":7774,"Ġwings":7775,"Ġwoe":7776,"Ġcut":7777,"Ġcard":7778,"Ġction":7779,"Ġcustom":7780,"Ġculture":7781,"Ġsal":7782,"Ġsan":7783,"Ġsem":7784,"Ġsine":7785,"Ġsedu":7786,"Ġsmo":7787,"Ġsoft":7788,"Ġsaved":7789,"Ġpays":7790,"Ġpage":7791,"Ġpages":7792,"Ġportions":7793,"Ġpiece":7794,"alogy":7795,"almost":7796,"ica":7797,"Ġincap":7798,"Ġinsufficiency":7799,"Ġinhering":7800,"Ġincontest":7801,"Ġball":7802,"Ġbooks":7803,"Ġbaseless":7804,"orne":7805,"Ġmil":7806,"Ġmixture":7807,"Ġmoments":7808,"Ġfed":7809,"Ġfire":7810,"Ġflat":7811,"anwhile":7812,"anuary":7813,"Ġecon":7814,"Ġered":7815,"Ġelucid":7816,"Ġrever":7817,"Ġreception":7818,"Ġrevere":7819,"Ġrestraint":7820,"Ġresolution":7821,"Ġreverse":7822,"Ġited":7823,"Ġdi":7824,"Ġdread":7825,"Ġdwell":7826,"Ġduring":7827,"Ġdoubted":7828,"Ġbeg":7829,"entitled":7830,"otion":7831,"arum":7832,"arles":7833,"arched":7834,"arcely":7835,"asus":7836,"utiful":7837,"Ġhit":7838,"Ġhollow":7839,"iven":7840,"Ġlive":7841,"Ġlof":7842,"Ġlives":7843,"Ġlooks":7844,"Ġlively":7845,"Ġloose":7846,"Ġlimb":7847,"Ġnote":7848,"ĠĠĠĠĠ":7849,"Ġwealth":7850,"ceptive":7851,"terior":7852,"terms":7853,"Ġwithdrawn":7854,"uristic":7855,"ciences":7856,"verted":7857,"quality":7858,"ecided":7859,"perity":7860,"Äłstr":7861,"Äłint":7862,"Äłgr":7863,"ulating":7864,"ĠTHAT":7865,"ĠTerms":7866,"changed":7867,"ilt":7868,"ilty":7869,"Ġdeed":7870,"Ġdeceive":7871,"Ġalge":7872,"Ġalike":7873,"Ġintend":7874,"pleteness":7875,"acted":7876,"usality":7877,"usual":7878,"Ġhast":7879,"Ġhabits":7880,"illusions":7881,"illiant":7882,"aments":7883,"Ġunlaw":7884,"Ġunites":7885,"Ġuniting":7886,"Ġunconscious":7887,"Ġuninter":7888,"Ġunansw":7889,"Ġunanim":7890,"Ġunobserved":7891,"Ġunmixed":7892,"Ġunvarying":7893,"ummum":7894,"umbling":7895,"Ġ(_":7896,"Ġthereon":7897,"Ġlawgiver":7898,"Ġspare":7899,"Ġcompos":7900,"Ġcomponent":7901,"notwithstanding":7902,"often":7903,"Ġrises":7904,"Ġrising":7905,"Ġrisk":7906,"estors":7907,"Ġmel":7908,"Ġundermin":7909,"stands":7910,"Ġtroub":7911,"ĠBel":7912,"ĠBUT":7913,"Ġimpract":7914,"Ġheuristic":7915,"ads":7916,"Ġpersist":7917,"posited":7918,"Ġregulate":7919,"Ġshadow":7920,"ĠFUL":7921,"ĠFinally":7922,"Ġstability":7923,"Ġstopp":7924,"Ġquit":7925,"Ġquid":7926,"ordination":7927,"Ġconsent":7928,"ĠAct":7929,"acle":7930,"united":7931,"Ġappet":7932,"caution":7933,"Ġadhere":7934,"ĠPG":7935,"ĠPers":7936,"ĠPost":7937,"Ġye":7938,"Ġdisregard":7939,"strained":7940,"Ġleap":7941,"teaching":7942,"ĠThought":7943,"Ġcharact":7944,"Ġparte":7945,"Ġpartiality":7946,"Ġargu":7947,"ĠĠĠĠĠĠĠĠĠĠĠĠĠĠĠĠĠĠĠĠĠĠĠĠĠĠĠĠĠĠĠĠĠĠĠĠĠĠĠ":7948,"ĠSc":7949,"ĠSen":7950,"ĠSee":7951,"elve":7952,"preted":7953,"precede":7954,"opyright":7955,"pposites":7956,"ĠOp":7957,"Ġsubmitted":7958,"Ġsubrept":7959,"possibly":7960,"Ġserious":7961,"Ġserving":7962,"Ġdiffers":7963,"Ġdiffered":7964,"ĠInternal":7965,"Ġplane":7966,"Ġplausible":7967,"orts":7968,"Ġnothingness":7969,"ĠGos":7970,"reator":7971,"Ġgrate":7972,"Ġgross":7973,"coming":7974,"ĠCa":7975,"ĠCertain":7976,"ĠCosm":7977,"ĠCritical":7978,"Ġowing":7979,"proving":7980,"Ġdescribed":7981,"Ġdesirable":7982,"Ġemployees":7983,"Ġfirstly":7984,"Ġremed":7985,"Ġbelonged":7986,"Ġenabl":7987,"Ġago":7988,"overty":7989,"ĠRespect":7990,"ĠRedistrib":7991,"ĠEngl":7992,"ĠEVEN":7993,"having":7994,"Ġoutset":7995,"Ġpossessions":7996,"earance":7997,"Ġamid":7998,"Ġamphiboly":7999,"Ġapplicability":8000,"ouncing":8001,"Ġmatured":8002,"Ġattaching":8003,"ĠDO":8004,"ĠDate":8005,"ĠDuty":8006,"ĠDifference":8007,"ĠDogmat":8008,"assume":8009,"angles":8010,"Ġimpelled":8011,"thereto":8012,"Ġinviol":8013,"Ġhereby":8014,"disposed":8015,"dispute":8016,"Ġintelligibilis":8017,"Ġlikely":8018,"appoint":8019,"Ġhands":8020,"Ġresting":8021,"Ġrefuted":8022,"Ġrefutation":8023,"Ġdivisions":8024,"event":8025,"Ġproofread":8026,"Ġcompel":8027,"Ġcontradictorily":8028,"contradistinction":8029,"ĠLIC":8030,"ĠLocke":8031,"Ġassumptions":8032,"ERVATIONS":8033,"Ġconcludes":8034,"Ġtruths":8035,"Ġ100":8036,"Ġconsisting":8037,"Ġcontented":8038,"Intelligence":8039,"represented":8040,"Ġconfound":8041,"Ġconfirmed":8042,"Ġconfounded":8043,"Ġmathematically":8044,"Ġdiscovers":8045,"Ġmotions":8046,"Ġaffair":8047,"subordinated":8048,"Ġconceptus":8049,"Ġio":8050,"relates":8051,"lements":8052,"Ġsatisfactorily":8053,"Ġindul":8054,"Ġindivid":8055,"Ġindemonstrable":8056,"Ġstandpoint":8057,"ENSE":8058,"Ġarrogant":8059,"Ġlegally":8060,"Ġimagin":8061,"Ġimages":8062,"Ġneeded":8063,"Ġneedless":8064,"Ġguess":8065,"Ġguides":8066,"Ġguided":8067,"Ġguiding":8068,"ĠĠĠĠĠĠĠĠĠĠĠĠĠĠĠĠĠĠĠĠĠĠĠĠĠ":8069,"ĠĠĠĠĠĠĠĠĠĠĠĠĠĠĠĠĠĠĠĠĠĠĠĠĠĠĠĠĠĠ":8070,"Ġantiqu":8071,"Ġesse":8072,"Ġscarcely":8073,"Ġnegativum":8074,"partly":8075,"subjected":8076,"Ġinvestigated":8077,"Ġinvestigating":8078,"Ġasserts":8079,"Ġassertor":8080,"Ġasserting":8081,"Ġassertorical":8082,"oval":8083,"ĠTHIRD":8084,"TERNAL":8085,"morally":8086,"Ġattributing":8087,"Ġcoal":8088,"ĠSuppose":8089,"completion":8090,"Ġhero":8091,"Ġprevents":8092,"Ġdistinctions":8093,"Ġmisled":8094,"Ġmisconceptions":8095,"Ġpassages":8096,"Ġdeductions":8097,"Ġmaterialism":8098,"Ġaffection":8099,"Ġvariance":8100,"Ġfalling":8101,"Ġcept":8102,"Ġceases":8103,"ĠTHEOREM":8104,"Ġfals":8105,"ontological":8106,"Ġadding":8107,"Ġagreed":8108,"Ġcircular":8109,"Ġspecious":8110,"Ġunden":8111,"ĠYet":8112,"everyone":8113,"Ġintellect":8114,"Ġbrain":8115,"Ġbranc":8116,"Ġbrilliant":8117,"morals":8118,"Ġvolunt":8119,"Ġadvantageous":8120,"prescribes":8121,"indefinitum":8122,"Ġparallel":8123,"whereby":8124,"Ġauthors":8125,"community":8126,"Ġcontinues":8127,"Ġcontinuum":8128,"Ġcomparatively":8129,"Ġantecede":8130,"ĠUnless":8131,"ĠUniversal":8132,"believe":8133,"justify":8134,"Ġtransfer":8135,"Ġtransformed":8136,"ĠExcept":8137,"Ġinscr":8138,"Ġprofits":8139,"Ġexclusion":8140,"Ġcombine":8141,"Ġdogmatically":8142,"ruption":8143,"Ġdesigns":8144,"Ġevils":8145,"Ġtranscendentally":8146,"Ġcomprehension":8147,"INTRODUCTION":8148,"Ġ568":8149,"ighbour":8150,"Ġblamed":8151,"Ġbliss":8152,"Ġsurvey":8153,"ĠArgum":8154,"Ġrestricts":8155,"ificent":8156,"Ġappropriate":8157,"ĠVanilla":8158,"confess":8159,"employing":8160,"Ġearlier":8161,"ĠJanuary":8162,"THING":8163,"divisibility":8164,"containing":8165,"Ġseparation":8166,"Ġtests":8167,"Ġcareful":8168,"Ġdesert":8169,"Ġconcrete":8170,"insically":8171,"possession":8172,"Ġhypothetically":8173,"Ġacquisition":8174,"Ġputs":8175,"faculties":8176,"Ġadopting":8177,"thinks":8178,"ĠpropÃ¦deutic":8179,"analyse":8180,"conformable":8181,"conformably":8182,"Ġreaching":8183,"Ġhappening":8184,"Ġdestroyed":8185,"kinds":8186,"demonstrative":8187,"Ġconvert":8188,"Ġconversion":8189,"Ġsubtlety":8190,"judge":8191,"sensations":8192,"province":8193,"characteristic":8194,"characteristics":8195,"Ġcollected":8196,"Ġannihilates":8197,"Ġlaying":8198,"ĠANTINOM":8199,"contentment":8200,"enetrable":8201,"Ġimplanted":8202,"lightened":8203,"Ġindispensably":8204,"Ġdefault":8205,"Ġadmire":8206,"Supposing":8207,"Ġfanci":8208,"Ġmajesty":8209,"Ġplainly":8210,"subsisting":8211,"continue":8212,"continuous":8213,"Ġopened":8214,"Ġplanets":8215,"Ġassigns":8216,"Ġabsurdity":8217,"particularly":8218,"Ġangle":8219,"Ġinduction":8220,"Ġinduced":8221,"Ġreceipt":8222,"Ġborrowing":8223,"Ġelevating":8224,"Ġsucceeding":8225,"Ġdiscernment":8226,"Ġmistake":8227,"Ġperformed":8228,"Ġapparently":8229,"Only":8230,"afterwards":8231,"Ġnecessitate":8232,"Ġsubsume":8233,"Ġremoves":8234,"Ġfitted":8235,"Ġfitting":8236,"Ġcry":8237,"Ġproportioned":8238,"Ġaggregation":8239,"Ġreflecting":8240,"proofs":8241,"Ġpopularity":8242,"Ġrepay":8243,"Ġsignal":8244,"Ġrenunciation":8245,"Ġreturns":8246,"Ġanimals":8247,"Ġexcused":8248,"Ġentering":8249,"pretation":8250,"Ġcalm":8251,"Ġprosperity":8252,"Ġextravag":8253,"Ġextraordin":8254,"Ġpersuaded":8255,"Ġpersuade":8256,"ĠCharles":8257,"ĠEmpty":8258,"Ġschematism":8259,"defined":8260,"influenced":8261,"Ġtwelve":8262,"Ġwondered":8263,"Ġbuilt":8264,"Ġsuggested":8265,"ĠMorals":8266,"Ġhonesty":8267,"Ġhonestly":8268,"scepticism":8269,"Ġordains":8270,"Ġordinary":8271,"Ġdoctrinal":8272,"Ġsubsisting":8273,"Ġsubsistence":8274,"Ġsecretly":8275,"Ġillustration":8276,"Ġillustrate":8277,"Ġconfession":8278,"deduce":8279,"commonest":8280,"Ġprotect":8281,"Ġcomplaint":8282,"ĠInterest":8283,"ĠWho":8284,"ĠWhatever":8285,"Ġanticipation":8286,"Ġpathologically":8287,"Ġcontemplated":8288,"restriction":8289,"restricted":8290,"sufficiently":8291,"Ġpattern":8292,"anthropology":8293,"Ġabandons":8294,"ĠCONFL":8295,"Ġcommunicated":8296,"Ġsupplying":8297,"Ġperiods":8298,"Ġperiodic":8299,"AMENTAL":8300,"assumed":8301,"assumption":8302,"maintained":8303,"absence":8304,"Ġdictate":8305,"Ġdictates":8306,"Ġchimeras":8307,"Ġchimerical":8308,"ĠMetaphysical":8309,"commanded":8310,"intuite":8311,"clearness":8312,"Ġmonth":8313,"coexistence":8314,"Ġclearer":8315,"Ġresolve":8316,"Ġresolved":8317,"Ġrecommended":8318,"Ġdry":8319,"Ġhardly":8320,"Ġundertaken":8321,"Ġformats":8322,"Ġdisclaimer":8323,"Ġdisclaimers":8324,"Ġarchitectonical":8325,"Ġgranting":8326,"Ġambiguous":8327,"Ġnumerical":8328,"ĠIdealism":8329,"Ġcalculate":8330,"Ġcalculated":8331,"Ġfulfilment":8332,"Ġhypertext":8333,"animous":8334,"anticipation":8335,"reciprocally":8336,"Ġproprietary":8337,"Ġreveal":8338,"Ġpraised":8339,"ĠTransition":8340,"Ġembraces":8341,"ĠCompleteness":8342,"Ġparalogisms":8343,"Ġdestructive":8344,"Ġmagnificent":8345,"Ġmagnanimous":8346,"Ġwarnings":8347,"copyright":8348,"various":8349,"smallest":8350,"words":8351,"Ġanthropology":8352,"Ġanthropomorph":8353,"CLUDING":8354,"Ġcredential":8355,"Ġinherent":8356,"Ġinstitute":8357,"Ġinstituted":8358,"Ġthreaten":8359,"Ġmutual":8360,"Ġfooting":8361,"Ġsusceptibility":8362,"Ġunbroken":8363,"Ġhearing":8364,"ĠApplication":8365,"ĠAppearance":8366,"Ġimperfection":8367,"ĠProblem":8368,"ĠProblems":8369,"Ġobstinate":8370,"Ġobstinately":8371,"Ġhypostatizing":8372,"syllogisms":8373,"Ġselfishness":8374,"circle":8375,"Ġmiddle":8376,"Ġbeautiful":8377,"Ġroyalty":8378,"Ġroyalties":8379,"Ġvisit":8380,"Ġsharp":8381,"ĠPossible":8382,"Ġgrowth":8383,"Ġenumeration":8384,"Ġinfallible":8385,"Ġcompensate":8386,"Ġguaranteed":8387,"Ġomnipotence":8388,"ĠSTART":8389,"Ġpoison":8390,"Ġcourage":8391,"Ġlurks":8392,"Ġsuitably":8393,"Ġunfair":8394,"Ġvacant":8395,"Ġinvalidity":8396,"Ġelaboration":8397,"Ġcoincide":8398,"Ġharmless":8399,"Ġconjoining":8400,"Ġcombatants":8401,"ĠANALYTIC":8402,"ĠMathematical":8403,"ĠMathematics":8404,"inevitable":8405,"ocrisy":8406,"Ġhesitate":8407,"annihilated":8408,"Ġfairly":8409,"Ġlaborious":8410,"Ġparticipation":8411,"ĠDISTRIBUT":8412,"Ġimpediments":8413,"ĠConclusions":8414,"Ġdeliberate":8415,"specification":8416,"Ġindubitable":8417,"Ġridiculous":8418,"heteronomy":8419,"assigned":8420,"accurate":8421,"accompanied":8422,"Archive":8423,"spontaneity":8424,"Ġostensive":8425,"Nothing":8426,"reckoned":8427,"speaking":8428,"Produced":8429,"declaring":8430,"efforts":8431,"referred":8432,"Ġfiles":8433,"Ġrestrain":8434,"Ġboni":8435,"Ġpragmatical":8436,"Ġexaggerated":8437,"ĠIllusory":8438,"Ġvictory":8439,"Ġvague":8440,"Ġsynonymous":8441,"Ġstepping":8442,"ĠAGREE":8443,"Ġmaster":8444,"ĠIntroductory":8445,"ĠGround":8446,"ignorance":8447,"Ġsurprising":8448,"Ġfigurative":8449,"Ġastonishment":8450,"Ġdenominate":8451,"Ġdeceitful":8452,"appeared":8453,"Principle":8454,"ducive":8455,"Ġstructure":8456,"Empirical":8457,"spring":8458,"sletter":8459,"intrinsic":8460,"atirae":8461,"prudence":8462,"Ġissue":8463,"Ġanxiety":8464,"ĠIDEAS":8465,"Ġprohibition":8466,"Ġappellation":8467,"ĠPsychology":8468,"ĠRelation":8469,"ĠRoyalty":8470,"ĠMonad":8471,"Ġomniscient":8472,"Ġcatalogue":8473,"ĠHAVE":8474,"Ġancestors":8475,"ĠUNDER":8476,"Happiness":8477,"OBSERVATIONS":8478,"better":8479,"future":8480,"ĠFUNDAMENTAL":8481,"Ġsafety":8482,"Ġfederal":8483,"Ġreverence":8484,"Ġalgebra":8485,"Ġunlawful":8486,"Ġcompositum":8487,"ĠBelief":8488,"ĠFULL":8489,"Ġcharacters":8490,"Ġenabling":8491,"ĠDogmatism":8492,"ĠLICENSE":8493,"Ġbranches":8494,"Ġinscrutable":8495,"ĠANTINOMY":8496,"Ġextraordinary":8497,"ĠCONFLICT":8498,"cur":8499,"eg":8500,"Ġty":8501,"Ġau":8502,"Ġore":8503,"Ġose":8504,"Ġci":8505,"Ġlat":8506,"Äłj":8507,"Äłent":8508,"embarrass":8509,"Ġages":8510,"ĠUT":8511,"ignific":8512,"Äłinv":8513,"cret":8514,"Concl":8515,"transgress":8516,"568":8517,"OP":8518,"xt":8519,"Ġize":8520,"onom":8521,"Ġoc":8522,"Ġpon":8523,"esis":8524,"Ġbar":8525,"Ġists":8526,"Äłel":8527,"Äłrel":8528,"ofess":8529,"cast":8530,"Ġtern":8531,"princip":8532,"Äłco":8533,"architect":8534,"20":8535,"622":8536,"Ch":8537,"Cont":8538,"bre":8539,"carr":8540,"fail":8541,"ho":8542,"lab":8543,"uously":8544,"Ġives":8545,"het":8546,"Ġak":8547,"Ġble":8548,"Ġfere":8549,"ann":8550,"Ġite":8551,"asc":8552,"thetic":8553,"impl":8554,"Ġort":8555,"Ġory":8556,"Äłpl":8557,"Äłover":8558,"Äłext":8559,"Äłpres":8560,"Äłcomm":8561,"Äłappro":8562,"emin":8563,"chimer":8564,"endi":8565,"hentic":8566,"illustr":8567,"depr":8568,"Ġving":8569,"prot":8570,"pros":8571,"suggest":8572,"ungl":8573,"Ġlear":8574,"prohib":8575,"Ġents":8576,"sensual":8577,"Ġia":8578,"ocal":8579,"hapsod":8580,"Äłinf":8581,"attack":8582,"Äłref":8583,"veloped":8584,"55":8585,"75":8586,"AIM":8587,"DENTAL":8588,"DED":8589,"Epic":8590,"IX":8591,"IVE":8592,"LE":8593,"Mor":8594,"Sto":8595,"URE":8596,"az":8597,"cal":8598,"cert":8599,"dest":8600,"eas":8601,"elev":8602,"fa":8603,"fam":8604,"hum":8605,"kal":8606,"lo":8607,"mer":8608,"nic":8609,"oh":8610,"penetr":8611,"sid":8612,"touch":8613,"vi":8614,"wis":8615,"wart":8616,"warrant":8617,"Ġ#":8618,"Ġ$":8619,"Ġently":8620,"Ġial":8621,"Ġice":8622,"Ġized":8623,"ino":8624,"instruct":8625,"enumer":8626,"Ġces":8627,"Ġpt":8628,"Ġthrow":8629,"Ġec":8630,"llous":8631,"ivae":8632,"osity":8633,"Ġances":8634,"Ġland":8635,"ithmet":8636,"ider":8637,"thy":8638,"threat":8639,"Äłres":8640,"Äłam":8641,"Äłapp":8642,"Äłund":8643,"Ġproc":8644,"conject":8645,"confin":8646,"conven":8647,"ilia":8648,"Ġaltered":8649,"hensibility":8650,"Ġcoming":8651,"estic":8652,"prim":8653,"ometer":8654,"specul":8655,"bell":8656,"service":8657,"propri":8658,"Ġinterested":8659,"controvert":8660,"ERAL":8661,"Ġ16":8662,"contempt":8663,"ilarly":8664,"product":8665,"iberum":8666,"opernic":8667,"PLEAS":8668,"Ġ80":8669,"seek":8670,"SIBILITY":8671,"ancendent":8672,"inevit":8673,"schol":8674,"hensions":8675,"PENDIX":8676,"banks":8677,"circumst":8678,"62215":8679,"10":8680,"19":8681,"45":8682,"Among":8683,"First":8684,"Fourth":8685,"GENCE":8686,"NES":8687,"POSE":8688,"SS":8689,"WARRAN":8690,"Wolf":8691,"custom":8692,"dden":8693,"ew":8694,"fast":8695,"firm":8696,"fault":8697,"gust":8698,"hort":8699,"high":8700,"hip":8701,"join":8702,"mother":8703,"nify":8704,"pus":8705,"sure":8706,"sipp":8707,"tes":8708,"Ġ'":8709,"Ġ+":8710,"Ġire":8711,"Ġious":8712,"heit":8713,"Ġadequ":8714,"Ġther":8715,"rew":8716,"atch":8717,"attr":8718,"erke":8719,"Ġwarrant":8720,"Ġcame":8721,"alter":8722,"Ġination":8723,"estr":8724,"Ġbow":8725,"Ġfund":8726,"anch":8727,"animal":8728,"otyp":8729,"aralogism":8730,"asm":8731,"ascertain":8732,"Ġue":8733,"Ġual":8734,"imid":8735,"image":8736,"urbed":8737,"ĠIX":8738,"sibilities":8739,"ÄłU":8740,"Äłunder":8741,"constant":8742,"abilis":8743,"iest":8744,"trace":8745,"off":8746,"ousand":8747,"adem":8748,"adapt":8749,"Ġsyllogistic":8750,"Ġks":8751,"phold":8752,"acent":8753,"mental":8754,"teen":8755,"spread":8756,"sissipp":8757,"prefer":8758,"aging":8759,"meant":8760,"ĠCHA":8761,"weight":8762,"Ġhappily":8763,"lessed":8764,"ĠED":8765,"uteness":8766,"Ġcorrupt":8767,"undoubted":8768,"contrib":8769,"ERCHA":8770,"Ġresist":8771,"structive":8772,"ENTI":8773,"arrangement":8774,"ALITY":8775,"obvious":8776,"grant":8777,"Ġ22":8778,"iae":8779,"indefinite":8780,"commerci":8781,"belie":8782,"aska":8783,"iumph":8784,"invent":8785,"Ġagreeable":8786,"Ġagreeableness":8787,"Ġpositions":8788,"ĠÃ¢Ä¢Ä":8789,"superfluous":8790,"consequentia":8791,"junct":8792,"equal":8793,"SEQU":8794,"iliary":8795,"Ġidle":8796,"CTRIN":8797,"colour":8798,"Ġinstructed":8799,"CLAIM":8800,"reptitious":8801,"guarded":8802,"false":8803,"ERCHANT":8804,"!)":8805,"\".":8806,"*]":8807,".:":8808,".;":8809,"11":8810,"178":8811,"39":8812,"57":8813,"79":8814,"After":8815,"Books":8816,"EBook":8817,"Further":8818,"FIRST":8819,"FORE":8820,"IED":8821,"IRECT":8822,"Literary":8823,"License":8824,"Language":8825,"LIMITED":8826,"Most":8827,"Moreover":8828,"PPENDIX":8829,"Right":8830,"Rational":8831,"Remark":8832,"RICT":8833,"RPOSE":8834,"Title":8835,"Very":8836,"aple":8837,"apart":8838,"aired":8839,"acies":8840,"bly":8841,"ches":8842,"culture":8843,"cartes":8844,"dash":8845,"dignity":8846,"ease":8847,"eBook":8848,"eBooks":8849,"failed":8850,"iological":8851,"ipses":8852,"iosity":8853,"land":8854,"mas":8855,"mise":8856,"mber":8857,"mdash":8858,"oke":8859,"opposed":8860,"pire":8861,"putation":8862,"ror":8863,"rought":8864,"ried":8865,"sakes":8866,"taking":8867,"txt":8868,"uation":8869,"uated":8870,"vity":8871,"vive":8872,"vain":8873,"verest":8874,"wishes":8875,"xiliary":8876,"yle":8877,"zip":8878,"Ġx":8879,"Ġution":8880,"Ġting":8881,"Ġtant":8882,"Ġtear":8883,"Ġtempt":8884,"Ġace":8885,"iny":8886,"inference":8887,"information":8888,"instruction":8889,"ineness":8890,"Ġopposing":8891,"Ġopposites":8892,"Ġtheolog":8893,"rendered":8894,"recognized":8895,"reverse":8896,"reproductive":8897,"itatis":8898,"iteness":8899,"Ġoffered":8900,"aton":8901,"atible":8902,"atically":8903,"atae":8904,"erion":8905,"erce":8906,"ervice":8907,"Ġwont":8908,"Ġwander":8909,"Ġcand":8910,"Ġcold":8911,"Ġcurs":8912,"Ġcush":8913,"Ġcitiz":8914,"Ġsis":8915,"Ġsag":8916,"Ġsending":8917,"Ġsorrow":8918,"Ġsmell":8919,"Ġpoverty":8920,"along":8921,"alogical":8922,"icited":8923,"Ġincompre":8924,"Ġincorrect":8925,"Ġinjustice":8926,"Ġindiscern":8927,"Ġinsecure":8928,"Ġinstrum":8929,"Ġinaccurate":8930,"Ġincontrovert":8931,"esthetic":8932,"Ġbro":8933,"Ġbinary":8934,"Ġborne":8935,"Ġthir":8936,"Ġthread":8937,"Ġthwart":8938,"orous":8939,"Ġming":8940,"Ġmove":8941,"Ġmock":8942,"Ġmillion":8943,"cease":8944,"cember":8945,"ingers":8946,"Ġfam":8947,"Ġfant":8948,"Ġfaint":8949,"Ġfavoured":8950,"Ġfresh":8951,"Ġfingers":8952,"analogy":8953,"edifice":8954,"edient":8955,"editions":8956,"Ġnom":8957,"Ġnought":8958,"Ġnames":8959,"Ġnaught":8960,"Ġere":8961,"Ġecl":8962,"Ġeleg":8963,"Ġearn":8964,"Ġepo":8965,"outh":8966,"Ġised":8967,"Ġistic":8968,"ley":8969,"leology":8970,"leave":8971,"Ġret":8972,"Ġrecognition":8973,"Ġrepress":8974,"Ġreaches":8975,"Ġremind":8976,"Ġresearch":8977,"Ġresemble":8978,"Ġdouble":8979,"Ġbeha":8980,"stition":8981,"sthetical":8982,"omni":8983,"omaton":8984,"entions":8985,"Ġwhit":8986,"otes":8987,"utor":8988,"utum":8989,"utious":8990,"Ġhour":8991,"Ġhint":8992,"Ġhiatus":8993,"Ġprince":8994,"Ġasks":8995,"Ġascribing":8996,"Ġust":8997,"thew":8998,"theory":8999,"theologia":9000,"ivocal":9001,"imony":9002,"imilarly":9003,"Ġexhausted":9004,"Ġliqu":9005,"Ġlangu":9006,"Ġlament":9007,"Ġlikes":9008,"Ġliking":9009,"Ġwear":9010,"Ġforget":9011,"idge":9012,"idently":9013,"Ġsuppos":9014,"Ġsuits":9015,"Ġsudden":9016,"irus":9017,"Ġgene":9018,"urance":9019,"quid":9020,"ivered":9021,"resistance":9022,"isturbed":9023,"Äłev":9024,"ÄłCon":9025,"emarks":9026,"embered":9027,"emnify":9028,"Ġproject":9029,"Ġreasoners":9030,"ĠTRAN":9031,"Ġobjected":9032,"connexion":9033,"vellous":9034,"choice":9035,"endeavoured":9036,"iliar":9037,"Ġdear":9038,"Ġdeist":9039,"Ġdeposit":9040,"Ġdeceptive":9041,"Ġalkal":9042,"Ġintentions":9043,"pleases":9044,"acts":9045,"actly":9046,"therwise":9047,"usio":9048,"illusory":9049,"aware":9050,"aming":9051,"amount":9052,"plan":9053,"Ġunsol":9054,"Ġunquestion":9055,"Ġunconnected":9056,"Ġunimportant":9057,"Ġunsatisfactory":9058,"âĢĶ(":9059,"olunteers":9060,"ighed":9061,"igious":9062,"ĠĠĠĠĠĠĠĠĠĠ":9063,"Ġthereupon":9064,"Ġlawless":9065,"tries":9066,"tricable":9067,"Ġspent":9068,"Ġspheres":9069,"Ġsprun":9070,"Ġcomfort":9071,"Ġrap":9072,"ested":9073,"Ġpossibilities":9074,"Ġempiric":9075,"Ġembell":9076,"Ġsoar":9077,"ideality":9078,"Ġvulg":9079,"Ġvicious":9080,"Ġvocation":9081,"Ġvirus":9082,"Ġtrave":9083,"Ġtraining":9084,"Ġtrades":9085,"Ġtriumph":9086,"Ġwilled":9087,"odes":9088,"odality":9089,"ĠTheology":9090,"ĠTheoretical":9091,"ĠBec":9092,"ĠBonum":9093,"ĠBetween":9094,"Ġimposing":9095,"Ġimmedi":9096,"Ġimmutable":9097,"Ġhearer":9098,"Ġabut":9099,"Ġabode":9100,"ounds":9101,"Ġpertaining":9102,"allowed":9103,"Ġnovel":9104,"Ġnobody":9105,"supposes":9106,"Ġregulating":9107,"Ġusage":9108,"antity":9109,"Ġification":9110,"phaenomenon":9111,"Ġshalt":9112,"ĠFac":9113,"ĠFRO":9114,"ĠFIT":9115,"ĠFOU":9116,"Ġsearched":9117,"Ġcognizes":9118,"Ġstay":9119,"Ġstaff":9120,"Ġstream":9121,"Ġstumbling":9122,"Ġstyle":9123,"Ġquick":9124,"Ġreligious":9125,"presenting":9126,"why":9127,"whom":9128,"nowhere":9129,"Ġconscience":9130,"ĠAL":9131,"ĠAd":9132,"ĠAutonomy":9133,"ĠAug":9134,"ĠAxioms":9135,"ĠAesthetic":9136,"accept":9137,"Ġjuris":9138,"Ġaccus":9139,"union":9140,"unattainable":9141,"Ġappend":9142,"forces":9143,"ĠForm":9144,"ĠPre":9145,"ĠPref":9146,"ĠPART":9147,"ĠParalogism":9148,"Ġdisk":9149,"Ġdiss":9150,"Ġdispar":9151,"Ġdisposed":9152,"Ġdispleasure":9153,"Ġdissect":9154,"Ġdissection":9155,"Ġdisinterested":9156,"Ġdisappoint":9157,"Ġdisgust":9158,"etc":9159,"etic":9160,"etition":9161,"eties":9162,"etext":9163,"teleological":9164,"ĠThose":9165,"ĠThrough":9166,"Ġcharm":9167,"Ġchallen":9168,"Ġpartially":9169,"Ġargue":9170,"Ġsomeone":9171,"Ġmoralists":9172,"ĠĠĠĠĠĠĠĠĠĠĠĠĠĠĠĠĠĠĠĠĠĠĠĠĠĠĠĠĠĠĠĠĠĠĠ":9173,"ternational":9174,"ĠSh":9175,"ĠSoul":9176,"ĠSUC":9177,"ĠSpecial":9178,"ĠSecondly":9179,"ĠSummum":9180,"ĠSatirae":9181,"ĠService":9182,"ĠSouth":9183,"Ġphantom":9184,"eless":9185,"solve":9186,"ensed":9187,"Ġwhoever":9188,"opinions":9189,"ĠNecessity":9190,"ĠNEG":9191,"ĠOTHER":9192,"intensive":9193,"intended":9194,"Ġsubmission":9195,"Ġsubspecies":9196,"Ġsubordination":9197,"Ġthank":9198,"imitation":9199,"Ġfreed":9200,"Ġnearest":9201,"Ġneighbour":9202,"ĠInte":9203,"ĠInfinite":9204,"ĠInasmuch":9205,"Ġplans":9206,"Ġcausa":9207,"orted":9208,"Ġcontents":9209,"ĠGre":9210,"ĠGIVE":9211,"reating":9212,"ĠWis":9213,"ĠWest":9214,"ĠWhence":9215,"ĠWHAT":9216,"Ġgrown":9217,"Ġgravity":9218,"They":9219,"comes":9220,"ĠCl":9221,"ĠCause":9222,"ĠCopyright":9223,"ĠCreator":9224,"ĠCopernic":9225,"formulae":9226,"Ġpositing":9227,"Ġobl":9228,"projected":9229,"Ġfounds":9230,"Ġcommitted":9231,"Ġremoval":9232,"Ġdiscret":9233,"Ġsystematically":9234,"ĠHist":9235,"ĠHypothe":9236,"Ġactuality":9237,"weapons":9238,"Ġextinct":9239,"Ġenv":9240,"Ġenig":9241,"Ġenounced":9242,"Ġenclose":9243,"Ġenjoined":9244,"Ġagents":9245,"stitution":9246,"ĠRemark":9247,"ĠRemarks":9248,"ĠEv":9249,"ĠEIN":9250,"ĠEBook":9251,"ĠEthics":9252,"ĠElements":9253,"Ġeffecting":9254,"Ġeffective":9255,"Ġtert":9256,"Ġthinkable":9257,"Ġoutline":9258,"Ġoutlines":9259,"Ġsensibilis":9260,"reasoning":9261,"early":9262,"Ġassures":9263,"Ġassuring":9264,"Ġassurance":9265,"Ġenters":9266,"Ġentium":9267,"Ġentrust":9268,"physiology":9269,"ĠDr":9270,"Ġgreatness":9271,"Ġbasing":9272,"Ġfacta":9273,"Ġfacto":9274,"Ġfacts":9275,"Ġsecures":9276,"angled":9277,"Ġinclined":9278,"ribe":9279,"Ġimpot":9280,"Ġimputation":9281,"Ġimpenetrability":9282,"Ġshallow":9283,"Ġoriginator":9284,"Thou":9285,"Those":9286,"Thirdly":9287,"Ġcorrection":9288,"Ġcorruption":9289,"Ġinvention":9290,"discipline":9291,"Ġinflex":9292,"Ġexplore":9293,"Ġpowerless":9294,"Ġintelligibility":9295,"experienced":9296,"ĠReality":9297,"ĠReplace":9298,"ĠRepresentation":9299,"ĠRefund":9300,"ĠMay":9301,"ĠMany":9302,"ĠMotion":9303,"ĠMERCHANT":9304,"Ġapper":9305,"Ġwherefore":9306,"Ġcharacterized":9307,"Ġcharacterizes":9308,"raid":9309,"raise":9310,"raising":9311,"Ġrested":9312,"Ġanalyst":9313,"Ġrefuses":9314,"Ġsummon":9315,"Ġcompounded":9316,"Ġadvice":9317,"ĠLat":9318,"Ġconceives":9319,"Ġconclusive":9320,"Ġresides":9321,"Ġ17":9322,"Ġ18":9323,"Ġsincere":9324,"Ġdecre":9325,"Ġmetal":9326,"ĠUnder":9327,"ĠUpon":9328,"Ġillum":9329,"learned":9330,"Ġsupplement":9331,"Ġconsistently":9332,"Information":9333,"Instead":9334,"International":9335,"Ġaimed":9336,"represents":9337,"representing":9338,"subtle":9339,"substratum":9340,"Ġ[*]":9341,"related":9342,"religion":9343,"ĠOne":9344,"ĠOnt":9345,"ĠConsciousness":9346,"redit":9347,"Ġdegr":9348,"naturally":9349,"natura":9350,"Ġindulgence":9351,"Ġindestr":9352,"Ġindemnify":9353,"Ġplea":9354,"Ġpleasing":9355,"Ġsuccessfully":9356,"Ġdefining":9357,"Ġworthlessness":9358,"ENERAL":9359,"TICE":9360,"Ġarranging":9361,"Ġupwards":9362,"Ġacuteness":9363,"Ġelimin":9364,"Ġoccasions":9365,"Ġobserver":9366,"Ġobserves":9367,"Ġobservers":9368,"monition":9369,"Ġlegitim":9370,"Ġconsequentia":9371,"Ġneedful":9372,"Ġmodus":9373,"Ġmodified":9374,"Ġmodesty":9375,"Ġresulted":9376,"Ġguilty":9377,"ĠĠĠĠĠĠĠĠĠĠĠĠĠĠĠĠĠĠĠĠĠĠĠĠĠĠĠĠ":9378,"Ġscatt":9379,"Ġcopied":9380,"Ġcopula":9381,"Ġnegations":9382,"subjects":9383,"arrive":9384,"Ġnewsletter":9385,"Ġmaintenance":9386,"Ġreading":9387,"Ġbodily":9388,"Ġmethodology":9389,"Ġeasier":9390,"ovember":9391,"obedience":9392,"Ġovercome":9393,"Ġdogmas":9394,"synthetic":9395,"Ġnonsense":9396,"Ġdemonstrates":9397,"Ġanswering":9398,"Ġcoherence":9399,"Ġposterity":9400,"Ġpostpone":9401,"Ġexcepted":9402,"Ġmemory":9403,"Ġcontinual":9404,"Ġinquires":9405,"Ġidentify":9406,"Ġprovision":9407,"Ġprovides":9408,"Ġprovisions":9409,"Ġinstant":9410,"Ġexpects":9411,"Ġhoping":9412,"Ġhoped":9413,"Ġhopeless":9414,"Ġmislead":9415,"Ġmiserable":9416,"Ġdenote":9417,"Ġappreciation":9418,"extended":9419,"Ġaffecting":9420,"Ġaffections":9421,"Ġprogressing":9422,"Ġgenerality":9423,"Ġgenerations":9424,"Ġobliges":9425,"Ġremarkably":9426,"ocent":9427,"Ġvariable":9428,"Ġsuperstition":9429,"Ġceaseless":9430,"simony":9431,"Ġaids":9432,"differences":9433,"blance":9434,"Ġdraws":9435,"Ġaffirms":9436,"connects":9437,"Ġharmonizes":9438,"sometimes":9439,"Ġyourselves":9440,"Ġundisturbed":9441,"ĠYes":9442,"Ġbrief":9443,"Ġvolume":9444,"Ġjudicial":9445,"Ġfutility":9446,"Äłinter":9447,"Ġdistinctive":9448,"Ġoperate":9449,"Ġintrinsically":9450,"ĠAny":9451,"Ġcorrective":9452,"presence":9453,"limitations":9454,"Ġpretence":9455,"Ġlieu":9456,"Ġabsor":9457,"legal":9458,"Ġintuites":9459,"Ġleaden":9460,"Ġcontinuance":9461,"intelligent":9462,"intelligibility":9463,"Ġdynamically":9464,"ĠUniverse":9465,"impression":9466,"justification":9467,"Ġsupports":9468,"Ġsupporting":9469,"Ġexhibition":9470,"Ġtransfers":9471,"ordinate":9472,"ĠExt":9473,"Ġinsignific":9474,"Ġrecognises":9475,"Ġrecognised":9476,"Ġcombines":9477,"Ġdesignated":9478,"Ġabstracting":9479,"compare":9480,"Ġkept":9481,"Ġdonation":9482,"Ġdonors":9483,"Ġsurr":9484,"Ġsurpass":9485,"Ġsurrender":9486,"Ġsurveyed":9487,"Ġsurreptitious":9488,"Ġsurvive":9489,"Ġoccupying":9490,"Äłfr":9491,"Ġdelight":9492,"Ġapprove":9493,"Ġreferring":9494,"confusion":9495,"confirmed":9496,"Ġcircumference":9497,"created":9498,"Ġearlies":9499,"considering":9500,"considerable":9501,"quantitas":9502,"Ġorganism":9503,"Ġsignifications":9504,"placed":9505,"people":9506,"ĠJuly":9507,"distinguishing":9508,"divided":9509,"Ġfurnishing":9510,"ĠKIND":9511,"ĠKey":9512,"ĠREAD":9513,"Ġseparately":9514,"Ġtested":9515,"Ġtestimony":9516,"worthiness":9517,"Ġdisputing":9518,"Ġdisputation":9519,"Ġcarries":9520,"Ġcarried":9521,"Ġcarrying":9522,"Ġaccepts":9523,"Ġacceptation":9524,"Ġspeaks":9525,"value":9526,"Ġcreate":9527,"Ġcreations":9528,"Ġgains":9529,"Ġgaining":9530,"Ġsimilarly":9531,"Ġcosmology":9532,"ĠState":9533,"ĠStaple":9534,"originally":9535,"originates":9536,"conformability":9537,"demonstrate":9538,"Ġinterfere":9539,"Ġintermediate":9540,"Ġintervention":9541,"Ġinterpreted":9542,"Ġwisely":9543,"Ġconversation":9544,"judged":9545,"providing":9546,"Ġarts":9547,"realitas":9548,"Ġcollective":9549,"ĠANTITHESIS":9550,"concealed":9551,"explained":9552,"Release":9553,"mortal":9554,"antecede":9555,"Ġtranscending":9556,"Ġtranscription":9557,"Ġtranscribe":9558,"Ġheterogeneity":9559,"Ġ95":9560,"Ġ99":9561,"greatness":9562,"discovering":9563,"criterion":9564,"Ġindisp":9565,"Ġreciprocity":9566,"Ġprivativum":9567,"Ġprivilege":9568,"Ġequals":9569,"Ġcomprehending":9570,"continually":9571,"denial":9572,"Ġfailing":9573,"Ġsophistries":9574,"Ġanalogon":9575,"airbanks":9576,"Ġbackwards":9577,"ĠImper":9578,"Ġdetect":9579,"Ġdetail":9580,"Ġpracticability":9581,"Ġhumility":9582,"Ġhumble":9583,"Ġinduces":9584,"Ġprocessing":9585,"Ġventures":9586,"Ġventured":9587,"EDIES":9588,"Ġturns":9589,"posted":9590,"postulate":9591,"Ġelevates":9592,"Ġweighty":9593,"Ġstudies":9594,"Ġcontributing":9595,"Ġdiscerning":9596,"Ġantecedentia":9597,"looked":9598,"nexus":9599,"Ġmistrust":9600,"negation":9601,"contingency":9602,"Ġpunished":9603,"Ġpunishments":9604,"indicating":9605,"Ġdestined":9606,"Ġdestitute":9607,"Ġpreserved":9608,"ĠDefect":9609,"ĠDependence":9610,"ĠDecember":9611,"Ġ2000":9612,"Ġ2004":9613,"attempted":9614,"Ġglance":9615,"Ġglass":9616,"Ġglorious":9617,"Ġcapability":9618,"Ġintentionally":9619,"Ġqualification":9620,"Ġmarket":9621,"Ġnecessitates":9622,"START":9623,"expresses":9624,"expressed":9625,"expressions":9626,"operations":9627,"Ġcrown":9628,"legislating":9629,"Ġproportionate":9630,"ĠPUNI":9631,"ĠPURPOSE":9632,"Ġprofession":9633,"Ġprofesses":9634,"porated":9635,"steps":9636,"Ġ64":9637,"Ġguards":9638,"Ġguarding":9639,"Ġincreasing":9640,"Ġexcites":9641,"Ġshortest":9642,"ĠÃ¦sthetical":9643,"bidden":9644,"equality":9645,"Ġboldly":9646,"Ġprosyllogism":9647,"Ġextricate":9648,"Ġdevi":9649,"Ġdevote":9650,"ĠChange":9651,"ĠDoes":9652,"Ġstronger":9653,"Ġoccurred":9654,"Ġoccurrence":9655,"Ġblindly":9656,"Ġgenuineness":9657,"PLIED":9658,"concilable":9659,"concerns":9660,"concerning":9661,"Ġprimacy":9662,"observations":9663,"passages":9664,"Ġtaxes":9665,"intermediate":9666,"approach":9667,"approbation":9668,"EMNITY":9669,"additional":9670,"signifies":9671,"Ġordered":9672,"finds":9673,"ĠNOTICE":9674,"Ġlisten":9675,"ĠĠĠĠĠĠĠĠĠĠĠĠĠĠ":9676,"Ġheads":9677,"ĠEverything":9678,"Ġillustrating":9679,"Ġconfessed":9680,"Experience":9681,"deductible":9682,"attributes":9683,"attributed":9684,"Ġ1500":9685,"Ġprototyp":9686,"imperatives":9687,"falls":9688,"fallacies":9689,"Ġmeasured":9690,"Ġmeasurement":9691,"Ġchapters":9692,"ĠWhy":9693,"Ġsubstantia":9694,"ĠDisc":9695,"Ġanticipations":9696,"Ġroots":9697,"Ġcontemplates":9698,"directly":9699,"single":9700,"restricting":9701,"importance":9702,"doubtful":9703,"ĠINTRODUCTION":9704,"ĠINCLUDING":9705,"transcendentally":9706,"PRESS":9707,"decided":9708,"Ġtreasure":9709,"Ġrejecting":9710,"Ġrejected":9711,"Ġhypocrisy":9712,"Ġattract":9713,"Ġevidences":9714,"ĠPhenomenal":9715,"Ġprejudices":9716,"ĠCONTRA":9717,"ĠCONCEPTION":9718,"ĠCONSEQU":9719,"Ġdescent":9720,"Ġdescend":9721,"Ġdescription":9722,"Ġcommenced":9723,"Ġcommunication":9724,"ĠREMEDIES":9725,"Ġadmirable":9726,"affirmative":9727,"pleasantness":9728,"assuming":9729,"occupy":9730,"bodies":9731,"Ġcultivate":9732,"conclusion":9733,"conclusions":9734,"Ġcounterpo":9735,"Ġtypes":9736,"Ġcurved":9737,"Ġisolate":9738,"Ġlocations":9739,"Ġpremiss":9740,"ĠNeg":9741,"ĠMatthew":9742,"ĠMetaphysics":9743,"Ġapproximation":9744,"enlargement":9745,"enlarged":9746,"intuited":9747,"intuitus":9748,"clearly":9749,"sources":9750,"progression":9751,"modes":9752,"prominently":9753,"Ġclearest":9754,"Ġdriven":9755,"Ġdimension":9756,"arbitrarily":9757,"arbitrium":9758,"resulting":9759,"ĠEBOOKS":9760,"Ġapprehended":9761,"Ġhonourable":9762,"anticipate":9763,"gradually":9764,"continuation":9765,"Ġannouncement":9766,"Ġcentre":9767,"Ġdamage":9768,"Ġdamaged":9769,"agreeableness":9770,"ĠOrigin":9771,"Ġindefinitely":9772,"ĠHimself":9773,"ĠANYTHING":9774,"moving":9775,"variety":9776,"demands":9777,"Ġincite":9778,"ABLE":9779,"CIDENTAL":9780,"searchable":9781,"problematically":9782,"conducted":9783,"Ġmundo":9784,"Ġerecting":9785,"Ġerected":9786,"Ġrepeat":9787,"Ġgift":9788,"Ġuniformity":9789,"Ġviolence":9790,"Ġviolates":9791,"ĠAntithetic":9792,"Ġsubmits":9793,"Ġattacking":9794,"Ġconcealed":9795,"Ġsuperiority":9796,"Ġhumiliating":9797,"ĠPhysical":9798,"ĠPhysico":9799,"ĠIntuitions":9800,"Ġzeal":9801,"Ġafraid":9802,"LIGENCE":9803,"deserving":9804,"communicated":9805,"Ġmidst":9806,"Ġflattering":9807,"idealism":9808,"ĠBefore":9809,"ĠBeyond":9810,"Ġsharing":9811,"ĠWARRANTIES":9812,"Ġdespise":9813,"Ġenumerate":9814,"ĠEXPRESS":9815,"Ġcomputers":9816,"Ġcompensation":9817,"Ġguarantee":9818,"Ġwitnesses":9819,"Ġirreconcilable":9820,"dogmatism":9821,"ĠSTRICT":9822,"accidental":9823,"accidentally":9824,"furnish":9825,"furnishes":9826,"Ġpresses":9827,"qualities":9828,"practised":9829,"mistake":9830,"uctible":9831,"bounds":9832,"boundaries":9833,"Ġruin":9834,"Ġconvenient":9835,"wanting":9836,"Ġpaperwork":9837,"Ġtouching":9838,"Ġtouchstone":9839,"Ġlicensed":9840,"Ġlurking":9841,"Ġdetriment":9842,"Ġdetrimental":9843,"Ġspoil":9844,"Ġspoken":9845,"Ġvacuum":9846,"ĠSometimes":9847,"ĠNorth":9848,"Ġsubstituted":9849,"Ġphilosophize":9850,"Ġentertained":9851,"Ġcoincides":9852,"ĠANALOGY":9853,"Ġaccompanying":9854,"excluding":9855,"classification":9856,"deviate":9857,"Space":9858,"Speculative":9859,"involves":9860,"involved":9861,"annihilation":9862,"defective":9863,"Ġsteadily":9864,"Ġsteadfast":9865,"previously":9866,"Ġoffering":9867,"Ġsilence":9868,"Ġinextricable":9869,"seems":9870,"Ġvessel":9871,"geometry":9872,"geometrical":9873,"Ġperplexity":9874,"ĠAbb":9875,"ĠParticular":9876,"Ġdissimilarity":9877,"Ġparticipating":9878,"ĠDISCLAIM":9879,"Ġawakening":9880,"Ġawakened":9881,"Ġdeliberation":9882,"Ġindubitably":9883,"Ġembraced":9884,"Granted":9885,"Ġellipse":9886,"supported":9887,"ipped":9888,"endeavours":9889,"Defects":9890,"cosmical":9891,"Ġachieve":9892,"increasing":9893,"introduced":9894,"transcend":9895,"exhibited":9896,"probability":9897,"meritorious":9898,"peculiarity":9899,"uitous":9900,"Ġtedious":9901,"proportioned":9902,"sighted":9903,"thoroughly":9904,"Ġcasts":9905,"estimation":9906,"descending":9907,"Ġinnocent":9908,"Ġdarkness":9909,"Ġcomprises":9910,"Ġvital":9911,"Ġperceives":9912,"Ġperceiving":9913,"Ġdisguise":9914,"Ġdisguised":9915,"Ġcharges":9916,"Ġnearly":9917,"ĠGerman":9918,"ĠDespite":9919,"ĠDescartes":9920,"ĠMississipp":9921,"Ġ1787":9922,"Ġfriend":9923,"Ġfriends":9924,"Ġcounsels":9925,"Ġdeficient":9926,"Ġescaping":9927,"Ġescaped":9928,"removed":9929,"confirms":9930,"OSSIBILITY":9931,"accordant":9932,"anthropomorphism":9933,"magnitude":9934,"yielding":9935,"PROJECT":9936,"Ġromance":9937,"acquire":9938,"Ġipso":9939,"professing":9940,"Ġauthentic":9941,"ĠINDIRECT":9942,"Ġriches":9943,"Ġastronom":9944,"Ġtheorem":9945,"Ġwarns":9946,"Ġcensure":9947,"Ġinspire":9948,"Ġincorporated":9949,"Ġrefined":9950,"Ġrevelation":9951,"Ġlowest":9952,"Ġspeculations":9953,"Ġrigorous":9954,"Ġrarely":9955,"Ġperpetually":9956,"Ġreluctant":9957,"Ġpreparation":9958,"Ġcommercial":9959,"Ġinfringement":9960,"Ġappropriated":9961,"Ġchemical":9962,"Ġfacilitate":9963,"Ġtautology":9964,"Ġdownloading":9965,"Ġbeneficent":9966,"Ġrecommendation":9967,"ĠIMPLIED":9968,"Ġpetty":9969,"significance":9970,"Although":9971,"Mathematics":9972,"Synthetical":9973,"members":9974,"written":9975,"Ġsociety":9976,"Against":9977,"VIDED":9978,"dangerous":9979,"smelling":9980,"Ġbeside":9981,"Ġmerits":9982,"towards":9983,"Ġtemperament":9984,"Ġsemblance":9985,"Ġincontestably":9986,"Ġeconom":9987,"Ġlofty":9988,"Ġuninterrupted":9989,"Ġunanswerable":9990,"Ġunanimously":9991,"Ġtroubling":9992,"Ġimpracticable":9993,"Ġstopped":9994,"ĠPerson":9995,"ĠSensuous":9996,"ĠOpinion":9997,"ĠGospel":9998,"Ġgratefully":9999,"Ġremedy":10000,"ĠEnglish":10001,"Ġamidst":10002,"ĠDOCTRIN":10003,"Ġinviolable":10004,"Ġaffairs":10005,"Ġindulge":10006,"Ġantiquity":10007,"Ġassertorically":10008,"Ġcoalition":10009,"Ġundeniable":10010,"Ġvoluntary":10011,"ĠArguments":10012,"Ġfancied":10013,"Ġextravagant":10014,"Ġcomplaints":10015,"Ġanthropomorphic":10016,"ĠMonadists":10017,"Ġauxiliary":10018,"ofessor":10019,"principium":10020,"viour":10021,"inevitably":10022,"Fourthly":10023,"NESS":10024,"WARRANTIES":10025,"ĠCHAPTER":10026,"ENTIAL":10027,"commercium":10028,"Ġtantamount":10029,"Ġcursory":10030,"Ġcushion":10031,"Ġelegance":10032,"Ġearnest":10033,"Ġepoch":10034,"Ġbehaviour":10035,"Ġgenealogical":10036,"ĠTRANSITION":10037,"Ġsprung":10038,"Ġrapid":10039,"Ġvulgar":10040,"Ġtravel":10041,"ĠFROM":10042,"ĠFITNESS":10043,"ĠAugust":10044,"ĠPreface":10045,"ĠSUCH":10046,"ĠNEGLIGENCE":10047,"ĠReplacement":10048,"ĠMERCHANTABILITY":10049,"Ġindestructible":10050,"Ġlegitimacy":10051,"Ġscattered":10052,"Ġinsignificant":10053,"Ġearliest":10054,"ĠStapleton":10055,"ĠPUNITIVE":10056,"Ġprototype":10057,"ĠCONTRACT":10058,"ĠCONCEPTIONS":10059,"ĠCONSEQUENTIAL":10060,"Ġcounterpoise":10061,"ĠDISCLAIMER":10062,"ĠMississippi":10063,"ĠDOCTRINE":10064,"Ãĥ":10065,"Ã¢Ä¢Ä":10066,"Ġib":10067,"Ġvel":10068,"Ġtain":10069,"Ġological":10070,"erc":10071,"Ġments":10072,"Ġished":10073,"ompl":10074,"Ġles":10075,"Ġger":10076,"ĠIR":10077,"erect":10078,"Äłem":10079,"Äłcons":10080,"Äłcor":10081,"care":10082,"ĠPH":10083,"Ġlect":10084,"Ġowed":10085,"Ġposed":10086,"overn":10087,"redistrib":10088,"Ġult":10089,"Äłmod":10090,"12":10091,"MENT":10092,"aut":10093,"ros":10094,"vered":10095,"Ġility":10096,"Ġapt":10097,"Ġame":10098,"isol":10099,"asur":10100,"Ġures":10101,"Ġld":10102,"ÄłV":10103,"Äłu":10104,"Äłto":10105,"Äłass":10106,"Äłcogn":10107,"phil":10108,"acknowled":10109,"Ġarm":10110,"sensib":10111,"fulfil":10112,"Ġress":10113,"strugg":10114,"Ġuted":10115,"ICAL":10116,"apprehend":10117,"Äłprop":10118,"contempor":10119,"Che":10120,"LAR":10121,"NO":10122,"USI":10123,"ah":10124,"gn":10125,"port":10126,"Ġict":10127,"Ġides":10128,"ĠQU":10129,"Ġome":10130,"isse":10131,"enn":10132,"esca":10133,"Ġning":10134,"Ġising":10135,"Ġishes":10136,"Ġrect":10137,"Ġduc":10138,"stac":10139,"Ġured":10140,"ĠIS":10141,"ift":10142,"ÄłK":10143,"Äłle":10144,"Äłir":10145,"Äłant":10146,"Äłreg":10147,"Äłbr":10148,"Äłatt":10149,"Äłgu":10150,"ÄłEx":10151,"Ġalle":10152,"amorph":10153,"Ġven":10154,"Ġstone":10155,"ĠAS":10156,"Ġences":10157,"overably":10158,"ĠRI":10159,"luct":10160,"blind":10161,"Äłdel":10162,"imagin":10163,"Ġversion":10164,"AT":10165,"Com":10166,"Im":10167,"aud":10168,"astr":10169,"adequ":10170,"bat":10171,"bungl":10172,"cher":10173,"cob":10174,"citiz":10175,"dur":10176,"dam":10177,"dile":10178,"dimin":10179,"fanci":10180,"gen":10181,"gest":10182,"govern":10183,"hic":10184,"hist":10185,"hyp":10186,"iog":10187,"loc":10188,"moun":10189,"mock":10190,"night":10191,"null":10192,"pict":10193,"rhapsod":10194,"sa":10195,"spl":10196,"tre":10197,"temper":10198,"ugg":10199,"vous":10200,"voc":10201,"wond":10202,"zer":10203,"zism":10204,"ĠÄ":10205,"Ġener":10206,"ĠÄłÄł":10207,"Ġizing":10208,"Ġ*****":10209,"Ġake":10210,"inj":10211,"incomp":10212,"reve":10213,"redu":10214,"isc":10215,"ister":10216,"isyllogism":10217,"enesis":10218,"erv":10219,"erum":10220,"Ġcing":10221,"Ġpus":10222,"ican":10223,"icros":10224,"orment":10225,"Ġfer":10226,"sever":10227,"oure":10228,"Ġises":10229,"Ġree":10230,"arond":10231,"ectyp":10232,"lled":10233,"iveness":10234,"imm":10235,"osoph":10236,"urp":10237,"vert":10238,"Äłnot":10239,"Äłso":10240,"Äłpar":10241,"ÄłTh":10242,"Äłdisc":10243,"ÄłRe":10244,"Äłsupp":10245,"ulog":10246,"empl":10247,"empiric":10248,"consol":10249,"condem":10250,"ampl":10251,"depre":10252,"depart":10253,"olens":10254,"tranqu":10255,"Ġexistent":10256,"ctions":10257,"Ġtries":10258,"pron":10259,"succeed":10260,"Ġusion":10261,"antagon":10262,"Ġify":10263,"exec":10264,"exto":10265,"Ġevol":10266,"unfortun":10267,"tell":10268,"ievous":10269,"prepar":10270,"preponder":10271,"pregn":10272,"Ġplays":10273,"measur":10274,"compl":10275,"servation":10276,"weak":10277,"Ġency":10278,"session":10279,"ĠER":10280,"Ġentities":10281,"eciproc":10282,"ysms":10283,"ginia":10284,"ĠLI":10285,"ĠUS":10286,"accompl":10287,"Introdu":10288,"subsum":10289,"Ġrighteous":10290,"Ġinfluenced":10291,"ontal":10292,"short":10293,"apper":10294,"commend":10295,"Äłcrit":10296,"Äłcoun":10297,"ruin":10298,"Äłreal":10299,"comput":10300,"icipations":10301,"ometry":10302,"Äłden":10303,"iana":10304,"Subst":10305,"superior":10306,"STEM":10307,"JECTIVE":10308,"culation":10309,"cheson":10310,"ILOS":10311,"Quod":10312,"oppon":10313,"capit":10314,"figur":10315,"symbol":10316,"school":10317,"Ġlucid":10318,"forceability":10319,"ibrium":10320,"omnipot":10321,"NOW":10322,"USION":10323,"isseurs":10324,"ILOSO":10325,"25":10326,"AF":10327,"ARA":10328,"Arist":10329,"BC":10330,"Certain":10331,"Categor":10332,"Crit":10333,"DEM":10334,"DAMAG":10335,"EI":10336,"GRA":10337,"Ju":10338,"Logical":10339,"LEMENT":10340,"Me":10341,"MAL":10342,"NER":10343,"ORO":10344,"Ple":10345,"Possib":10346,"Part":10347,"Reven":10348,"STHE":10349,"Thing":10350,"UB":10351,"US":10352,"Unt":10353,"bi":10354,"bes":10355,"bus":10356,"back":10357,"bnew":10358,"cence":10359,"civil":10360,"doll":10361,"drop":10362,"ein":10363,"ebr":10364,"fan":10365,"fict":10366,"gy":10367,"hn":10368,"hind":10369,"hop":10370,"hio":10371,"kingdom":10372,"mark":10373,"mund":10374,"mov":10375,"ok":10376,"oqu":10377,"oca":10378,"pob":10379,"ral":10380,"ront":10381,"sies":10382,"sound":10383,"tw":10384,"upright":10385,"uphold":10386,"vict":10387,"welf":10388,"Ġ&":10389,"Ġq":10390,"Ġutes":10391,"Ġided":10392,"Ġ00":10393,"Ġtur":10394,"Ġaver":10395,"Ġaequ":10396,"inated":10397,"inward":10398,"Ġopt":10399,"reject":10400,"reption":10401,"repe":10402,"resem":10403,"itating":10404,"encour":10405,"aten":10406,"ature":10407,"erving":10408,"Ġcert":10409,"Ġpp":10410,"alar":10411,"altern":10412,"alleg":10413,"iced":10414,"Ġined":10415,"Ġinstructive":10416,"Ġban":10417,"Ġmus":10418,"Ġmill":10419,"Ġnis":10420,"Ġnet":10421,"secret":10422,"Ġishing":10423,"Ġcond":10424,"Ġconqu":10425,"Ġdiction":10426,"start":10427,"starr":10428,"omnit":10429,"otot":10430,"arol":10431,"Ġhole":10432,"theore":10433,"ival":10434,"improv":10435,"Ġong":10436,"Ġlib":10437,"ptuously":10438,"jective":10439,"ithful":10440,"ibib":10441,"Ġsuited":10442,"ldarond":10443,"qui":10444,"aindrop":10445,"persist":10446,"perpet":10447,"perplex":10448,"Äłout":10449,"Äłwh":10450,"Äłsol":10451,"Äłag":10452,"Äłme":10453,"Äłcontr":10454,"Äłcont":10455,"Äłpart":10456,"Äłarr":10457,"Äłdiv":10458,"conjunct":10459,"veil":10460,"endour":10461,"endels":10462,"amps":10463,"abol":10464,"abilities":10465,"def":10466,"detr":10467,"selfish":10468,"Ġcaution":10469,"ansas":10470,"minor":10471,"iestle":10472,"offer":10473,"prag":10474,"useful":10475,"Ġpertains":10476,"suppos":10477,"exert":10478,"excell":10479,"anced":10480,"acid":10481,"ultimate":10482,"unceasing":10483,"uniform":10484,"ĠPO":10485,"ĠPER":10486,"strong":10487,"oyed":10488,"beho":10489,"Theoretical":10490,"commen":10491,"Ġcommencing":10492,"icium":10493,"ishable":10494,"Ġrespective":10495,"web":10496,"paradox":10497,"aven":10498,"necessit":10499,"display":10500,"canon":10501,"contrast":10502,"Ġert":10503,"Ġian":10504,"arrogant":10505,"obstac":10506,"Ġuting":10507,"Ġings":10508,"Ġception":10509,"Ġawa":10510,"correction":10511,"philosoph":10512,"Äłche":10513,"Äłcirc":10514,"causal":10515,"Ġ55":10516,"Äłprom":10517,"Äłpost":10518,"Ġconverted":10519,"ĠAND":10520,"retched":10521,"Protot":10522,"Ġpractised":10523,"Ġately":10524,"Äłextr":10525,"Ġ75":10526,"Ġguarded":10527,"iliates":10528,"versed":10529,"Ġpleasantness":10530,"collect":10531,"ULAR":10532,"Ġmovable":10533,"major":10534,"detect":10535,"TRADEM":10536,"skill":10537,"LARY":10538,"cobweb":10539,"splendour":10540,"condemn":10541,"\"),":10542,"($":10543,")-":10544,")?":10545,"*(":10546,".]":10547,".),":10548,"02":10549,"04":10550,"14":10551,"21":10552,"23":10553,"24":10554,"26":10555,"27":10556,"28":10557,"29":10558,"30":10559,"31":10560,"32":10561,"33":10562,"34":10563,"35":10564,"36":10565,"37":10566,"38":10567,"42":10568,"43":10569,"44":10570,"46":10571,"47":10572,"48":10573,"49":10574,"4280":10575,"51":10576,"52":10577,"53":10578,"54":10579,"56":10580,"58":10581,"59":10582,"60":10583,"61":10584,"62":10585,"63":10586,"64":10587,"65":10588,"66":10589,"67":10590,"69":10591,"70":10592,"72":10593,"73":10594,"74":10595,"76":10596,"77":10597,"81":10598,"87":10599,"96":10600,";[":10601,"AY":10602,"AIN":10603,"Apperception":10604,"APPENDIX":10605,"Between":10606,"Cosmological":10607,"Critical":10608,"Creating":10609,"DIC":10610,"Dialectic":10611,"Different":10612,"DURE":10613,"End":10614,"FUND":10615,"GEMENT":10616,"GENERAL":10617,"His":10618,"Human":10619,"Have":10620,"ITH":10621,"Last":10622,"Love":10623,"Logic":10624,"Locke":10625,"LAF":10626,"LLARY":10627,"Michael":10628,"Non":10629,"Or":10630,"Plato":10631,"RTH":10632,"Two":10633,"Upon":10634,"UAL":10635,"Updated":10636,"VII":10637,"Volunteers":10638,"WNER":10639,"Yes":10640,"YSTEM":10641,"].":10642,"_[":10643,"aos":10644,"augment":10645,"ball":10646,"besides":10647,"bservation":10648,"cs":10649,"cible":10650,"crowd":10651,"casus":10652,"coverably":10653,"data":10654,"eper":10655,"efficient":10656,"egr":10657,"eveloped":10658,"eometry":10659,"full":10660,"fix":10661,"flection":10662,"faces":10663,"fruit":10664,"filled":10665,"fancy":10666,"gone":10667,"gained":10668,"hart":10669,"hold":10670,"hitherto":10671,"holiness":10672,"homogeneity":10673,"iary":10674,"iently":10675,"jacent":10676,"lose":10677,"link":10678,"llect":10679,"laid":10680,"lcome":10681,"lio":10682,"lix":10683,"lurality":10684,"liability":10685,"mn":10686,"mal":10687,"mill":10688,"munity":10689,"macy":10690,"moments":10691,"nicious":10692,"ober":10693,"oved":10694,"past":10695,"putes":10696,"piece":10697,"rd":10698,"rum":10699,"rible":10700,"rances":10701,"rash":10702,"sin":10703,"sought":10704,"sake":10705,"sided":10706,"scribed":10707,"sciences":10708,"tact":10709,"table":10710,"task":10711,"tlest":10712,"useless":10713,"vocation":10714,"wished":10715,"water":10716,"wrong":10717,"wants":10718,"xury":10719,"yers":10720,"ypon":10721,"Ġnd":10722,"Ġively":10723,"Ġtib":10724,"Ġtem":10725,"Ġtrem":10726,"Ġtends":10727,"Ġtutor":10728,"Ġtorment":10729,"heart":10730,"Ġase":10731,"Ġathe":10732,"Ġawe":10733,"Ġays":10734,"Ġaversion":10735,"ina":10736,"inent":10737,"inning":10738,"inability":10739,"internally":10740,"inery":10741,"inheres":10742,"inconceivable":10743,"Ġoy":10744,"Ġomission":10745,"Ġthee":10746,"Ġtheist":10747,"reach":10748,"received":10749,"rehension":10750,"recognize":10751,"repute":10752,"reputation":10753,"reluct":10754,"recommend":10755,"ital":10756,"itial":10757,"itudes":10758,"ititious":10759,"enforceability":10760,"ats":10761,"atical":10762,"atur":10763,"aturn":10764,"eron":10765,"eration":10766,"erate":10767,"erring":10768,"Ġwal":10769,"Ġwent":10770,"Ġwound":10771,"Ġwarr":10772,"Ġwild":10773,"Ġwrest":10774,"Ġwatch":10775,"Ġwrought":10776,"Ġwretched":10777,"Ġcou":10778,"Ġcun":10779,"Ġcath":10780,"Ġcount":10781,"Ġcub":10782,"Ġcrowd":10783,"Ġcasus":10784,"Ġcodes":10785,"Ġsi":10786,"Ġsit":10787,"Ġses":10788,"Ġsend":10789,"Ġsink":10790,"Ġsap":10791,"Ġsites":10792,"Ġsadly":10793,"Ġpu":10794,"Ġpal":10795,"Ġpill":10796,"Ġpause":10797,"Ġpoly":10798,"Ġpomp":10799,"Ġpush":10800,"icing":10801,"Ġinan":10802,"Ġiness":10803,"Ġinform":10804,"Ġinane":10805,"Ġinexpl":10806,"Ġincompar":10807,"Ġinestim":10808,"Ġinconceivable":10809,"Ġinhabit":10810,"Ġinequality":10811,"Ġinsensib":10812,"esult":10813,"Ġbit":10814,"Ġbare":10815,"Ġblessed":10816,"Ġthine":10817,"Ġthresh":10818,"Ġthousand":10819,"orter":10820,"orably":10821,"orned":10822,"origination":10823,"Ġtold":10824,"Ġmir":10825,"Ġmover":10826,"celebrated":10827,"ctober":10828,"Ġfect":10829,"Ġfain":10830,"Ġfif":10831,"Ġfame":10832,"Ġfight":10833,"Ġfra":10834,"Ġfatum":10835,"Ġflight":10836,"Ġfier":10837,"analytic":10838,"Ġnes":10839,"Ġnations":10840,"Ġeb":10841,"Ġeff":10842,"Ġelect":10843,"Ġeulog":10844,"severest":10845,"oup":10846,"lying":10847,"left":10848,"Ġrely":10849,"Ġreign":10850,"Ġreward":10851,"Ġrecall":10852,"Ġreap":10853,"Ġrenew":10854,"Ġreproduction":10855,"Ġretrace":10856,"Ġrecapit":10857,"Ġrerum":10858,"Ġcone":10859,"Ġconced":10860,"Ġcondem":10861,"Ġconvey":10862,"Ġconveyed":10863,"Ġconducive":10864,"Ġdil":10865,"Ġdie":10866,"Ġdress":10867,"Ġdial":10868,"Ġdates":10869,"Ġdull":10870,"Ġdumb":10871,"Ġdrew":10872,"Ġbead":10873,"Ġbeque":10874,"Ġbefits":10875,"ste":10876,"stain":10877,"states":10878,"stability":10879,"status":10880,"stones":10881,"omas":10882,"omain":10883,"omaly":10884,"entities":10885,"Ġwhol":10886,"aring":10887,"arities":10888,"asp":10889,"ascribed":10890,"asibility":10891,"utmost":10892,"utcheson":10893,"ections":10894,"Ġhide":10895,"Ġhost":10896,"Ġhover":10897,"Ġprize":10898,"Ġprae":10899,"Ġproud":10900,"Ġprogram":10901,"Ġash":10902,"Ġaspir":10903,"Ġually":10904,"thening":10905,"ivial":10906,"ivisible":10907,"ivoca":10908,"impose":10909,"imposes":10910,"immortality":10911,"immaterial":10912,"ossession":10913,"Ġanxious":10914,"Ġanterior":10915,"Ġanomaly":10916,"Ġexceed":10917,"Ġexchange":10918,"Ġexcess":10919,"Ġexhort":10920,"Ġexempl":10921,"Ġlend":10922,"Ġlust":10923,"Ġloth":10924,"Ġlack":10925,"Ġliable":10926,"Ġlau":10927,"Ġlibr":10928,"Ġliberum":10929,"Ġnotifies":10930,"Ġweari":10931,"Ġweighed":10932,"Ġwelcome":10933,"Ġfort":10934,"Ġforge":10935,"Ġforbe":10936,"Ġforcing":10937,"Ġforfe":10938,"Ġforsakes":10939,"idity":10940,"idens":10941,"idger":10942,"idnight":10943,"ibles":10944,"Ġsupre":10945,"Ġsuspect":10946,"Ġsunt":10947,"ceptical":10948,"ceptible":10949,"teronomy":10950,"ureans":10951,"iration":10952,"irginia":10953,"Ġgout":10954,"Ġgaps":10955,"Ġgbnew":10956,"Ġwithstand":10957,"urred":10958,"ciate":10959,"versely":10960,"ĠId":10961,"querable":10962,"ogue":10963,"resides":10964,"istences":10965,"Ġorator":10966,"Ġorbits":10967,"erer":10968,"Ġcanst":10969,"ecum":10970,"ecutive":10971,"ecundity":10972,"ifling":10973,"andi":10974,"ando":10975,"andal":10976,"anded":10977,"andom":10978,"permit":10979,"perceived":10980,"permission":10981,"persuasion":10982,"sels":10983,"Äły":10984,"Äłter":10985,"Äłca":10986,"Äłform":10987,"Äłdist":10988,"Äłsim":10989,"Äłfe":10990,"Äładv":10991,"Äłsuper":10992,"Äłequ":10993,"Äłtrans":10994,"Äłgener":10995,"ulzer":10996,"Ġallot":10997,"Ġallure":10998,"Ġallied":10999,"emy":11000,"romise":11001,"Ġprolix":11002,"Ġreasonably":11003,"conveyed":11004,"converted":11005,"conducive":11006,"conversely":11007,"conquerable":11008,"ateful":11009,"charge":11010,"chasm":11011,"chievous":11012,"charities":11013,"ilation":11014,"ilanthrop":11015,"ilibrium":11016,"Ġdeter":11017,"Ġdefe":11018,"Ġdearest":11019,"Ġdelet":11020,"Ġdepict":11021,"Ġdeeper":11022,"Ġals":11023,"Ġalarm":11024,"ored":11025,"Ġintact":11026,"Ġintimate":11027,"Ġintimid":11028,"Ġintegr":11029,"activity":11030,"usable":11031,"usiveness":11032,"Ġhaph":11033,"illain":11034,"amination":11035,"abile":11036,"abiding":11037,"abyss":11038,"plies":11039,"plays":11040,"planation":11041,"places":11042,"placing":11043,"pliance":11044,"plausible":11045,"Ġunw":11046,"Ġunre":11047,"Ġuntr":11048,"Ġunsh":11049,"Ġunjust":11050,"Ġunreal":11051,"Ġunnecessarily":11052,"Ġunqual":11053,"Ġunbelief":11054,"Ġunexception":11055,"Ġunsatisfied":11056,"Ġunsett":11057,"Ġunchanged":11058,"Ġunusual":11059,"Ġuninfluenced":11060,"Ġunrestricted":11061,"Ġunalter":11062,"Ġunguarded":11063,"Ġunbidden":11064,"Ġunyielding":11065,"Ġunlink":11066,"Ġunerring":11067,"Ġunconquerable":11068,"ditions":11069,"ditional":11070,"deceived":11071,"deistic":11072,"olence":11073,"ollection":11074,"igence":11075,"igour":11076,"Ġcael":11077,"Ġcautious":11078,"Ġ(\"":11079,"Ġ(*":11080,"trod":11081,"tried":11082,"track":11083,"Ġspur":11084,"Ġspher":11085,"Ġsport":11086,"Ġcomets":11087,"Ġrot":11088,"Ġrich":11089,"Ġrose":11090,"Ġrude":11091,"Ġraces":11092,"Ġriver":11093,"Ġrhet":11094,"Ġraindrop":11095,"esting":11096,"Ġempire":11097,"Ġworse":11098,"Ġexistential":11099,"herself":11100,"Ġva":11101,"Ġvast":11102,"Ġvigour":11103,"Ġtrial":11104,"Ġtraces":11105,"Ġtriang":11106,"Ġtranqu":11107,"Ġtrivial":11108,"Ġtrifling":11109,"Ġwillingly":11110,"foreign":11111,"foreseen":11112,"ĠBerke":11113,"usement":11114,"aked":11115,"Ġimmaterial":11116,"Ġimproved":11117,"Ġimmortal":11118,"Ġimpregn":11119,"Ġabsol":11120,"Ġabund":11121,"Ġperish":11122,"Ġperman":11123,"Ġpernicious":11124,"orially":11125,"Ġformarum":11126,"Ġnative":11127,"Ġnatura":11128,"Ġnobl":11129,"supposed":11130,"supposing":11131,"suitable":11132,"ameter":11133,"posits":11134,"positio":11135,"Ġkat":11136,"Ġknew":11137,"indifference":11138,"indulgence":11139,"Ġregions":11140,"Ġregret":11141,"Ġregulated":11142,"Ġusurp":11143,"Ġified":11144,"externally":11145,"exhausted":11146,"exterior":11147,"exactly":11148,"phrase":11149,"Ġshame":11150,"Ġshake":11151,"Ġshine":11152,"Ġshaken":11153,"Ġshield":11154,"Ġshared":11155,"Ġshorter":11156,"ĠFunction":11157,"ĠFull":11158,"ĠFAC":11159,"ĠFairbanks":11160,"ĠFebr":11161,"Ġsea":11162,"Ġseyn":11163,"outside":11164,"outset":11165,"Ġcognise":11166,"Ġcogniz":11167,"Ġcognitio":11168,"Ġcognisable":11169,"Ġstat":11170,"Ġstory":11171,"Ġstars":11172,"Ġstored":11173,"udo":11174,"Ġquib":11175,"Ġideally":11176,"Ġreliable":11177,"Ġevade":11178,"wholly":11179,"ĠAK":11180,"ĠAR":11181,"ĠAre":11182,"ĠAff":11183,"ĠACT":11184,"ĠAldarond":11185,"oury":11186,"ource":11187,"Ġjugg":11188,"Ġjesting":11189,"Ġaccum":11190,"Ġaccru":11191,"Ġaccused":11192,"Ġaccredit":11193,"Ġmanhood":11194,"ultaneity":11195,"unite":11196,"unted":11197,"units":11198,"uncertain":11199,"unnecessary":11200,"unities":11201,"unlimited":11202,"uncertainty":11203,"uniting":11204,"until":11205,"unchangeable":11206,"untrue":11207,"unciated":11208,"unsearchable":11209,"Ġunderstandings":11210,"sequence":11211,"forward":11212,"Ġadjust":11213,"Ġadjective":11214,"Ġadjacent":11215,"ĠPublic":11216,"ĠPlease":11217,"ĠPolem":11218,"ĠPOSSIBILITY":11219,"ĠPARA":11220,"ĠPlurality":11221,"Ġyaw":11222,"Ġyoke":11223,"Ġdismis":11224,"Ġdisappro":11225,"Ġdisadvantage":11226,"Ġdisposing":11227,"Ġdiscontinu":11228,"Ġdiscontinue":11229,"Ġdisappeared":11230,"Ġdispleases":11231,"Ġdisrepute":11232,"positions":11233,"),[":11234,"sohn":11235,"etus":11236,"etting":11237,"etched":11238,"Ġknowable":11239,"strings":11240,"striking":11241,"Ġprecl":11242,"Ġpreference":11243,"Ġprefers":11244,"Ġpreponder":11245,"Ġpreposited":11246,"Ġprecaution":11247,"Ġpremise":11248,"Ġpremonition":11249,"ĠThough":11250,"ĠThirdly":11251,"ĠThomas":11252,"Ġchamp":11253,"Ġchaos":11254,"eneration":11255,"enerally":11256,"Ġarouse":11257,"Ġrepresentative":11258,"spaces":11259,"Ġsomewhere":11260,"Ġeveryday":11261,"Ġsyntheses":11262,"ĠSing":11263,"ĠSense":11264,"ĠSEND":11265,"ĠSecond":11266,"ĠSalt":11267,"ĠSenses":11268,"ĠSpirit":11269,"ĠSciences":11270,"ĠSimilarly":11271,"ĠSMAL":11272,"ĠSUB":11273,"ĠSaturn":11274,"ĠSceptical":11275,"Ġphilanthrop":11276,"solved":11277,"ensity":11278,"ensome":11279,"predetermined":11280,"prehensible":11281,"prepared":11282,"oying":11283,"ĠName":11284,"ĠNoumen":11285,"ĠNihil":11286,"ĠNearly":11287,"ĠNovember":11288,"nesses":11289,"ĠOtherwise":11290,"ĠOWNER":11291,"ĠOctober":11292,"Ġsubdu":11293,"Ġsubsid":11294,"possibilities":11295,"imitable":11296,"Ġfrees":11297,"conditional":11298,"ĠIncl":11299,"Ġcertainties":11300,"Ġplun":11301,"Ġenduring":11302,"Ġcompleting":11303,"orting":11304,"ortunities":11305,"Ġcontending":11306,"ĠGover":11307,"ĠGenerally":11308,"ĠWould":11309,"ĠWell":11310,"ĠWOR":11311,"ĠWIL":11312,"ĠWITH":11313,"ĠWidger":11314,"Ġwhenever":11315,"ployment":11316,"Ġgroup":11317,"Ġgrasp":11318,"gory":11319,"meet":11320,"Ġgold":11321,"Ġcontrari":11322,"Theological":11323,"ĠCity":11324,"ĠComp":11325,"ĠCOM":11326,"ĠCAN":11327,"ĠCartes":11328,"ĠCORO":11329,"ĠCarol":11330,"Ġowe":11331,"astically":11332,"served":11333,"forming":11334,"Ġconnections":11335,"Ġobno":11336,"Ġobsole":11337,"proves":11338,"proposed":11339,"Ġdesist":11340,"Ġdescribes":11341,"Ġdespot":11342,"Ġfounding":11343,"oldest":11344,"Ġcommend":11345,"Ġcommences":11346,"Ġcommerce":11347,"Ġdistrust":11348,"arius":11349,"Ġfollowers":11350,"Ġemployee":11351,"Ġwashed":11352,"Ġrationalist":11353,"Ġrationalism":11354,"withdrawn":11355,"Ġpurified":11356,"Ġremember":11357,"Ġremembered":11358,"Ġdiscord":11359,"ĠHas":11360,"ĠHad":11361,"ĠHitherto":11362,"ĠHarmon":11363,"Ġactor":11364,"Ġactuating":11365,"weaken":11366,"âĢĿ.":11367,"âĢĿ),":11368,"Ġextol":11369,"Ġextingu":11370,"Ġenunciation":11371,"Ġenlightened":11372,"Ġenemy":11373,"Ġagency":11374,"overlook":11375,"overstep":11376,"overthrow":11377,"Ġvaluel":11378,"paralogism":11379,"undertaking":11380,"Ġgrounding":11381,"medium":11382,"mediable":11383,"ĠReciproc":11384,"ĠEs":11385,"ĠEqu":11386,"ĠEdition":11387,"ĠElucid":11388,"ĠEmail":11389,"ĠEBC":11390,"ĠELEMENT":11391,"Ġterminis":11392,"Ġterrible":11393,"Ġpresume":11394,"Ġpresiding":11395,"Ġoutwe":11396,"Ġoutdated":11397,"Ġexpend":11398,"Ġexpedient":11399,"Ġexporting":11400,"woven":11401,"existed":11402,"existences":11403,"Ġamply":11404,"Ġreale":11405,"Ġrealitates":11406,"ava":11407,"Ġperfections":11408,"Ġentrance":11409,"mankind":11410,"physician":11411,"physiological":11412,"Ġattends":11413,"ogito":11414,"ĠDE":11415,"ĠDest":11416,"ĠDirect":11417,"ĠDON":11418,"ĠDOM":11419,"ĠDomain":11420,"assion":11421,"assent":11422,"assable":11423,"assistance":11424,"identity":11425,"identical":11426,"hematism":11427,"Ġfacti":11428,"determinable":11429,"cognizing":11430,"Ġimpure":11431,"Ġimpair":11432,"Ġimpelling":11433,"Ġimpenetrable":11434,"Ġimpaired":11435,"Ġimpassable":11436,"ypal":11437,"Thought":11438,"Ġconstituent":11439,"Ġcorpor":11440,"Ġpurposely":11441,"Ġherein":11442,"necessitate":11443,"disk":11444,"disjunctive":11445,"dissimilar":11446,"disappears":11447,"disinterested":11448,"disputes":11449,"Ġinfused":11450,"Ġinfancy":11451,"Ġexplication":11452,"Ġinteresting":11453,"ĠMore":11454,"ĠMatter":11455,"ĠModality":11456,"ĠMendels":11457,"ĠMAY":11458,"Ġkindness":11459,"Ġhandle":11460,"Ġhandles":11461,"Ġstrive":11462,"Ġstray":11463,"Ġstrain":11464,"Ġstriving":11465,"Ġconcess":11466,"Ġconcur":11467,"Ġdemerit":11468,"raised":11469,"raft":11470,"Ġappearing":11471,"otheology":11472,"Ġrestless":11473,"Ġanalyses":11474,"empty":11475,"Ġrefute":11476,"Ġrefused":11477,"Ġrefusing":11478,"Ġrefrain":11479,"regulate":11480,"regulated":11481,"Ġdivides":11482,"Ġsumm":11483,"Ġsums":11484,"events":11485,"Ġcompound":11486,"Ġcompany":11487,"Ġcompulsion":11488,"Ġcompelling":11489,"Ġcompetition":11490,"Ġcompromise":11491,"Ġcompilation":11492,"Ġadvised":11493,"undecided":11494,"Ġdeductible":11495,"Ġcontradicting":11496,"ĠLest":11497,"ĠLogicians":11498,"Ġassumes":11499,"Ġresiding":11500,"lude":11501,"Ġtruthfulness":11502,"Ġ11":11503,"Ġ14":11504,"mediately":11505,"Ġdecay":11506,"Ġdecried":11507,"Ġmetals":11508,"ĠUpdated":11509,"Ġmighty":11510,"accustomed":11511,"Ġsuppressed":11512,"Ġpredicating":11513,"Ġpredicables":11514,"Ġpredicaments":11515,"Ġexpressing":11516,"Ġexpressly":11517,"Ġworking":11518,"Ġphysician":11519,"Ġphysica":11520,"Inasmuch":11521,"Introd":11522,"Ġconfer":11523,"Ġconfident":11524,"Ġconfusions":11525,"Ġconfusing":11526,"Ġconfidently":11527,"Ġdiscoveries":11528,"Ġclock":11529,"Ġcloud":11530,"subscribe":11531,"substitution":11532,"subordinate":11533,"Ġix":11534,"Ġily":11535,"Ġium":11536,"Ġiii":11537,"ĠConcept":11538,"ĠContrib":11539,"ĠConjunction":11540,"ĠContent":11541,"ĠContact":11542,"ĠConditions":11543,"knowing":11544,"Ġdegrade":11545,"Ġindivisible":11546,"Ġindolence":11547,"Ġdefiniteness":11548,"Ġclearing":11549,"Ġarrog":11550,"Ġarranges":11551,"Ġacy":11552,"Ġacknowled":11553,"Ġimperilled":11554,"Ġregression":11555,"Ġregressively":11556,"Ġeloqu":11557,"contend":11558,"contact":11559,"monads":11560,"Ġsolemn":11561,"Ġexerted":11562,"Ġpersonified":11563,"Ġneeding":11564,"misconception":11565,"misapprehension":11566,"Ġediting":11567,"Ġedifices":11568,"Ġwanted":11569,"Ġcontingencies":11570,"Ġfinishing":11571,"Ġfinanci":11572,"Ġscale":11573,"Ġscandal":11574,"parte":11575,"parted":11576,"array":11577,"arrived":11578,"aimed":11579,"contradicts":11580,"contradictorily":11581,"Ġelemental":11582,"Ġassertorial":11583,"Ġassertorially":11584,"Ġmethodical":11585,"Ġcommanding":11586,"Ġmeanest":11587,"overer":11588,"Ġlesson":11589,"Ġlesser":11590,"Ġlessened":11591,"ĠTHOSE":11592,"goals":11593,"Ġoverthrow":11594,"Ġovercoming":11595,"transcendentalism":11596,"Ġdogma":11597,"Ġsolving":11598,"Ġnonentity":11599,"Ġnonpropri":11600,"Ġdemonstrable":11601,"Ġrelationship":11602,"Ġequipped":11603,"Ġequilibrium":11604,"bitious":11605,"bitably":11606,"Ġidealistic":11607,"Ġidealizing":11608,"Ġcoin":11609,"Ġcoat":11610,"Ġcoar":11611,"Ġcool":11612,"Ġcoins":11613,"Ġcoerc":11614,"grace":11615,"ĠPrimal":11616,"ĠPriestle":11617,"ĠSub":11618,"ĠSupposing":11619,"ĠSubst":11620,"Ġboundless":11621,"Ġconducting":11622,"mense":11623,"ailing":11624,"Ġidentification":11625,"Ġ21":11626,"Ġ23":11627,"Ġexpecting":11628,"Ġharsh":11629,"Ġmisuse":11630,"Ġmisology":11631,"Ġmisrepresentation":11632,"Ġmisinter":11633,"Ġmisapplied":11634,"Ġmissed":11635,"Ġmisleads":11636,"Ġmisfortune":11637,"Ġmischief":11638,"Ġmiserably":11639,"Ġopens":11640,"Ġpassion":11641,"Ġpassions":11642,"Ġargumentative":11643,"Ġdenying":11644,"Ġdenotes":11645,"Ġappreciated":11646,"Ġapprehensions":11647,"extends":11648,"extreme":11649,"Ġgenerates":11650,"Ġgeneratio":11651,"Ġobligatory":11652,"Ġremarking":11653,"ocate":11654,"ocks":11655,"Ġpromising":11656,"Ġprominent":11657,"Ġsuperficial":11658,"Ġconsciously":11659,"ĠBeings":11660,"Ġceased":11661,"simplicity":11662,"simultaneous":11663,"Ġawakes":11664,"nearer":11665,"differ":11666,"blunder":11667,"blances":11668,"Ġpeculiarities":11669,"Ġlegislator":11670,"Ġmaintainer":11671,"Ġaffirming":11672,"connecting":11673,"Ġunderstands":11674,"aveolens":11675,"corporeal":11676,"somewhat":11677,"Ġcircuit":11678,"Ġspeech":11679,"Ġundone":11680,"Ġundecided":11681,"Ġundisc":11682,"Ġundeveloped":11683,"describe":11684,"desired":11685,"Ġbrutes":11686,"Ġbranch":11687,"Ġbrutum":11688,"Ġbridge":11689,"happily":11690,"happened":11691,"righteous":11692,"ship":11693,"categorically":11694,"Ġignore":11695,"Ġintellectualized":11696,"Ġteleology":11697,"Ġfutile":11698,"Ġdistinctly":11699,"Ġdistinctness":11700,"Ġclaiming":11701,"brain":11702,"Ġoperative":11703,"Ġoperates":11704,"ynics":11705,"ĠAnalog":11706,"Ġendeavouring":11707,"fering":11708,"Ġconvict":11709,"Ġconvictions":11710,"Ġcorrecting":11711,"presum":11712,"prescribed":11713,"Ġthreefold":11714,"Ġpretext":11715,"Ġdistributive":11716,"Ġanalogical":11717,"sensuously":11718,"Ġparsimony":11719,"Ġparabol":11720,"examine":11721,"examined":11722,"examining":11723,"Ġinvolunt":11724,"apse":11725,"noble":11726,"noisseurs":11727,"request":11728,"requiring":11729,"legality":11730,"Ġmeditation":11731,"remove":11732,"remote":11733,"remarks":11734,"remained":11735,"procure":11736,"fees":11737,"Ġdynamics":11738,"ĠUnphilosophical":11739,"impenetrable":11740,"Ġasking":11741,"justifies":11742,"Äłsc":11743,"Ġtranslated":11744,"ĠExternal":11745,"ĠExtent":11746,"ĠExamples":11747,"ĠExistences":11748,"ĠExecutive":11749,"ĠExamination":11750,"attached":11751,"attacks":11752,"caused":11753,"Ġprofundity":11754,"Ġpains":11755,"Ġpainful":11756,"Ġexcluding":11757,"Ġexclusive":11758,"Ġvainly":11759,"Ġdesigned":11760,"Ġdesignates":11761,"Ġdesignating":11762,"Ġsuccessively":11763,"asked":11764,"Äłrep":11765,"compound":11766,"compressed":11767,"applies":11768,"respects":11769,"respecting":11770,"respective":11771,"INCIDENTAL":11772,"Ġ596":11773,"inclined":11774,"includes":11775,"Ġblow":11776,"Ġthirdly":11777,"ĠArchitect":11778,"Ġmeanings":11779,"Ġmeaningless":11780,"orizontal":11781,"ftp":11782,"ificate":11783,"Ġdelivers":11784,"Ġdeline":11785,"Ġdelusions":11786,"Ġdelicate":11787,"Ġdelivered":11788,"Ġraises":11789,"Ġapproved":11790,"Ġapproval":11791,"Ġapprobation":11792,"consisting":11793,"Ġ*(":11794,"Ġreferable":11795,"ĠVery":11796,"confounded":11797,"confutation":11798,"Ġcheer":11799,"Ġchemist":11800,"thoughts":11801,"ĠSphere":11802,"Ġdeclined":11803,"universally":11804,"quanta":11805,"Ġletters":11806,"Ġagreeably":11807,"Ġorganic":11808,"Ġarbitrium":11809,"Ġsignificancy":11810,"ĠJUD":11811,"Ġensure":11812,"Ġensures":11813,"Ġensuring":11814,"thened":11815,"Ġgeometer":11816,"divisible":11817,"constituted":11818,"constituent":11819,"mathematician":11820,"ĠKings":11821,"ĠKNOW":11822,"metaphysicians":11823,"Ġ4000":11824,"Ġ4280":11825,"ĠREPL":11826,"ĠREFUND":11827,"iterated":11828,"Ġseparates":11829,"Ġseparating":11830,"worthless":11831,"Ġcarelessness":11832,"ipid":11833,"ipate":11834,"CEDURE":11835,"Ġoffence":11836,"insipid":11837,"possessions":11838,"Ġsceptic":11839,"Ġfaulty":11840,"cogitable":11841,"cogitating":11842,"Ġwiser":11843,"Ġwisest":11844,"Ġacceptance":11845,"ursively":11846,"specific":11847,"Ġcreative":11848,"venal":11849,"Ġgenius":11850,"guides":11851,"thinker":11852,"thinkers":11853,"changeably":11854,"Ġfavourite":11855,"Ġpropension":11856,"Ġpropounded":11857,"Ġsurely":11858,"Ġoccasioning":11859,"Ġoccasioned":11860,"Ġoccasionally":11861,"Ġdogmata":11862,"Ġdogmatists":11863,"satisfy":11864,"analysed":11865,"originated":11866,"originator":11867,"originarium":11868,"Ġhighway":11869,"predicated":11870,"predicaments":11871,"Ġgeometricians":11872,"Ġgeometrician":11873,"demonstrations":11874,"demonstratively":11875,"Ġinterference":11876,"Ġinterior":11877,"Ġinterrog":11878,"Ġinterpretation":11879,"Ġinterwoven":11880,"Ġinterfering":11881,"Ġconverting":11882,"Ġfrustr":11883,"Ġfrank":11884,"Ġframes":11885,"judges":11886,"judging":11887,"judicium":11888,"sensatio":11889,"iminished":11890,"Ġcountenance":11891,"Ġcountries":11892,"advances":11893,"Ġartifice":11894,"realized":11895,"realissimum":11896,"Ġcollect":11897,"Ġmechanically":11898,"Ġirrespective":11899,"explanations":11900,"Ġreducing":11901,"Ġexperiments":11902,"Ġexperimental":11903,"Ġ92":11904,"discovers":11905,"matters":11906,"Ġaccessed":11907,"Ġaccessible":11908,"Ġcanons":11909,"observe":11910,"volunteers":11911,"Ġprudential":11912,"firstly":11913,"NDATION":11914,"Ġloses":11915,"Ġaccidentally":11916,"Ġclassed":11917,"Ġcomprehended":11918,"investigating":11919,"continual":11920,"Professor":11921,"Ġdiversities":11922,"Ġdefects":11923,"attaining":11924,"Ġurges":11925,"Ġsketched":11926,"ĠImmortality":11927,"Ġdetection":11928,"affinity":11929,"Ġpracticable":11930,"Ġrecent":11931,"Ġrecord":11932,"Ġrecollection":11933,"Ġhumour":11934,"Ġwriter":11935,"Ġconfining":11936,"Ġascends":11937,"Ġventuring":11938,"Ġenlarges":11939,"Ġenlarging":11940,"adequately":11941,"influences":11942,"Ġsentimental":11943,"Ġbenef":11944,"Ġbenefits":11945,"Ġfirmness":11946,"Ġsucceeds":11947,"Ġstudent":11948,"Ġobscured":11949,"maximum":11950,"Ġmistaking":11951,"negations":11952,"neglect":11953,"saying":11954,"Ġdestiny":11955,"Ġlowering":11956,"ĠPhalar":11957,"Ġpreserves":11958,"Ġpreservation":11959,"Ġ2003":11960,"attempting":11961,"Conceptions":11962,"drawing":11963,"glorious":11964,"psychologia":11965,"Ġglim":11966,"Ġglory":11967,"Ġcapital":11968,"Ġengraft":11969,"Ġqualified":11970,"Ġreckons":11971,"Ġstrengthening":11972,"ÄłPh":11973,"operate":11974,"operative":11975,"operating":11976,"Ġ70":11977,"Ġauthorizes":11978,"Ġauthorizing":11979,"Ġestimates":11980,"Ġbestowed":11981,"Ġspirituality":11982,"ĠPUBL":11983,"ĠPROBL":11984,"ĠPROCEDURE":11985,"ĠHerein":11986,"Ġreflected":11987,"regressive":11988,"regressus":11989,"Ġprofessions":11990,"imagine":11991,"imagined":11992,"Ġ65":11993,"ÄłAn":11994,"ÄłAr":11995,"conditio":11996,"Ġguardian":11997,"Ġrepul":11998,"Ġreputation":11999,"Ġreports":12000,"Ġreported":12001,"Ġhabitation":12002,"Ġincreases":12003,"Ġrenamed":12004,"Ġrenounces":12005,"Ġrenounced":12006,"Ġexcuse":12007,"Ġexcited":12008,"Ġexcusable":12009,"Ġverify":12010,"Ġverbal":12011,"supplied":12012,"obligatory":12013,"Ġsearching":12014,"pretext":12015,"equally":12016,"equivalent":12017,"humanity":12018,"Ġmoves":12019,"Ġbehold":12020,"Ġbehalf":12021,"Ġextract":12022,"Ġdeviate":12023,"ĠChief":12024,"Ġenjoying":12025,"ĠEmpiricism":12026,"ĠEmployment":12027,"Ġstrongly":12028,"Ġstrongest":12029,"ĠLeibnitzian":12030,"Ġoccurring":12031,"difficult":12032,"Ġblindness":12033,"unteer":12034,"define":12035,"Ġstruck":12036,"depending":12037,"infinitely":12038,"Ġtwist":12039,"inquire":12040,"Ġsuggests":12041,"Ġsuggestion":12042,"Ġsuggestions":12043,"Ġaccordant":12044,"ĠEpicureans":12045,"Ġderivable":12046,"additions":12047,"secondly":12048,"degrees":12049,"conceptus":12050,"instance":12051,"instances":12052,"Ġappeals":12053,"Ġheader":12054,"Ġpermits":12055,"Ġadaptation":12056,"ĠEveryone":12057,"Ġsecrets":12058,"Ġillustrations":12059,"requirement":12060,"Ġtransgresses":12061,"Ġtransgressing":12062,"Existence":12063,"Examples":12064,"Ġfortunate":12065,"Ġimitate":12066,"Ġimitating":12067,"showing":12068,"attributing":12069,"Ġvanish":12070,"Ġvanishes":12071,"Ġprepares":12072,"ĠDIRECT":12073,"Ġobeys":12074,"Ġhinders":12075,"Ġadducing":12076,"ĠWhole":12077,"Ġgovernor":12078,"Ġsubstantive":12079,"Ġmoderately":12080,"Ġscholar":12081,"Ġscholars":12082,"Ġscholastically":12083,"Ġrooted":12084,"Ġcontemplate":12085,"directs":12086,"directing":12087,"directed":12088,"singular":12089,"begins":12090,"ACEMENT":12091,"versa":12092,"ĠINTERNAL":12093,"antecedently":12094,"analytically":12095,"advantageous":12096,"labours":12097,"persons":12098,"personal":12099,"personality":12100,"abstracted":12101,"oxysms":12102,"Ġinjuring":12103,"Ġinjury":12104,"Ġrejects":12105,"Ġrejection":12106,"Ġsuffers":12107,"Ġsuffices":12108,"Ġattractions":12109,"Ġabandoned":12110,"Ġsympath":12111,"Ġsymbol":12112,"Ġsympat":12113,"Ġstarted":12114,"Ġevidencing":12115,"Ġcommunic":12116,"Ġconfusedly":12117,"Ġaccomplishes":12118,"Ġomnipresent":12119,"Ġomnipresence":12120,"generations":12121,"Ġ85":12122,"Ġ841":12123,"correctly":12124,"correctness":12125,"affirming":12126,"affirmations":12127,"occupies":12128,"maintains":12129,"aenomena":12130,"Ġspectata":12131,"Ġspectacle":12132,"comparatively":12133,"Ġvex":12134,"Ġveiled":12135,"Ġvehic":12136,"conclusio":12137,"Ġaltering":12138,"Ġsettlement":12139,"Ġlegitimately":12140,"Ġtypic":12141,"Ġcuriosity":12142,"security":12143,"Ġdictation":12144,"Ġdictated":12145,"Ġlocale":12146,"Ġdeepest":12147,"Ġmeantime":12148,"Ġimparted":12149,"Ġimpartiality":12150,"ĠMaterial":12151,"commands":12152,"Ġblameless":12153,"enlarges":12154,"enlarging":12155,"distribute":12156,"distribution":12157,"progressus":12158,"needing":12159,"authors":12160,"collection":12161,"collected":12162,"modi":12163,"Ġmonogram":12164,"Ġmonads":12165,"promise":12166,"promote":12167,"Ġlinked":12168,"constructions":12169,"Ġtender":12170,"Ġtendencies":12171,"Ġtells":12172,"Ġcleared":12173,"Ġresolves":12174,"Ġresolutions":12175,"Ġreplaced":12176,"Ġdrives":12177,"Ġhardness":12178,"results":12179,"Ġdeprives":12180,"Ġundertakes":12181,"Ġstops":12182,"ĠPerception":12183,"ĠPerfect":12184,"ĠPerhaps":12185,"ĠPermitted":12186,"Ġpreferable":12187,"Ġpreferred":12188,"ĠCategory":12189,"ĠCategorical":12190,"Ġpresumed":12191,"Ġambigu":12192,"Ġteachings":12193,"Ġcalculation":12194,"Ġfulfils":12195,"Ġhyperbol":12196,"graduated":12197,"reciprocity":12198,"errors":12199,"incerity":12200,"Ġjoining":12201,"Ġannounces":12202,"Ġannoying":12203,"Ġillegitimate":12204,"Ġaugmentative":12205,"Ġcentury":12206,"Ġrevealed":12207,"ĠTranscendent":12208,"ĠTrancendent":12209,"Ġalleging":12210,"agreeable":12211,"materialiter":12212,"ĠComposition":12213,"ĠCompliance":12214,"Ġenouncement":12215,"Ġimplying":12216,"Ġdecidedly":12217,"Ġerroneously":12218,"Ġcolouring":12219,"affecting":12220,"copy":12221,"copying":12222,"country":12223,"moon":12224,"opportunity":12225,"Ġincit":12226,"Ġincumb":12227,"indispensably":12228,"smaller":12229,"constructs":12230,"constructed":12231,"individuals":12232,"Ġinstructs":12233,"Ġratione":12234,"sophistries":12235,"Ġ501":12236,"pathologically":12237,"CLUSION":12238,"ULTY":12239,"Ġwax":12240,"Ġwait":12241,"Ġwider":12242,"Ġinherence":12243,"Ġthyself":12244,"Ġthreatened":12245,"Ġthreatening":12246,"Ġfootpath":12247,"Ġfootsteps":12248,"Ġnullity":12249,"Ġerects":12250,"Ġconjectures":12251,"Ġhundreds":12252,"Ġpropensions":12253,"Ġprincipally":12254,"Ġviolate":12255,"profitable":12256,"ĠAlaska":12257,"Ġyouthful":12258,"Ġattacked":12259,"ĠMeanwhile":12260,"Ġconcealment":12261,"Ġroads":12262,"ĠÃĨSTHE":12263,"ĠProofs":12264,"ĠProblematical":12265,"Ġobstinacy":12266,"ĠPhilosophical":12267,"ĠPhysics":12268,"Ġprospects":12269,"Ġhypostatize":12270,"Ġhypostatized":12271,"801":12272,"apodeictical":12273,"Beyond":12274,"LIABILITY":12275,"LIABLE":12276,"poseless":12277,"deserve":12278,"communio":12279,"Ġreconcile":12280,"Ġamounts":12281,"Ġflatters":12282,"Ġsovereignty":12283,"Ġmachines":12284,"Ġmachinery":12285,"Ġdespising":12286,"ĠEXCEP":12287,"ĠEXTERNAL":12288,"Ġirremediable":12289,"ĠSystematic":12290,"Ġstruggles":12291,"Ġstruggling":12292,"ĠNewby":12293,"Ġbreaks":12294,"remaining":12295,"pursuit":12296,"pursued":12297,"Ġpoor":12298,"Ġpressure":12299,"donation":12300,"inseparable":12301,"Ġcourtes":12302,"Ġruined":12303,"experiment":12304,"remarking":12305,"Ġascertaining":12306,"Ġalternation":12307,"Ġalternate":12308,"Ġalternatively":12309,"Ġruns":12310,"dispositions":12311,"Ġincompatible":12312,"Ġannexes":12313,"Ġexemption":12314,"Ġexcellence":12315,"Ġlicence":12316,"Ġlicet":12317,"Ġdetract":12318,"ĠPRINT":12319,"Ġsubstitute":12320,"Ġsubstituting":12321,"Ġ1971":12322,"Ġelaborate":12323,"Ġelaborating":12324,"Ġmoderns":12325,"Ġantinomial":12326,"Ġsolicitation":12327,"Ġsolidity":12328,"Ġinstincts":12329,"Ġdenomination":12330,"Ġspiritualism":12331,"ĠDIALECTICAL":12332,"Ġflowing":12333,"Permanence":12334,"Persuasion":12335,"classes":12336,"designate":12337,"comprehending":12338,"comprehended":12339,"organon":12340,"cility":12341,"devised":12342,"Ġhesitation":12343,"sympathy":12344,"contemplated":12345,"SECTION":12346,"SECOND":12347,"harmonize":12348,"treatment":12349,"definitely":12350,"haustible":12351,"convincing":12352,"expositions":12353,"Ġsilver":12354,"Ġinexorably":12355,"Ġinexhaustible":12356,"Ġbinds":12357,"ancients":12358,"Ġbetrayed":12359,"Ġprimeval":12360,"Ġunfortunate":12361,"Ġtrustworthy":12362,"Ġheights":12363,"Ġperplexing":12364,"ĠAbout":12365,"Ġmysticism":12366,"Ġcompassion":12367,"ĠConclusion":12368,"specifically":12369,"Ġsuffering":12370,"Ġridicule":12371,"Grant":12372,"heterogeneous":12373,"admixture":12374,"admiration":12375,"excite":12376,"excited":12377,"Deity":12378,"cosmology":12379,"honoured":12380,"honesty":12381,"increase":12382,"introduction":12383,"transcends":12384,"exhibit":12385,"probable":12386,"reckoning":12387,"forthcoming":12388,"speak":12389,"Produce":12390,"declarations":12391,"momenta":12392,"tonian":12393,"ĠQuantity":12394,"secting":12395,"Ġrestrained":12396,"Ġchiefly":12397,"Ġgratification":12398,"descent":12399,"Ġinnate":12400,"Ġinsisted":12401,"Ġbonus":12402,"Ġpragmatic":12403,"Ġluxury":12404,"Ġsustain":12405,"Ġsustained":12406,"Ġcomprised":12407,"Ġembarrassments":12408,"Ġhealthy":12409,"ĠAGREEMENT":12410,"Ġcharitable":12411,"ĠIntroduction":12412,"ĠGrant":12413,"ĠGermany":12414,"Ġencourage":12415,"Ġencourages":12416,"Ġcriticize":12417,"ĠMission":12418,"majesty":12419,"Ġsurprise":12420,"Ġdeficiency":12421,"Ġpunctual":12422,"Ġpunctually":12423,"Ġstrengthens":12424,"Ġtalked":12425,"Ġastonishing":12426,"ĠMethodology":12427,"Ġdenominated":12428,"Ġfatalist":12429,"confirmation":12430,"barism":12431,"enjoyment":12432,"delusion":12433,"detailed":12434,"agonal":12435,"anthropomorphic":12436,"501":12437,"creature":12438,"creatures":12439,"testing":12440,"recognise":12441,"recognizes":12442,"substantia":12443,"PROVIDED":12444,"bringing":12445,"Ġeducation":12446,"Ġeducational":12447,"Ġtolerable":12448,"Ġtolerate":12449,"Ġmali":12450,"Ġmalum":12451,"Ġectypal":12452,"professes":12453,"preventing":12454,"ficiency":12455,"Ġautomaton":12456,"Ġswamp":12457,"Ġpoles":12458,"Ġpolice":12459,"ĠINDEMNITY":12460,"Ġricher":12461,"Ġardent":12462,"precepts":12463,"Ġtheorems":12464,"Ġslip":12465,"Ġpublish":12466,"Ġpublished":12467,"Ġparents":12468,"Ġinspires":12469,"Ġincorporeal":12470,"Ġmarvellous":12471,"Ġmasses":12472,"Ġepisyllogism":12473,"Ġrefinement":12474,"Ġredistribute":12475,"Ġredistributing":12476,"Ġprolonging":12477,"Ġprolonged":12478,"Ġratiocinant":12479,"Ġvisionary":12480,"ĠBEFORE":12481,"Ġperpetual":12482,"Ġconsulting":12483,"ĠAgainst":12484,"ĠSeat":12485,"Ġsubdivided":12486,"Ġsubdivisions":12487,"ĠWolfian":12488,"ĠCanon":12489,"ĠCognition":12490,"ĠCognitions":12491,"Ġcommercium":12492,"Ġvalues":12493,"Ġvalued":12494,"Ġsimplest":12495,"ĠDetermine":12496,"ĠDetermining":12497,"Ġresponsible":12498,"Ġresponsibility":12499,"ĠSubjective":12500,"Ġaddresses":12501,"Ġparadoxical":12502,"Ġchemists":12503,"Ġfacility":12504,"Ġtautological":12505,"Ġbeneficence":12506,"Ġwavering":12507,"Ġarchetypal":12508,"Ġarchetypes":12509,"available":12510,"requisite":12511,"flown":12512,"Ġpotential":12513,"Ġlarger":12514,"Ġlargest":12515,"plainly":12516,"doctrines":12517,"doctrinal":12518,"authorized":12519,"beneficial":12520,"cultivated":12521,"framed":12522,"ratione":12523,"sketch":12524,"sentiments":12525,"reconciled":12526,"indubitably":12527,"exercising":12528,"Philosophical":12529,"1887":12530,"Caius":12531,"Causality":12532,"diversity":12533,"diversities":12534,"master":12535,"mastery":12536,"temptation":12537,"temptations":12538,"Ġfluid":12539,"strength":12540,"strengthened":12541,"performing":12542,"abandoning":12543,"abandoned":12544,"private":12545,"privilege":12546,"obscure":12547,"obscurity":12548,"impulse":12549,"impulses":12550,"mysticism":12551,"Idealism":12552,"functions":12553,"parents":12554,"Ġmountain":12555,"Ġmountains":12556,"settlement":12557,"Ġdrops":12558,"iverance":12559,"Ġadversary":12560,"Ġarticulation":12561,"Ġcardinal":12562,"Ġsalts":12563,"Ġsanct":12564,"Ġsanctions":12565,"Ġseduced":12566,"Ġsmoke":12567,"Ġsmooth":12568,"Ġsoftware":12569,"Ġincapac":12570,"Ġincapacity":12571,"Ġmilitates":12572,"Ġflatten":12573,"Ġelucidate":12574,"Ġreverses":12575,"Ġdiameter":12576,"Ġdiagonal":12577,"Ġlimbs":12578,"Ġhastily":12579,"Ġunconsciously":12580,"Ġmelts":12581,"Ġshadows":12582,"Ġappetite":12583,"ĠPGLAF":12584,"ĠPostulate":12585,"ĠPostulates":12586,"Ġyea":12587,"Ġarguing":12588,"ĠSchematism":12589,"Ġsubreptions":12590,"Ġsubreptio":12591,"ĠCauses":12592,"ĠCausality":12593,"ĠCertainly":12594,"ĠCosmical":12595,"ĠCosmology":12596,"ĠRedistribution":12597,"ĠRedistributing":12598,"Ġconfounding":12599,"Ġindividuum":12600,"Ġimaginarium":12601,"Ġheroes":12602,"Ġfalsity":12603,"Ġ5682":12604,"Ġ5683":12605,"Ġadmirers":12606,"Ġsignalize":12607,"ĠWhoever":12608,"Ġsharpen":12609,"Ġpoisons":12610,"ĠDISTRIBUTE":12611,"ĠDISTRIBUTOR":12612,"Ġlatent":12613,"embarrassment":12614,"Concluding":12615,"transgression":12616,"5683":12617,"architectonic":12618,"laborious":12619,"Ġference":12620,"sensualizing":12621,"Epicurean":12622,"Morality":12623,"Stoics":12624,"azard":12625,"calculation":12626,"destination":12627,"easily":12628,"elevated":12629,"facility":12630,"familiar":12631,"humiliates":12632,"loving":12633,"penetrating":12634,"wisdom":12635,"warranties":12636,"inozism":12637,"instructed":12638,"enumerate":12639,"ithmetic":12640,"threatens":12641,"conjectured":12642,"confines":12643,"convenience":12644,"primary":12645,"speculations":12646,"serviceable":12647,"PLEASE":12648,"scholastic":12649,"circumstances":12650,"6221541":12651,"Wolfian":12652,"motherly":12653,"Ġadequacy":12654,"animals":12655,"constantly":12656,"ademical":12657,"adapted":12658,"ĠEDITION":12659,"undoubtedly":12660,"granting":12661,"consequentiae":12662,"Ġtears":12663,"Ġtheologians":12664,"Ġwandering":12665,"Ġcandour":12666,"Ġcitizen":12667,"Ġsagacity":12668,"Ġincomprehensibility":12669,"Ġindiscernibles":12670,"Ġinstrument":12671,"Ġincontrovertibly":12672,"Ġbroke":12673,"Ġthirteen":12674,"Ġthwarting":12675,"Ġmingles":12676,"Ġfantastic":12677,"Ġnominally":12678,"Ġeclipses":12679,"Ġliquet":12680,"Ġlanguages":12681,"Ġweariness":12682,"Ġforgetting":12683,"Ġsupposititious":12684,"Ġsuddenly":12685,"Ġalkali":12686,"Ġunsolicited":12687,"Ġunquestionably":12688,"Ġempiricist":12689,"Ġembellishments":12690,"Ġtradesman":12691,"ĠBecause":12692,"Ġimmediatae":12693,"Ġnovelty":12694,"ĠFaculty":12695,"ĠFOUNDATION":12696,"ĠAdditional":12697,"acceptation":12698,"Ġaccusation":12699,"ĠPrecisely":12700,"ĠParalogisms":12701,"Ġdissipate":12702,"Ġdisappointment":12703,"Ġphantoms":12704,"ĠIntellect":12705,"ĠGregory":12706,"ĠClue":12707,"ĠCopernicus":12708,"Ġobliterated":12709,"Ġdiscretum":12710,"ĠHistory":12711,"ĠHypothesis":12712,"Ġenvy":12713,"Ġenigma":12714,"ĠEvents":12715,"Ġtertium":12716,"Ġentrusted":12717,"Ġimpotence":12718,"Ġshallowness":12719,"Ġinflexible":12720,"Ġappertaining":12721,"ĠLatin":12722,"Ġdecrease":12723,"Ġilluminated":12724,"ĠOntological":12725,"Ġdegraded":12726,"Ġmisleading":12727,"Ġsurrounded":12728,"Ġsurreptitiously":12729,"Ġindisputable":12730,"ĠImperatives":12731,"Ġdetails":12732,"Ġprosyllogisms":12733,"Ġdeviations":12734,"ĠDiscovery":12735,"Ġtreasures":12736,"ĠNegation":12737,"ĠOriginally":12738,"Ġzealous":12739,"Ġsteadfastness":12740,"Ġsilenced":12741,"ĠAbbott":12742,"Ġauthenticated":12743,"Ġastronomers":12744,"Ġeconomical":12745,"Ġgerm":12746,"ĠIRS":12747,"ĠPHILOSO":12748,"Ġarmoury":12749,"struggle":12750,"escape":12751,"Ġducat":12752,"Ġallege":12753,"ĠRIGHT":12754,"Ġpushed":12755,"ectypa":12756,"Substances":12757,"opponent":12758,"omnipotence":12759,"Aristotle":12760,"Categories":12761,"Criticism":12762,"DAMAGE":12763,"GRAPH":12764,"Juvenal":12765,"Meanwhile":12766,"Pleasure":12767,"Possibility":12768,"Particular":12769,"Revenue":12770,"Things":12771,"Until":12772,"busy":12773,"civilized":12774,"dollars":12775,"fanaticism":12776,"fictitious":12777,"hindrances":12778,"hopes":12779,"mundus":12780,"movable":12781,"pobox":12782,"soundness":12783,"twofold":12784,"victory":12785,"welfare":12786,"Ġaverage":12787,"Ġaequivoca":12788,"Ġoptical":12789,"repeated":12790,"resemblances":12791,"encouragement":12792,"alleged":12793,"Ġnisi":12794,"Ġnetwork":12795,"Ġconditio":12796,"Ġdictionis":12797,"starry":12798,"omnitudo":12799,"theorem":12800,"improvement":12801,"Ġlibitum":12802,"ibiblio":12803,"persisted":12804,"perpetually":12805,"perplexity":12806,"conjunctio":12807,"defence":12808,"detrimental":12809,"pragmatic":12810,"suppositio":12811,"excellent":12812,"behoof":12813,"commencing":12814,"paradoxical":12815,"obstacles":12816,"Prototypon":12817,"TRADEMARK":12818,"fruitful":12819,"Ġtibi":12820,"Ġatheistic":12821,"reluctantly":12822,"recommendations":12823,"Ġwalks":12824,"Ġcunning":12825,"Ġcathartic":12826,"Ġcubic":12827,"Ġcrowded":12828,"Ġinanimate":12829,"Ġinexplicable":12830,"Ġinestimable":12831,"Ġinhabitants":12832,"Ġinsensibly":12833,"Ġthreshold":12834,"Ġdiligence":12835,"Ġdialetic":12836,"Ġbequeath":12837,"Ġwholes":12838,"Ġhostile":12839,"Ġaspirations":12840,"Ġlaugh":12841,"Ġlibrary":12842,"Ġwearied":12843,"Ġforbear":12844,"Ġsupremacy":12845,"Ġgbnewby":12846,"Ġprolixity":12847,"Ġdeletions":12848,"Ġintimidation":12849,"Ġintegrity":12850,"Ġhaphazard":12851,"Ġunshaken":12852,"Ġunqualified":12853,"Ġunexceptionable":12854,"Ġunsettled":12855,"Ġunalterable":12856,"Ġcaelo":12857,"Ġraindrops":12858,"Ġtriangles":12859,"ĠBerkeley":12860,"Ġpermanently":12861,"Ġnoblest":12862,"ĠFACULTY":12863,"ĠFebruary":12864,"Ġcognizant":12865,"ĠACTUAL":12866,"ĠAldarondo":12867,"ĠPolemics":12868,"ĠPARAGRAPH":12869,"ĠSMALL":12870,"Ġphilanthropist":12871,"ĠNoumena":12872,"Ġsubdued":12873,"Ġsubsidiary":12874,"ĠGovernor":12875,"ĠWORK":12876,"ĠWILL":12877,"Ġcontrariwise":12878,"ĠCartesian":12879,"ĠCOROLLARY":12880,"ĠCarolina":12881,"Ġobnoxious":12882,"Ġobsolete":12883,"ĠHarmony":12884,"Ġvalueless":12885,"ĠElucidation":12886,"ĠEBCDIC":12887,"ĠELEMENTS":12888,"ĠDirector":12889,"ĠDOMAIN":12890,"Ġcorporation":12891,"ĠMendelssohn":12892,"ĠContributions":12893,"Ġeloquent":12894,"Ġfinancial":12895,"Ġnonproprietary":12896,"Ġcoercion":12897,"ĠPriestley":12898,"ĠSubstance":12899,"Ġmisinterpretation":12900,"Ġundiscovered":12901,"ĠAnalogies":12902,"Ġparabola":12903,"Ġinvoluntarily":12904,"ĠArchitectonic":12905,"ĠJUDGEMENT":12906,"ĠKingsmill":12907,"ĠREPLACEMENT":12908,"Ġfrankness":12909,"ĠPhalaris":12910,"ĠPUBLIC":12911,"ĠPROBLEM":12912,"Ġ84116":12913,"Ġhyperbolic":12914,"ĠTrancendentale":12915,"Ġincumbent":12916,"ĠÃĨSTHETIC":12917,"ĠEXCEPT":12918,"Ġcourtesy":12919,"sign":12920,"ĠX":12921,"Ġile":12922,"Ġived":12923,"Ġension":12924,"Ġensive":12925,"Ġiving":12926,"Ġiding":12927,"Ġtic":12928,"Ġtical":12929,"Ġae":12930,"Ġave":12931,"Ġaken":12932,"Ġaking":12933,"Ġpose":12934,"Ġber":12935,"Ġmit":12936,"Ġnt":12937,"Ġith":12938,"Ġiting":12939,"Ġitas":12940,"Ġither":12941,"Ġude":12942,"Ġane":12943,"Ġangu":12944,"Ġling":12945,"Äłk":12946,"Äłend":12947,"Äłact":12948,"Äłus":12949,"Äłall":12950,"Äłcl":12951,"Äłmed":12952,"Äłha":12953,"Äłsy":12954,"ÄłRE":12955,"Äłleg":12956,"Äłrem":12957,"Äłpur":12958,"Äłconce":12959,"Äłaff":12960,"Äłgl":12961,"Ġared":12962,"Ġyp":12963,"Ġarch":12964,"deriv":12965,"Ġene":12966,"ĠEM":12967,"Äłexp":12968,"ÄłPro":12969,"Äładm":12970,"bor":12971,"bted":12972,"leness":12973,"ucid":12974,"Ġication":12975,"Ġicism":12976,"Ġail":12977,"Ġaces":12978,"Ġove":12979,"Ġck":12980,"Ġsion":12981,"Ġsect":12982,"Ġpir":12983,"Ġbal":12984,"Ġms":12985,"Ġites":12986,"Ġular":12987,"pted":12988,"Ġges":12989,"Ġged":12990,"Ġors":12991,"ÄłJ":12992,"Äłon":12993,"Äłor":12994,"Äław":12995,"Äłph":12996,"Äłfin":12997,"Äłser":12998,"Äłear":12999,"Äłman":13000,"Äłphys":13001,"Äłdetermin":13002,"Äłlaw":13003,"Äłne":13004,"Äłprov":13005,"ÄłSu":13006,"ÄłPr":13007,"Äłpret":13008,"Äłcontinu":13009,"Äłcommun":13010,"ÄłUn":13011,"Ġatio":13012,"Ġatively":13013,"Ġunt":13014,"Ġrit":13015,"Ġring":13016,"Ġement":13017,"Ġifies":13018,"Ġying":13019,"Ġars":13020,"ĠOU":13021,"ĠEN":13022,"Ġtermin":13023,"Ġutation":13024,"Äłinst":13025,"Äłsum":13026,"Äłcal":13027,"Äłfa":13028,"Äłpass":13029,"Ġurs":13030,"Äłbene":13031,"Äłconv":13032,"Ġolog":13033,"ÄłDe":13034,"Ġously":13035,"Ġounce":13036,"Ġwards":13037,"Ã¢Ä¢Ä¿":13038,"Sol":13039,"Â¦":13040,"Äī":13041,"ĠÄł":13042,"Ġime":13043,"Ġician":13044,"Ġale":13045,"Ġade":13046,"Ġained":13047,"Ġole":13048,"Ġode":13049,"Ġoft":13050,"Ġson":13051,"Ġption":13052,"Ġines":13053,"Ġince":13054,"escap":13055,"Ġner":13056,"Ġety":13057,"Ġision":13058,"Ġreat":13059,"Ġitable":13060,"arp":13061,"Ġuring":13062,"Ġudes":13063,"Ġange":13064,"idic":13065,"quire":13066,"Äłver":13067,"Äłart":13068,"Äłac":13069,"Äłte":13070,"Äłthere":13071,"Äłdo":13072,"Äłbl":13073,"Äłno":13074,"Äłanaly":13075,"Äłorigin":13076,"Äłvol":13077,"Äłassert":13078,"Äłcomb":13079,"Äłsym":13080,"ĠTION":13081,"Ġrow":13082,"Ġrust":13083,"Ġrough":13084,"hers":13085,"Ġuses":13086,"ffer":13087,"Ġsel":13088,"Ġstem":13089,"Ġque":13090,"Ġmort":13091,"ĠAM":13092,"ĠATION":13093,"Ġjunction":13094,"Ġjoined":13095,"Ġys":13096,"soph":13097,"inted":13098,"Ġened":13099,"Ġention":13100,"Ġentia":13101,"Ġmatical":13102,"iousness":13103,"Ġery":13104,"Ġior":13105,"Ġius":13106,"Ġants":13107,"Ġingly":13108,"Äłinc":13109,"Äłins":13110,"Ġulate":13111,"Äłmag":13112,"Äłdef":13113,"Äłconc":13114,"Äłconcl":13115,"ÄłPer":13116,"ÄłAN":13117,"Äłdisp":13118,"Äłvari":13119,"Ġordin":13120,"ÄłCON":13121,"indiscern":13122,"ÄłÄłÄłÄłÄłÄłÄłÄłÄłÄłÄłÄłÄłÄłÄłÄłÄłÄłÄłÄłÄłÄłÄłÄł":13123,"Ġould":13124,"piritual":13125,"ĠÃ¢Ä¢Ä¶":13126,"AND":13127,"BOL":13128,"GIN":13129,"IOM":13130,"LLI":13131,"Mont":13132,"NIC":13133,"Ok":13134,"Wiz":13135,"aver":13136,"bt":13137,"hall":13138,"lor":13139,"lvan":13140,"mount":13141,"nos":13142,"rin":13143,"ris":13144,"uck":13145,"Ġ.":13146,"Ġ/":13147,"Ġie":13148,"Ġern":13149,"Ġires":13150,"ĠÄłÄłÄłÄł":13151,"Ġicable":13152,"Ġxi":13153,"Ġibility":13154,"Ġizes":13155,"Ġtil":13156,"Ġters":13157,"Ġaly":13158,"Ġains":13159,"Ġoph":13160,"Ġote":13161,"Ġcul":13162,"Ġcel":13163,"Ġpect":13164,"Ġbi":13165,"Ġffici":13166,"Ġned":13167,"lej":13168,"Ġitive":13169,"Ġitio":13170,"omin":13171,"Ġhat":13172,"Ġases":13173,"Ġug":13174,"Ġull":13175,"Ġuous":13176,"ivum":13177,"ospect":13178,"Ġond":13179,"Ġgone":13180,"ĠIC":13181,"ĠIT":13182,"Äłed":13183,"Äłve":13184,"Äłill":13185,"Äłpos":13186,"Äłro":13187,"Äłwith":13188,"Äłobject":13189,"Äłreason":13190,"Äłcontradict":13191,"Äłcomple":13192,"Äłdif":13193,"Äłap":13194,"Äłwhere":13195,"Äłintellig":13196,"Äłval":13197,"Äłneg":13198,"Äłimag":13199,"Äłoblig":13200,"Äłdesign":13201,"Äłacqu":13202,"ÄłÃĥ":13203,"Ġatis":13204,"Ġraw":13205,"Ġusions":13206,"pharm":13207,"Ġstit":13208,"Ġstood":13209,"Ġjoy":13210,"etamorph":13211,"Ġark":13212,"Ġples":13213,"ĠCE":13214,"ismis":13215,"achuse":13216,"Ġeness":13217,"Ġential":13218,"angle":13219,"rap":13220,"Ġrespond":13221,"Ġigh":13222,"Ġiable":13223,"Ġack":13224,"Ġansc":13225,"iqueSol":13226,"Ġovert":13227,"Ġceived":13228,"REM":13229,"Äłinde":13230,"Äłsch":13231,"Äłsign":13232,"Äłsatisf":13233,"Äłcol":13234,"Äłrecogn":13235,"Äłfall":13236,"scr":13237,"ĠÃĥ":13238,"Äłmist":13239,"Äłpun":13240,"thank":13241,"Äłdev":13242,"Äłhy":13243,"Äłhum":13244,"Äłhyp":13245,"Äłconver":13246,"Äłexcl":13247,"Ġ78":13248,"Ġversa":13249,"Äłprot":13250,"ÄłCom":13251,"errone":13252,"UNDER":13253,"Trancendent":13254,"ÄłIm":13255,"Ġough":13256,"Ġyielding":13257,"Äłindu":13258,"Ġounded":13259,"Ġuding":13260,"Ġuded":13261,"Ġternal":13262,"Ġakes":13263,"Äłcounter":13264,"Äłcircum":13265,"100":13266,"655":13267,"AH":13268,"Ab":13269,"App":13270,"Apr":13271,"Astr":13272,"Ant":13273,"BE":13274,"Bod":13275,"Bole":13276,"Cr":13277,"Cogn":13278,"CON":13279,"Do":13280,"Des":13281,"Dem":13282,"Dak":13283,"Det":13284,"Del":13285,"DON":13286,"DIS":13287,"DES":13288,"EAL":13289,"FIN":13290,"FUT":13291,"FOU":13292,"GS":13293,"Gign":13294,"Hold":13295,"Hypothe":13296,"Hamps":13297,"IP":13298,"Ind":13299,"Ill":13300,"Imag":13301,"IBOL":13302,"IGIN":13303,"Judgement":13304,"Law":13305,"Look":13306,"LED":13307,"Mich":13308,"Mand":13309,"Mod":13310,"Mast":13311,"MOR":13312,"Nat":13313,"Nol":13314,"Nun":13315,"Numer":13316,"Neg":13317,"New":13318,"Ov":13319,"Ox":13320,"Object":13321,"Ont":13322,"Pre":13323,"Phenomen":13324,"Pun":13325,"Pers":13326,"Post":13327,"Pro":13328,"PER":13329,"PAR":13330,"Prop":13331,"Plat":13332,"Sh":13333,"Sim":13334,"Scept":13335,"Sach":13336,"Socr":13337,"TU":13338,"Te":13339,"Tem":13340,"UTION":13341,"Vari":13342,"Wel":13343,"WIS":13344,"WAN":13345,"XIOM":13346,"Zen":13347,"aed":13348,"aum":13349,"aest":13350,"aign":13351,"aug":13352,"aert":13353,"bu":13354,"bur":13355,"bul":13356,"btr":13357,"bial":13358,"burd":13359,"bvious":13360,"boast":13361,"benevol":13362,"cle":13363,"cent":13364,"cation":13365,"cans":13366,"cod":13367,"cens":13368,"cro":13369,"dr":13370,"dy":13371,"dit":13372,"dich":13373,"decess":13374,"dise":13375,"dro":13376,"eter":13377,"eth":13378,"eur":13379,"eorg":13380,"fle":13381,"fol":13382,"fide":13383,
[...]
